#version: 0.2
t h
Ġ th
Ġth e
Ġ a
n d
Ġ s
Ġ h
Ġ o
i n
Ġ w
e r
Ġa nd
Ġo f
r e
Ġ b
t o
o u
Ġ m
Ġ f
l l
i s
e n
a t
Ġ c
o r
e s
e d
o n
Ġ u
Ġ A
Ġ d
Ġ in
Ġ p
Ġ to
h a
in g
e a
Ġ n
i t
Ġb e
Ġ I
ĠA nd
Ġth at
Ġw i
a n
Ġh a
Ġ l
o m
Ġs ha
Ġw h
Ġ g
Ġ y
Ġs a
Ġh e
s e
Ġu n
i m
Ġsha ll
s t
i d
Ġ t
Ġ L
v e
Ġf or
Ġn o
Ġun to
u t
l d
Ġh is
c h
a s
g h
l e
Ġ T
r a
o d
Ġ e
Ġh im
a r
Ġthe y
Ġ is
i r
Ġthe m
Ġwi th
O R
ĠL OR
ĠLOR D
a y
ĠT h
Ġno t
e l
a m
o w
v er
c e
ea r
Ġ J
Ġ k
th er
Ġ G
Ġ it
gh t
r i
Ġth ou
en t
Ġa ll
e t
Ġu p
er e
Ġy ou
Ġ re
o re
Ġ S
Ġth y
Ġw as
Ġ B
Ġm e
u r
Ġwh i
i l
k e
Ġa n
or d
a nd
a in
Ġm y
Ġwhi ch
Ġthe re
i on
Ġo n
r o
Ġa s
ĠG od
es t
v en
Ġsa id
Ġc om
Ġf r
Ġthe ir
Ġwi ll
Ġha ve
Ġthe e
Ġy e
u s
e th
a h
Ġm an
Ġfr om
a d
f ore
Ġs h
es s
am e
Ġs on
Ġg o
Ġf a
Ġs e
Ġk ing
a u
Ġ H
l t
h i
ĠI s
i f
Ġ M
a ke
Ġa re
Ġs p
Ġs t
Ġo ut
re n
Ġw ere
Ġup on
t er
h o
in e
l y
Ġd ay
ra el
ĠIs rael
o p
Ġb y
Ġwh en
er s
Ġ E
Ġsa y
Ġth is
i ght
Ġb ut
r ou
l s
Ġ W
Ġa g
at ion
Ġh ou
Ġc hi
ĠTh e
a l
Ġh ear
Ġag ain
Ġ F
i ve
c k
Ġha th
Ġw e
p t
Ġd o
Ġh er
e op
u d
Ġ v
Ġp eop
Ġpeop le
Ġc a
Ġhou se
ou r
Ġof f
a b
an t
Ġc ame
Ġha d
Ġchi ld
Ġha nd
Ġin to
i th
â Ģ
âĢ Ļ
e m
on g
ing s
Ġyou r
o s
o k
se l
p h
Ġcom e
Ġ O
Ġon e
ur n
Ġa m
n ess
Ġchild ren
Ġp l
Ġ N
Ġbe fore
Ġ D
g e
Ġe ver
Ġl and
ls o
Ġsh e
ĠF or
Ġ P
Ġh ea
r u
Ġa b
i e
Ġm en
it y
on e
Ġa lso
re d
Ġagain st
Ġ C
Ġa f
e p
Ġk n
Ġsha lt
as s
ou ld
au se
ow n
ĠB ut
Ġa t
Ġn e
o t
Ġs o
Ġu s
Ġs er
ho ld
ad e
Ġ j
Ġfa ther
Ġc on
Ġt w
Ġ ear
i es
Ġw ent
Ġm ade
ar d
Ġw or
Ġsay ing
Ġ ri
Ġs u
ĠTh en
Ġoff er
Ġe ven
i ll
is e
Ġb re
a c
Ġl i
re at
Ġl o
Ġh o
i ah
a v
ou t
ĠW h
ou n
Ġp ro
l o
Ġo r
Ġsa ith
Ġo ver
Ġbe c
i ce
Ġwh o
Ġw ord
c t
re s
e ll
Ġa r
Ġser v
Ġo ur
m ent
is h
Ġcom m
Ġever y
Ġaf ter
Ġg reat
Ġth ings
Ġl et
Ġha st
Ġb r
Ġm ay
l es
ou s
Ġm ake
Ġd own
v ed
Ġd e
Ġkn ow
Ġ if
i ther
Ġd id
Ġp ass
Ġson s
ĠB e
is t
ĠH e
id e
ĠJ es
a k
w ay
ĠL ord
ĠD av
ĠDav id
o f
v es
a st
ĠJ er
c c
oun t
a le
p p
Ġp ri
Ġear th
o l
or n
Ġbec ause
Ġthe se
u m
er ed
rou ght
ĠJes us
Ġserv ant
a th
i nd
Ġn ame
Ġhear t
Ġse e
sel f
Ġl a
q u
Ġg a
Ġs ou
Ġc o
Ġthe n
Ġpri est
Ġp ut
Ġa cc
it t
it es
Ġg ive
Ġy ear
ĠJ ud
l ed
Ġs w
Ġan y
Ġth ine
Ġs in
Ġd ea
Ġri ght
Ġcomm and
Ġa way
Ġthere of
Ġam ong
Ġn or
Ġsh ould
Ġfor th
r in
Ġs to
ĠJ e
r y
w ard
i g
Ġw ay
Ġb rought
nd er
Ġday s
Ġc ity
i gh
Ġca ll
o se
Ġb o
re e
os es
Ġpl a
i re
u l
Ġ Z
Ġgo od
ĠM oses
Ġe at
im e
Ġwh ere
Ġ R
ĠA b
Ġw at
Ġtw o
ale m
ĠJer us
ĠJud ah
a ll
Ġb u
ĠJerus alem
Ġm u
i c
Ġm ight
Ġc ha
ou nd
Ġthere fore
Ġp ra
ord ing
d om
Ġt ake
Ġbr ing
t ed
Ġwh at
o ther
at e
Ġne ither
v il
au ght
a re
Ġacc ording
u nd
g y
Ġbe hold
Ġto ok
l ea
Ġwh om
r an
Ġj ud
Ġli ke
it e
ĠE gy
ĠEgy pt
ea st
Ġwor k
w n
Ġhea ven
Ġb l
Ġs et
Ġd w
Ġoffer ing
i ed
ĠA s
Ġl if
o ice
Ġd el
Ġpla ce
Ġm ore
i ver
u b
Ġf o
e f
Ġno w
n g
Ġ en
Ġb ro
Ġs ent
Ġg l
ere fore
s w
Ġb urn
Ġp er
ation s
ĠC h
Ġan sw
ir st
Ġu nder
u re
ea k
om e
er n
ri b
rou gh
Ġhear d
Ġpro ph
f e
sel ves
Ġ ra
Ġre m
Ġt ru
Ġ ro
Ġd es
i p
ĠTh ou
ĠS h
o b
Ġe y
ig n
ĠN ow
Ġh und
Ġab out
Ġcall ed
Ġhund red
t y
Ġk e
ĠS o
Ġth rough
Ġm ine
an ce
Ġt ime
Ġs m
Ġth an
Ġp re
Ġe vil
Ġo wn
n e
en ce
Ġw om
Ġbe g
Ġdel iver
Ġd is
e b
Ġf irst
e ous
a ch
Ġla w
Ġe x
au l
ĠBe hold
c es
Ġan g
Ġt urn
k en
r ist
Ġsp ake
s and
ĠA m
ir it
Ġthou sand
Ġm ount
ck ed
ri ed
Ġd aught
Ġse ven
ĠCh rist
b er
ea s
Ġsa w
Ġd one
th ren
Ġy et
Ġjud g
Ġg i
l i
Ġd est
Ġ r
Ġf ire
it ies
Ġbre thren
ar t
u e
Ġright eous
Ġfather s
Ġword s
Ġth ing
Ġo ther
Ġyear s
Ġca st
Ġ Y
Ġman y
o e
Ġgl or
a g
lo od
Ġpra y
Ġhim self
Ġ K
Ġsp eak
rou nd
ge ther
Ġf our
Ġey es
Ġv oice
Ġs c
u n
Ġdw ell
Ġf ound
Ġt ab
Ġgi ven
Ġe nd
Ġansw ered
Ġho st
Ġwi cked
ment s
e en
v ing
Ġgo ld
Ġca pt
Ġproph et
m e
ĠI f
Ġto gether
Ġw ould
ha m
lea n
Ġhea d
Ġth ree
Ġservant s
Ġs ea
er c
Ġho ly
h er
b le
Ġf e
ie ld
o h
Ġs l
Ġb lood
ro y
Ġga ve
Ġhand s
Ġa pp
ea d
Ġre t
al k
Ġsou l
Ġa l
Ġdest roy
rin k
Ġh igh
Ġan other
Ġar t
Ġlif e
Ġc ities
Ġbre ad
res s
ĠTh us
Ġcommand ed
Ġth ose
Ġsw ord
Ġc an
Ġw r
Ġm ou
Ġga ther
Ġke ep
ha b
Ġt re
Ġs ide
Ġmou th
Ġa lt
Ġret urn
les h
ĠTh erefore
Ġalt ar
e v
Ġf lesh
ĠL et
ea ce
ak en
t ain
Ġf am
u st
r ow
o in
Ġm erc
Ġt rib
Ġwith out
ĠS aul
u ll
Ġ ru
Ġh ow
Ġfa ce
Ġbe t
at t
Ġshe w
Ġm id
Ġsp irit
Ġs i
Ġthem selves
Ġg ra
Ġbro ther
f ul
Ġwi fe
Ġre p
ĠThe y
Ġm o
Ġwat er
g th
Ġp rin
Ġp eace
ĠP ha
ri f
oe ver
Ġglor y
Ġking dom
Ġpriest s
Ġp o
Ġth ir
i v
il y
Ġd ep
ĠW ho
o th
Ġd rink
a i
e k
Ġo ld
Ġen em
Ġ ent
ĠJ ac
ĠP h
Ġre ce
ĠJac ob
Ġfa ll
Ġbl ess
t il
p en
Ġp r
Ġlo ve
Ġdea th
o ver
Ġdis c
re g
Ġdea d
Ġc ong
Ġbe l
Ġcon s
Ġs il
ent y
Ġw alk
Ġf ear
or t
Ġcong reg
ĠL ev
Ġburn t
is ed
Ġun c
Ġst and
Ġmid st
Ġcongreg ation
el s
Ġmu lt
Ġc ount
ain s
Ġc ause
Ġre ign
ern ac
Ġwom an
Ġfa ith
Ġtab ernac
ĠI n
s es
Ġc ar
ar on
ĠA aron
Ġl ight
Ġbo th
Ġl ef
ĠWh at
n er
Ġf ield
ĠWh en
Ġlef t
h u
o ab
Ġwi ld
Ġun til
Ġyou ng
Ġb a
Ġto ward
Ġn one
Ġs le
Ġl ive
itt en
i a
Ġf ive
Ġsto od
o nd
Ġt en
Ġt aken
Ġin c
Ġsa c
ĠPh il
Ġb east
Ġp art
Ġn ations
Ġsac rif
i qu
Ġs ight
re t
Ġg od
ĠTh at
Ġin iqu
Ġcom p
Ġ ver
Ġc ut
Ġsa me
a z
f f
Ġf ell
Ġp res
Ġbe en
ct ion
Ġ <
is ter
Ġking s
B O
ĠTh is
Ġcon t
O K
l on
Ġm other
ow er
Ġtabernac le
BO OK
att le
b s
Ġre st
Ġdaught er
Ġn ight
ren gth
ill ed
i an
ĠS am
Ġ im
Ġd ie
e nd
Ġ round
ll ow
Ġt em
Ġsil ver
Ġst rength
ish ed
Ġbel ie
Ġw ar
Ġha r
os s
Ġlo ok
u ch
Ġm on
st and
i ld
Ġn um
ĠAb ra
A R
Ġin her
Ġmon th
it s
Ġinher it
Ġb es
lo th
p le
ke th
Ġrighteous ness
er ness
ha n
om on
ĠS ol
Ġwild erness
ĠSol omon
t s
O D
b e
Ġw a
a ther
ĠB ab
ven ant
Ġco venant
ĠG OD
Ġhost s
y lon
ĠBab ylon
Ġme at
Ġar m
Ġo pen
in es
Ġ qu
ar k
o ve
Ġchi ef
y ri
at ter
Ġc l
Ġre j
Ġdeliver ed
Ġjudg ment
m b
Ġtw enty
Ġwor ld
w s
Ġl ord
Ġcon c
ĠPhil ist
Ġth us
Ġst ran
Ġsp ok
Ġwat ers
Ġs an
Ġf l
ĠJ os
Ġturn ed
Ġspok en
Ġse ed
Ġst r
ĠS on
Ġfr u
Ġwho se
a ge
Ġin hab
Ġp oss
Ġmu ch
Ġmight y
Ġinhab it
d en
i ved
Ġ U
ĠY e
Ġto ld
it ud
Ġcom eth
Ġla id
ĠPha ra
Ġbe ing
Ġbu ild
Ġsi x
ĠPhara oh
Ġse c
Ġiniqu ity
Ġf ull
Ġse en
ĠR e
Ġwr itten
Ġstr ong
Ġp ower
Ġg ate
Ġdisc ip
Ġb ow
ĠF ather
Ġsan ct
Ġwe ll
Ġmerc y
S T
ion s
e w
s p
Ġa d
Ġl am
Ġf if
Ġprin ces
Ġenem ies
ck s
Ġco ver
Ġposs ess
Ġgather ed
n ed
n ing
el t
Ġmult itud
Ġl ea
ant s
Ġoffer ings
ĠLev ites
Ġl ay
AR T
ĠB en
ĠB eth
Ġdo or
ST ART
p s
Ġb ear
Ġl ong
ar s
ĠWh erefore
Ġs at
Ġunder stand
s oever
ch es
ĠG o
Ġsu b
Ġc ub
ac es
Ġver y
Ġw all
Ġp ur
Ġfe et
Ġwh e
ch ed
if ied
Ġri ver
ĠS p
Ġsee k
ĠPhilist ines
a p
Ġw ine
ĠE li
Ġdaught ers
ĠI t
Ġg en
ĠJe ws
ĠJ ose
ĠE l
Ġsu re
ĠJe ho
Ġwho le
Ġfo llow
ĠAbra ham
ĠJose ph
g ed
Ġbet w
Ġc ho
itt le
hu a
Ġs ome
Ġw ise
er tain
l ess
Ġw is
ar y
Ġse nd
Ġsu ch
Ġdiscip les
s ed
ou d
r on
z ar
ot e
ern ing
Ġfru it
Ġmultitud e
om in
Ġgod s
Ġfor g
Ġtrib e
ĠE ph
s hi
ĠA r
Ġprophet s
Ġinherit ance
i le
Ġl ittle
Ġk ind
Ġwork s
ĠM y
Ġc am
et s
Ġtru th
th ing
Ġc ur
Ġy ea
Ġang er
Ġunc lean
Ġh or
in s
Ġc loth
or row
orn ing
Ġbetw een
Ġc ertain
Ġthere in
a ra
b b
ar ted
il ed
ĠH ow
Ġar k
Ġex ce
es e
ea ch
Ġsm ote
Ġgen er
Ġsp o
Ġm orning
Ġho ld
oin ted
Ġd re
ĠTh ese
Ġdw elt
Ġconc erning
ĠN e
Ġcon f
Ġbeg at
i ous
Ġc h
Ġsa ve
Ġno thing
Ġde c
Ġwis dom
Ġw it
Ġc lean
f or
Ġ (
Ġg ar
Ġas k
Ġkn own
Ġde v
Ġsacrif ice
e c
ra th
Ġon ly
Ġab ove
Ġw o
on s
Ġcha r
g er
Ġp it
ĠS ha
m on
o y
Ġc oun
Ġu t
Ġrem em
a iah
es c
Ġser ve
Ġdep arted
ĠJos hua
i el
Ġwi lt
Ġthy self
il t
if y
Ġpl aces
ĠE s
Ġf lo
at es
es h
Ġn ear
Ġg one
Ġe ld
ĠM an
Ġcub its
Ġb od
ea n
as h
ĠTh ere
ot s
a id
i ck
Ġm in
ran s
Ġc ry
Ġl est
one y
Ġtw el
Ġhear ken
c ause
i b
Ġd ark
Ġaf f
Ġway s
Ġrece ive
u el
ri ght
Ġpo or
ĠW e
e e
ut e
Ġdes ol
Ġtem ple
Ġc our
ĠC an
ĠBe cause
Ġd iv
Ġsa l
Ġt rou
Ġinhabit ants
n es
Ġo il
Ġb ord
ĠA ll
im on
Ġt ree
Ġj oy
Ġth r
Ġw rath
Ġd ied
Ġv es
Ġshe ep
Ġc ried
Ġt ell
Ġpra ise
Ġang el
et er
Ġwor shi
ra id
ĠJ ord
ĠM oab
ast er
Ġsle w
Ġut ter
ĠJord an
w ith
Ġ east
Ġwi nd
Ġman ner
Ġbo ok
Ġsure ly
a an
Ġf ind
Ġg round
Ġre s
ath an
a red
Ġh on
re th
Ġpl eas
Ġcont in
yri a
i z
re ad
Ġaf raid
Ġfam il
Ġ est
Ġb are
ra im
Ġsto ne
Ġt rans
Ġv is
Ġyour selves
led ge
Ġent er
g ers
as se
Ġbro ken
ek iah
j am
Ġb orn
ou ght
Ġt est
Ġv ine
Ġpre p
Ġwit ness
ou red
Ġc orn
ĠT o
ian s
b ered
n ot
Ġrej oice
Ġwhi le
ag es
Ġtwel ve
Ġst at
Ġdo th
Ġj ust
Ġsu ff
Ġbless ed
Ġre d
Ġrem ain
Ġtru st
Ġcan not
Ġreturn ed
Ġbelie ve
Ġwith in
Ġre ad
Ġpro v
Ġsl ain
Ġthir d
ĠEph raim
Ġhe l
Ġt im
Ġwom en
ĠBen jam
Ġcount ry
ĠO f
Ġjud ge
Ġnum ber
a il
Ġf ar
ea l
ĠB a
Ġkn ew
Ġsto nes
Ġbeg an
Ġeld ers
Ġaff li
Ġtrans g
m en
Ġthou gh
b and
Ġm ar
Ġre b
Ġcommand ment
Ġcha ri
Ġmount ains
Ġh us
ent s
Ġreign ed
Ġba ck
Ġthr one
i red
m ed
Ġn am
el y
ĠW hi
Ġab omin
Ġsu n
Ġde f
Ġke pt
Ġbod y
Ġtransg ress
Ġh id
ha z
Ġrep ro
Ġfamil ies
a se
e y
Ġa ro
Ġha ving
Ġsin s
Ġhus band
Ġaro se
j ah
o am
Ġb attle
Ġthir ty
ĠSp irit
Ġd ra
Ġto ng
Ġsa bb
Ġknow ledge
Ġcommand ments
Ġmin ister
Ġsabb ath
o st
Ġs ing
Ġc ould
Ġin st
se ls
Ġra m
Ġsec ond
d ow
Ġbu ilt
Ġru l
Ġt ill
Ġt each
ir d
ĠG il
ĠH o
Ġhel p
a ac
Ġv all
Ġdestroy ed
Ġvall ey
e em
Ġo x
is on
Ġsou th
ĠBenjam in
v ation
Ġm eas
Ġfor s
Ġse p
Ġor d
Ġh ere
Ġp ie
ere m
Ġbu ll
Ġcons um
Ġf east
ea se
ĠP aul
ĠAs s
ĠCan aan
g ue
u res
Ġre c
ĠP eter
Ġpass ed
Ġthrough out
Ġdark ness
Ġb ur
Ġf at
Ġf illed
ĠD an
Ġcl oud
Ġto uch
ere th
Ġab le
Ġne igh
Ġansw er
Ġrece ived
th en
Ġw ast
to n
ĠT ake
Ġunderstand ing
Ġlif ted
Ġwa it
Ġsal vation
Ġbord er
b our
Ġs k
Ġs ign
at ed
ce pt
Ġbre ak
Ġtre es
Ġcontin u
Ġneigh bour
ĠJ erem
Ġnor th
Ġwhere in
Ġfo ol
o ke
Ġl ie
Ġwh os
Ġk ill
Ġre f
Ġne w
Ġbeast s
Ġfif ty
Ġwhe ther
ĠHe z
Ġves sels
in ess
Ġc attle
ĠA d
Ġfor ty
ir c
ĠZ ion
o ls
ĠTh y
ĠN eb
Ġinc re
Ġbull o
ha d
Ġear s
l f
ver s
Ġhea then
ic es
us ed
ĠM ore
Ġthen ce
Ġf led
Ġde ce
Ġpre ach
Ġdec l
irc um
en se
ĠA n
Ġp ers
ĠJ on
Ġli ving
ĠMan asse
Ġdesol ate
ĠJerem iah
ĠManasse h
a ph
k s
Ġfa st
fe ct
ĠSh e
Ġgra ce
Ġtim es
ircum c
t een
ea red
Ġsa ke
ĠJ oab
Ġcar ried
Ġspo il
Ġ id
Ġn ation
Ġg ates
Ġwas h
Ġst ri
pp ed
Ġgl ad
ĠHo ly
ĠMore over
A H
Ġh op
Ġp ill
ĠH am
ab l
Ġoffer ed
Ġproph es
Ġlook ed
Ġh ill
Ġm oney
ĠH ear
ĠWh y
ĠSam uel
l se
Ġg r
Ġg u
Ġsl ay
Ġsanct u
Ġwo od
Ġcoun sel
u lt
Ġwh y
Ġl ab
Ġthou ght
Ġme et
il es
Ġshe k
Ġmu st
Ġcapt ain
Ġcomp an
Ġcam p
ĠB less
im s
ra y
Ġbeg in
Ġshew ed
Ġopen ed
a lt
Ġm ind
Ġha lf
Ġmount ain
Ġsanctu ary
l ing
m p
Ġs ister
Ġm our
Ġgo eth
Ġhou ses
Ġpro f
Ġbec ome
Ġwhat soever
iv ity
at s
Ġg ri
Ġwhi ther
Ġdes p
ĠSam ar
a ve
v our
ĠJ oh
ent iles
Ġst ra
Ġheaven s
Ġhon our
ĠJoh n
i eth
ut es
ĠIs aac
Ġserv ice
Ġmo st
Ġstat utes
Ġwhos oever
w ise
Ġf ul
Ġwi ves
Ġro se
Ġstran ger
Ġred eem
in ed
ru ction
Ġne ed
Ġsw e
Ġper ish
Ġdep art
Ġpr om
Ġcomp ass
Ġpres ent
Ġm aster
en ed
Ġp al
ĠJ o
ĠG entiles
Ġsp read
Ġdes ire
Ġinc ense
Ġtong ue
Ġhop e
s u
Ġo pp
Ġb ea
Ġnum bered
ĠWhi ch
ĠHez ekiah
o c
Ġa p
ĠHe b
ĠAm mon
Ġcapt ivity
ĠBa al
a ce
s en
an g
le m
Ġbr ass
Ġmake th
Ġgive th
ne y
Ġjudg ments
Ġr ise
Ġapp ointed
Ġtre as
oin t
s ha
t en
Ġst re
Ġsou ght
Ġwicked ness
Ġsi ck
Ġcour t
b orn
m er
s al
u p
Ġbo nd
ĠSamar ia
Ġ esc
Ġm ess
ham ed
Ġfam ily
Ġpr ison
Ġwalk ed
Ġbes ide
Ġcho sen
Ġdre am
Ġesc ap
u ght
Ġo be
Ġas hamed
Ġst ret
ĠO ne
ĠC ome
Ġsc rib
ee ch
Ġest abl
n ow
Ġf le
Ġdid st
Ġpie ces
ĠJon athan
y ard
er y
Ġf ore
is ha
ak ed
orn s
Ġseven th
ĠBless ed
Ġt er
ab le
Ġli ps
ct ed
Ġsou nd
Ġsin ned
ĠY et
Ġcapt ains
Ġask ed
ll y
Ġd ri
Ġmy self
all y
Ġtru mp
Ġlea ve
Ġgener ations
ĠAss yria
Ġo b
Ġf ur
Ġp ort
se c
Ġe ight
Ġsh ip
Ġso ld
ĠWh ere
Ġper fect
Ġch ur
Ġrepro ach
Ġsm ite
Ġr od
Ġpres ence
Ġbelie ved
Ġtrou ble
t eth
u c
Ġc or
ha th
an s
ur bs
Ġsh ut
Ġde vil
Ġsub urbs
ean s
Ġlab our
Ġswe et
le ch
ow s
Ġcomm itt
Ġmay est
ast ing
Ġey e
Ġvine yard
ĠGil ead
Ġ ind
Ġs orrow
Ġas s
Ġv ain
Ġab und
Ġheart s
Ġco ast
Ġfirst born
Ġtrib es
Ġchari ots
Ġopp ress
Ġmess en
Ġobe y
p ass
Ġb ound
Ġf ine
Ġf ight
or s
ha h
Ġg if
ut ed
el ess
us h
Ġne ver
Ġsu pp
ic ation
c ious
Ġw ro
Ġt res
av es
Ġfo ot
Ġro ck
Ġhead s
Ġhor ses
Ġflo ck
Ġtest imon
Ġtres pass
ha r
Ġl in
ĠB al
ter s
Ġv i
Ġsc atter
Ġenem y
Ġhor se
Ġfle e
a im
b led
e ed
Ġb ed
ed ing
ho st
ĠN o
Ġpray er
Ġfollow ed
r own
v est
Ġd ust
Ġas se
ĠAb sal
Ġal one
Ġcur se
Ġworshi p
ĠAbsal om
o ved
y ing
Ġl ion
ri end
our ney
ph at
Ġj ourney
Ġbr an
Ġent ered
Ġcover ed
Ġgener ation
ĠSha ll
Ġbullo ck
r ing
as on
ph er
Ġbec ame
ob oam
Ġr is
Ġbet ter
Ġful f
Ġs it
Ġb on
ĠA l
Ġre ward
ĠE dom
Ġv an
em ent
Ġeat en
Ġwhere with
Ġbu ried
Ġra in
Ġbegin ning
i ch
Ġa c
Ġs ore
Ġsa ved
el ah
Ġgo sp
Ġknow eth
ĠJer oboam
ĠY ea
Ġru n
Ġrep ent
Ġpossess ion
Ġlin en
Ġgosp el
p l
er ve
Ġm atter
ĠA lso
Ġbe lo
Ġst ill
eb a
ĠNe ither
Ġgar ments
Ġremem ber
Ġsuff er
Ġbelo ved
f ter
i ent
Ġb ra
Ġm orrow
Ġn aked
Ġg ird
ĠS ay
Ġthan ks
ĠPha r
ĠJeho i
Ġprep ared
Ġox en
i ra
i ence
Ġw rought
re w
Ġf riend
Ġsa in
Ġt ra
Ġim age
Ġcloth es
Ġchar ge
Ġutter ly
Ġbur den
Ġincre ase
Ġid ols
in k
Ġn igh
Ġsha me
Ġcom ing
Ġlo ved
Ġapp ear
Ġprin ce
Ġba pt
ĠEs au
Ġread y
Ġport ion
ĠPhar ise
a am
Ġ ir
Ġo ught
Ġg et
Ġt ent
Ġan ointed
Ġpro sp
Ġwat ch
Ġsm all
Ġbon es
m an
p e
Ġth ither
Ġm aid
Ġup right
Ġgo ats
Ġfa lse
ie f
Ġsee ing
Ġpla gue
ĠZ eb
ĠEgypt ians
Ġlif t
Ġburn ed
Ġfaith ful
Ġsle ep
mb ers
Ġsec ret
Ġexce eding
Ġir on
l asting
Ġp ure
ĠE ven
Ġhou r
Ġever lasting
ound ed
Ġex alt
Ġnam es
a el
th eless
Ġw est
Ġc her
Ġto p
Ġt e
Ġst ead
Ġwe ep
Ġdo eth
Ġri ches
Ġfam ine
Ġmult ip
Ġlive th
Ġconsum ed
Ġshek els
Ġsain ts
z er
ay ed
ĠH er
ĠO n
Ġbl ind
Ġsep ar
c ed
p er
t e
u ng
Ġ V
Ġs eas
Ġc reat
ĠA hab
ea h
ĠG ad
ĠH an
Ġca used
Ġang els
Ġasse mb
re esc
Ġdest ruction
Ġcar ry
reesc ore
n ant
u ke
v ent
Ġth reescore
Ġs itt
Ġre qu
Ġgo ing
Ġpl ant
ĠC ha
Ġrem nant
Ġcommitt ed
Ġcher ub
h e
u red
z zar
ĠA h
al i
ub en
Ġrem oved
ĠRe uben
Ġinst ru
ĠNeb uc
ĠNebuc had
g s
th y
Ġh ate
to r
Ġf ow
ed ge
ĠA hi
ver n
ĠG al
ĠG host
ure ly
ĠCha ld
h on
h em
u th
id ed
ar le
Ġre ason
Ġgo vern
ho b
ru pt
Ġbread th
Ġdecl are
Ġpill ars
h or
u es
ou gh
an iah
id er
Ġno ise
ĠS urely
ĠH is
ĠM a
ime lech
Ġend ure
Ġal ive
Ġaffli ction
Ġs n
is ion
ĠG ive
Ġv ill
Ġpl ain
Ġwhere fore
ĠAm or
ĠPharise es
Ġc ru
ĠA fter
Ġin ter
Ġt ar
ro s
Ġear ly
Ġgreat ly
ic ed
Ġdre w
Ġgar ment
Ġrul er
Ġcompan y
Ġac cept
Ġw ond
Ġc rown
Ġp oured
Ġwi dow
Ġl ast
os ed
Ġen qu
Ġra ised
ĠJeho sha
ĠJehosha phat
i er
z z
ĠA g
Ġha ir
Ġre v
ĠB y
ĠE lea
Ġri ch
Ġfour th
Ġfe ed
Ġvis it
Ġvan ity
a ls
b it
k es
Ġm ur
Ġc al
Ġre g
ĠS e
ur t
ru n
Ġsw are
Ġdel ight
ĠSh em
Ġal way
ĠDan iel
Ġfool ish
pher d
x ed
Ġa ton
Ġc ircumc
Ġp ast
le th
ce ived
il k
Ġarm y
ĠU n
Ġpit ched
Ġhearken ed
Ġref u
Ġap ost
Ġfulf illed
I AH
f ort
Ġh ither
en gth
ĠA t
Ġd run
Ġbe at
Ġt aught
ar i
Ġde ep
ĠZ er
ĠR am
Ġten th
Ġlam bs
Ġreb ell
Ġdra w
Ġcontinu ally
Ġaton ement
x t
Ġd en
Ġp or
Ġl ength
Ġhe ed
od e
ro ad
Ġshe pherd
Ġab road
ĠAb i
Ġwr ite
Ġflo cks
Ġprophes y
E N
Ġ ran
Ġs ear
ĠA haz
it ter
Ġha bit
Ġl ead
Ġsha dow
Ġt alk
Ġre n
ĠIs h
Ġhea led
ĠJe z
Ġbring eth
Ġtru e
Ġfall en
Ġsacrif ices
Ġvis ion
ĠHeb ron
Ġmessen gers
Ġs y
Ġf ree
Ġp un
Ġl ed
Ġfor b
ow ed
ce nd
Ġknow est
Ġsou ls
Ġlike wise
Ġbow ed
Ġdev our
Ġrul ers
Ġcor rupt
Ġvi ol
Ġw ear
Ġc ou
ri es
ĠB ar
Ġon es
Ġcom fort
ĠW oe
Ġab ide
ĠR em
ĠAm en
Ġstran gers
Ġfl our
Ġlam b
Ġram s
Ġchur ch
Ġbapt iz
r om
Ġh ide
Ġw ings
Ġm is
Ġd am
Ġl ot
ar m
ĠS imon
ĠS yria
Ġv ir
Ġbre ast
Ġar ise
Ġgreat er
Ġpass over
ath s
Ġco nd
Ġtab le
Ġmo ved
Ġstran ge
Ġriver s
Ġabomin ation
Ġsk in
Ġprosp er
b y
Ġb as
Ġf ish
Ġf ig
Ġc ed
Ġc ease
Ġwh ore
Ġwh ite
ĠL eb
ĠS yri
ĠS elah
ven ed
Ġserv ed
Ġpre cious
Ġprep are
Ġabomin ations
Ġfors aken
Ġtestimon y
Ġbran ches
Ġvill ages
j our
m ber
Ġf eared
ea keth
Ġe le
hi nd
if ul
Ġsp eaketh
Ġtake th
ag o
Ġqu ick
Ġestabl ished
ĠElea zar
Ġd ist
Ġbe hind
Ġyou th
Ġfa ces
Ġso jour
Ġcomm it
Ġper sec
Ġpre y
Ġdis p
Ġgra ve
ĠAr ise
Ġcloth ed
Ġbra ke
ĠAmor ites
ĠLeb an
> ,
n eth
Ġo bs
er v
er ily
Ġb itter
Ġd ry
Ġg re
Ġas ide
Ġhouse hold
os h
Ġen c
ĠLev i
Ġrej o
ĠU zz
ĠSp eak
ile e
Ġdef iled
Ġgr ass
Ġstret ched
ĠV erily
ĠGal ilee
Ġinter p
m ost
Ġa ct
at ely
Ġc up
ir m
ĠM er
Ġwe pt
ot ten
Ġshould est
Ġper for
Ġwom b
Ġim ages
Ġtem pt
Ġdoor s
ĠNe ver
Ġprof it
Ġbea ut
Ġscatter ed
ĠLeban on
p ed
s ue
u al
Ġc and
Ġd a
Ġto w
ĠL o
ch em
ĠH az
Ġoff ic
ĠO r
ul ch
ĠK ing
Ġapp eared
Ġbes eech
Ġad vers
Ġworshi pped
Ġsep ulch
ĠNever theless
m s
n ers
n ago
Ġh um
Ġp ara
Ġt al
ĠJ ob
Ġk id
Ġk illed
Ġfa vour
ĠN ot
ĠD o
Ġab ode
Ġwhere of
ĠAs h
ĠEli jah
Ġdiv ided
Ġtrou bled
Ġmeas ure
Ġstra ight
Ġfur y
Ġind eed
Ġsy nago
e ct
v y
Ġth ink
Ġm ag
Ġl ow
Ġl ep
Ġg ro
as c
Ġsh ield
ĠM id
ĠW ith
Ġafter ward
Ġcha mber
ran ce
Ġpre v
Ġfe w
Ġpo ll
Ġver ily
Ġad ult
Ġdece it
Ġscrib es
Ġabund ance
EN D
Ġ ve
Ġh orns
Ġm ak
ain t
al iah
Ġwe ight
Ġso on
ard en
Ġwor thy
ĠBeth el
Ġren t
ĠMid ian
n a
Ġh urt
ĠA z
Ġt ents
Ġthere on
Ġfa il
Ġse eth
ĠAb imelech
Ġcha mbers
aught er
Ġgold en
ull y
be it
Ġwall s
ĠAr t
Ġkind led
ĠChald eans
Ġact s
Ġh oney
Ġh ung
Ġp our
Ġn in
Ġg arden
ĠT y
ain ed
Ġas ton
ad ab
Ġsh out
Ġse em
ĠM ic
Ġj oin
ard s
Ġpray ed
Ġru le
Ġbless ing
Ġlove th
Ġres to
ĠShe chem
Ġhill s
Ġstre ets
Ġtrump et
Ġvir g
d er
Ġb and
Ġb ot
Ġb lem
Ġf ought
Ġhe ight
Ġan oint
Ġas ses
Ġsp ear
Ġher d
ĠJer ich
ĠZ ed
Ġex ec
Ġother s
Ġpart s
ĠRe hob
Ġexce ll
eal ous
Ġchari ot
Ġwast e
Ġsupp l
Ġexalt ed
Ġcherub ims
Ġapost les
Ġcond em
Ġblem ish
ĠJerich o
, )
b les
l iness
Ġh ence
Ġf ill
Ġd omin
Ġsa ck
ĠF rom
ĠD am
Ġlo ins
um b
ĠAb ner
Ġsm itten
Ġjudg ed
Ġhar vest
Ġforg et
Ġredeem ed
ĠBal aam
Ġda ily
Ġh at
Ġw eak
Ġf lood
Ġd ou
Ġd il
Ġp u
Ġl oud
ad a
Ġsh o
Ġne ck
Ġdea l
Ġra ther
Ġthousand s
Ġpo st
Ġsanct ified
Ġsanct ify
Ġpur p
ĠEl isha
Ġpleas ed
Ġwro te
ĠZed ekiah
Ġdil ig
i ves
m aid
p es
Ġo ath
is f
Ġl ear
Ġsa vour
as han
ĠG i
Ġup ward
ĠS ara
Ġman if
Ġfa ir
ĠH ave
Ġsp rink
Ġeven ing
lea vened
tain ed
Ġhar d
ĠAbra m
Ġfif th
Ġsat isf
Ġpleas ure
Ġfors ake
Ġord er
Ġrec om
Ġpreach ed
Ġtreas ures
ĠAl m
he ld
Ġpun ish
Ġbaptiz ed
ĠSyri ans
asc us
Ġdomin ion
v enty
Ġh ated
Ġf et
ha s
Ġy oke
Ġun leavened
ve ll
ra h
ri pt
ĠB ashan
ord ec
Ġse venty
ĠM ordec
ĠF ear
res h
ĠJe hu
ĠAs a
ne zzar
ĠK now
Ġspeak ing
Ġdwell ing
Ġlam ent
Ġpur su
Ġdesp ised
Ġdri ve
ĠNebuchad nezzar
Ġalway s
ĠDam ascus
ĠMordec ai
a ir
c l
i al
m ble
Ġa w
Ġf in
Ġto wn
im ent
as ph
ver y
ĠS in
Ġse at
Ġwhen ce
Ġli eth
Ġsw ear
Ġsin ce
Ġbl asph
Ġra ise
Ġcapt ive
Ġcons ider
Ġfield s
Ġmonth s
Ġcho ose
Ġexce pt
Ġgif t
Ġhorse men
Ġgovern or
Ġendure th
Ġreg ard
Ġsear ch
Ġblasph em
n ah
n al
Ġ er
er t
re ction
Ġb ind
Ġc re
id es
ĠE very
ight y
rou d
ĠThe ir
ru st
Ġli ved
ak im
Ġburn ing
rib le
Ġdwell eth
Ġunc ircumc
Ġfell ow
Ġord in
Ġescap e
Ġescap ed
Ġseas on
Ġhabit ation
Ġoffic ers
b ed
i et
Ġw ea
Ġm ing
at an
Ġin n
Ġp ub
se th
ĠL ab
ĠS i
ĠS ee
Ġon ce
Ġwill ing
ĠM aster
Ġhand maid
Ġne xt
Ġar row
Ġdea lt
Ġbu y
Ġra iment
Ġkingdom s
Ġqu een
Ġforg ive
Ġcur tain
Ġremem b
Ġremem bered
Ġpleas ant
Ġprov in
Ġnam ed
teen th
Ġthought s
Ġnaked ness
Ġinterp ret
ĠAlm ighty
J O
l est
r us
s erv
Ġ edge
Ġs ow
Ġh y
Ġh ang
en ance
Ġp roud
Ġl ying
ĠS atan
il ate
ĠE th
Ġdo ct
ĠP ilate
Ġhea l
Ġeat eth
Ġcha ng
Ġtab les
Ġsl aughter
Ġcar c
ĠEs ther
Ġpers on
Ġpers ons
Z E
i ately
Ġm et
Ġin t
Ġl od
Ġl ad
Ġre ap
Ġsh ed
ck ets
Ġfo od
Ġaltar s
Ġgra ven
Ġcount ries
Ġiniqu ities
Ġspo iled
med iately
Ġconsum e
ĠCanaan ites
Ġdevil s
ĠSay ing
Ġfow ls
Ġwond ers
Ġviol ence
Ġming led
ĠLab an
t le
y ond
Ġth irst
Ġb ird
Ġp at
Ġn et
Ġbe yond
Ġl ust
Ġg row
as ed
od om
Ġe m
ent ly
ĠS t
ĠM ary
ĠM iz
op h
ĠE n
Ġpl u
ĠN a
ĠN aph
Ġso ckets
ime on
Ġbro ok
Ġfound ation
Ġstand ing
Ġfl ow
Ġad d
ĠBeth le
Ġforg i
Ġaffli cted
Ġscrib e
ĠZeb ul
ĠHer od
ĠUn to
Ġmis ch
Ġsepulch re
Ġpub l
e el
m uch
n on
o ch
p ent
Ġ ven
Ġh ome
Ġu nd
Ġd ig
it ion
Ġbe held
ĠS al
ĠS imeon
ad ok
Ġj ealous
Ġbre ath
ous ly
ĠJud a
ĠZ adok
Ġsc ript
Ġcount enance
Ġim mediately
be on
ĠJos iah
ĠEli as
Ġdev oured
Ġremain ed
Ġsign s
ĠHam an
Ġprom ise
Ġgif ts
ĠNo ah
ĠAg ain
ĠIsh m
Ġwhore dom
Ġobs erve
Ġcand lest
Ġmanif est
ĠBethle hem
; )
f ully
k ed
Ġhe ld
as much
ĠG ib
Ġsp eech
ĠN eth
Ġhea reth
Ġover th
Ġhast e
Ġde ed
Ġdes ired
ĠThou gh
ĠK o
ĠK ir
Ġsc arle
ek ah
ĠU ri
Ġwhe at
Ġchar ged
esh b
Ġprof an
Ġter rible
ĠJehoi ada
ĠNaph t
Ġscarle t
c y
h es
l ied
r ine
Ġb right
en s
Ġp est
Ġp ot
Ġto o
Ġl ies
id on
Ġe ph
ar ies
ĠJ am
ur sed
ĠH ad
Ġst ir
Ġst ars
Ġdo ings
Ġoff end
Ġaf ar
Ġour selves
ale k
Ġsw all
ĠZ i
Ġgood ness
ach er
ĠAm alek
Ġjudg es
Ġend s
Ġbuild ed
Ġtransgress ion
Ġgu ard
Ġmour ning
Ġprom ised
Ġtrump ets
Ġcoast s
Ġris en
Ġinstru ments
Ġced ar
Ġdist ress
Ġtal ents
Ġrememb rance
Ġdoct rine
ĠIshm ael
Ġeph od
C H
Ġ each
Ġth ick
Ġb ar
ou ra
Ġm ark
Ġf urn
is eth
or ah
on i
ea reth
Ġn ine
st ance
id eth
id ings
Ġfor mer
ra m
Ġe p
Ġit self
ĠB el
ĠH ar
Ġover l
Ġcha st
Ġbl ue
Ġro ot
Ġglor ified
Ġmo on
ĠWho soever
over ed
Ġbel ong
Ġsub stance
Ġcam els
Ġsuff ered
Ġprophes ied
Ġstret ch
Ġte eth
Ġperfor m
ĠRehob oam
Ġpu rif
Ġcre ep
Ġforgi ven
ĠNapht ali
Ġpest il
e es
i ble
Ġth rust
in t
Ġw ant
re el
Ġm ale
ĠA zar
ea th
Ġbe lly
an ces
Ġl ang
Ġy ield
Ġhe ll
Ġt ear
Ġfor ward
ce ive
ĠS odom
Ġst aves
Ġv al
ab b
em ber
ok ed
ĠN athan
ĠP ra
ĠC a
Ġsu m
Ġli ken
Ġtre ad
Ġsle pt
Ġhar l
Ġconf ounded
Ġdec ree
Ġwitness es
Ġtouch ed
Ġincre ased
ĠJo ash
Ġdri ven
Ġwro th
Ġfriend s
Ġassemb ly
Ġcru c
Ġenqu ire
ĠJez reel
ĠRem ember
Ġpara ble
Ġmisch ief
ĠAzar iah
Ġlang u
c loth
g ues
t ing
w ed
Ġth orns
Ġs ides
Ġm ilk
Ġf ount
en ced
ĠA ch
Ġin ward
it ing
Ġe ter
am ar
ĠH itt
ers h
Ġdo st
ĠP er
Ġpro cl
Ġsw orn
Ġsin ners
Ġpr ide
Ġcover ing
Ġpur ple
Ġkind ness
Ġdiv ide
Ġmar vell
Ġtransgress ions
Ġcloud s
Ġgri e
Ġgri ev
Ġpal ace
Ġestabl ish
Ġmultip ly
Ġtow er
Ġem pt
ĠGib eah
c ha
u ri
u nder
to m
Ġk is
ĠG ed
ĠB ring
Ġson g
if t
ĠM ake
ant ly
ĠJes se
Ġacc om
ĠR ach
eas ed
Ġglor ious
Ġtre mb
az iah
Ġim p
Ġhar den
Ġsix th
ĠHow beit
Ġconf id
Ġglad ness
Ġpill ar
Ġtra v
Ġrefu ge
Ġdam sel
Ġenc am
Ġbeaut y
Ġsack cloth
ĠKo hath
Ġpestil ence
ĠPra ise
ĠCa es
Ġeter nal
ĠRach el
l ation
l ive
r or
Ġf ro
Ġc lea
Ġd iver
Ġin f
Ġl ions
ĠT im
ĠB o
ur rection
Ġcom for
Ġgo est
Ġse ll
Ġca re
Ġoff ice
Ġland s
Ġcon ceived
ĠJe b
ĠJe ph
Ġkeep eth
Ġqu iet
Ġforg otten
Ġdesol ation
Ġves sel
Ġenter ing
Ġmeas ured
Ġmour n
Ġsn are
ier ce
Ġinterpret ation
ĠZebul un
a ff
a iled
b a
g ean
l ah
m or
Ġa ven
Ġb an
ĠA i
Ġto r
ea led
Ġt idings
et y
Ġpl ease
ac har
Ġar ray
ĠSh il
Ġsm oke
Ġfour s
ai red
Ġarm our
Ġcub it
Ġcur sed
Ġbelieve th
Ġdef ile
Ġbullo cks
Ġwash ed
Ġvineyard s
Ġmultip lied
Ġcreat ed
Ġtar ry
Ġrejo iced
Ġsynago gue
ĠGi beon
Ġtown s
Ġinn oc
ĠJeb us
gean ce
c ess
g al
s achar
Ġs ud
Ġo live
er ved
Ġb ought
an i
ĠL i
ĠL ot
Ġfor n
ĠJ a
ĠG ide
Ġre ed
ĠIs sachar
ĠN ab
ĠAs her
Ġper ver
Ġang ry
Ġr ings
ĠK e
Ġmerc ies
Ġrep aired
Ġbes ought
han an
Ġreb uke
Ġcompass ed
Ġweep ing
Ġele ven
Ġgre en
ĠMic ha
Ġband s
Ġsud den
f t
i ving
to od
Ġf aint
is es
en ess
ĠA re
Ġd ro
Ġsa lt
id d
id ing
Ġe lse
ir th
Ġas hes
Ġsp are
Ġst aff
Ġdo est
Ġv ow
Ġpl ead
Ġfather less
Ġro ll
Ġcapt ives
Ġapp oint
Ġmerc han
Ġarm ies
Ġfollow ing
Ġconf ess
Ġwo nder
Ġbord ers
asse th
Ġjust ified
Ġpie ce
Ġrec ord
Ġshek el
Ġobey ed
ĠBal ak
Ġsitt ing
Ġjoin ed
Ġvirg in
Ġsatisf ied
Ġuncircumc ised
Ġven geance
ĠJuda ea
Ġclea ve
i our
Ġw ound
Ġb os
Ġm al
ĠA ha
Ġp aths
Ġl atter
ĠH or
Ġst ep
Ġag e
Ġher self
ĠN az
Ġab hor
ĠC arm
ac ed
ale b
Ġsee keth
Ġshould er
Ġgood s
ime i
Ġbl ow
Ġdes ert
ĠSh imei
Ġbet ray
Ġspirit s
Ġfru its
ĠBen aiah
Ġprov oke
ira m
Ġte nder
Ġsitt eth
Ġtalk ed
Ġwear y
Ġstraight way
Ġmag n
Ġpost s
Ġfin ished
Ġchang ed
ĠJam es
Ġharl ot
ĠLi ke
i op
Ġa uth
Ġo cc
Ġw al
Ġm ad
Ġf ing
Ġf ierce
ce ed
ĠM esh
ck on
Ġv o
Ġbr ide
Ġco ve
itt im
Ġbo ards
Ġcha n
ign ation
AR IAH
Ġlord s
Ġunclean ness
Ġres urrection
ĠGil gal
Ġdecl ared
Ġcompass ion
Ġfore st
sec r
Ġind ignation
Ġplant ed
tor s
ros s
ĠShem aiah
Ġdrun k
ĠSara h
Ġarrow s
ĠEth iop
ZE CH
Ġaccom pl
Ġsudden ly
Ġbos om
Ġauth or
Ġwal keth
ZECH ARIAH
: )
d u
f ru
m ore
p oc
Ġ ign
Ġw and
Ġd ed
Ġd ried
Ġp ay
Ġha pp
Ġsa f
Ġt ith
Ġis sue
ĠJ ab
Ġre ach
Ġhea vy
Ġser pent
Ġcon secr
Ġho liness
Ġfo ols
Ġrem ove
Ġro ar
ĠAm aziah
Ġmerc iful
Ġcount ed
Ġstrength en
ĠBeth s
Ġtouch eth
Ġexceeding ly
Ġdrun ken
Ġbeat en
Ġpoll uted
Ġhy poc
Ġcandlest ick
Ġgrie ved
Ġgriev ous
Ġhypoc r
I C
o ld
s on
s ing
u ff
Ġa ir
Ġh orn
re st
Ġb en
Ġm ed
Ġf i
Ġin ner
Ġl east
se ll
Ġe igh
am ent
ent ion
Ġre sp
Ġas cend
lt en
Ġsay est
Ġdo ing
Ġv ail
Ġv ali
ĠN ay
Ġhea p
ĠC y
ĠJe w
ĠR ed
Ġro om
Ġlaw ful
Ġsc orn
Ġmo lten
ĠSam son
Ġstrength ened
Ġwa x
Ġconc ub
Ġbow els
Ġpossess ed
ron ic
Ġclean sed
Ġeast ward
Ġcorn ers
Ġmeas ures
Ġbur y
Ġstri fe
Ġbond age
Ġship s
Ġris ing
ros y
Ġmur m
Ġmur der
ĠSe ir
Ġpor ch
Ġquick ly
ĠMer ari
Ġlep rosy
Ġadult ery
Ġsuppl ication
Ġrecom pen
Ġprocl aim
ĠGide on
Ġign or
Ġeigh th
c ore
m ah
p ah
Ġth resh
Ġb ars
ou reth
Ġf enced
on c
on oun
ĠA ra
Ġp asseth
ĠI th
Ġha il
Ġl au
Ġsha ke
Ġt r
Ġme mor
ĠH ast
ĠH igh
ĠH eshb
ĠM e
ĠD el
Ġover c
Ġcomm un
ath ar
Ġdes cend
un to
Ġwould est
Ġapp ro
Ġcan st
Ġwr iting
Ġpr onoun
Ġch ronic
Ġcoun sell
Ġdra g
Ġsing ers
Ġneed y
Ġtreas ure
Ġoppress ed
Ġgird le
Ġappear ance
Ġrev ealed
Ġcircumc ised
Ġshepherd s
Ġforb id
Ġbas k
Ġpursu ed
Ġdig ged
Ġempt y
Ġdiver s
Ġinnoc ent
Ġstep s
ĠHeshb on
Ġchronic les
a ck
a res
b el
h ead
k ind
p it
w h
w or
Ġs im
Ġm ean
Ġm ira
Ġf il
Ġc aught
Ġsha r
Ġfor t
ĠG ath
Ġsh ort
ers tood
Ġhear ing
ĠP ers
Ġwor keth
Ġli ber
Ġlet ter
Ġde w
Ġknow ing
Ġcha ins
Ġbro ad
ĠAm m
Ġtrib ute
Ġgra pes
Ġim ag
Ġtem p
stand ing
Ġwa xed
Ġbuild ing
Ġlam ps
for th
Ġreceive th
Ġcontin ue
Ġcorn er
Ġremain eth
Ġaffli ct
Ġminister ed
ĠHam ath
Ġstra it
Ġpal m
Ġchur ches
ĠJehoi akim
Ġassemb led
arle y
ĠAhaz iah
Ġprev ailed
ĠTy re
Ġcondem n
Ġpurp ose
Ġdilig ently
ĠSin ai
ĠSi hon
Ġund erstood
ĠKir j
Ġval our
Ġcruc ified
Ġconfid ence
Ġcomfor ted
Ġauthor ity
Ġmira c
o keth
t i
u z
Ġh ind
Ġw ounded
Ġb arley
Ġf ly
at ch
Ġn ought
ĠT urn
ent ieth
ur y
Ġthere with
ĠM att
em pt
ĠO h
ĠC aleb
Ġso lem
Ġtw entieth
Ġbre ach
av est
ĠK ad
Ġsea led
Ġwr ong
ull am
Ġinc l
ĠPhil ip
Ġpres erve
Ġkind red
Ġpit ch
with standing
Ġtong ues
Ġinst ead
Ġdesp ise
Ġstre et
Ġtestimon ies
ĠRam ah
Ġrebell ious
Ġadvers aries
Ġresto re
Ġtear s
Ġfours core
Ġforn ication
Ġsolem n
E L
f l
l er
t ten
er ies
Ġm eans
en cy
or am
Ġd uke
Ġn at
Ġha llow
om eth
Ġe ither
Ġe qu
ĠJ ed
Ġgo at
if f
Ġst ay
em an
ĠWh om
Ġpro ceed
Ġwhere by
Ġfo lly
Ġper ceived
Ġpre cept
Ġdis m
Ġsil ence
Ġfruit ful
Ġch e
Ġcour se
Ġstat ute
Ġreb u
Ġsabbath s
Ġord ained
Ġwait ed
Ġpers u
Ġob lation
Ġdisp lea
Ġoverl aid
Ġtrav ail
Ġresp ect
A N
F or
d ra
Ġ ea
Ġh ired
Ġb us
Ġb ad
Ġc un
Ġu se
id ue
ĠL eah
il ah
ĠH ilk
Ġlet ters
ĠBe ersh
Ġbo ld
ĠAs aph
Ġfirst fru
Ġex p
Ġgra cious
Ġsacrif iced
Ġbes ie
Ġres idue
Ġprov oked
Ġtransgress ed
Ġref used
Ġdece ived
Ġmessen ger
vent ure
Ġenqu ired
Ġcircumc ision
Ġrebell ed
Ġnin th
Ġaston ished
Ġcarc ase
Ġpat ience
Ġjealous y
oura ble
Ġep hah
Ġliken ess
Ġea g
Ġcun ning
ĠHilk iah
ĠBeersh eba
H E
M IC
a ren
g es
g od
g ran
k am
l ong
p han
Ġs el
Ġh ot
Ġh ire
in n
er a
er eas
Ġb ri
Ġc eased
ĠA cc
Ġd eter
Ġp ome
Ġg avest
Ġfor med
ra ce
od den
Ġe v
Ġre ckon
ĠS ham
Ġan c
ĠH ere
hi b
ĠM ed
ĠM ach
Ġst um
al m
ĠO ur
ĠO bed
ĠD id
Ġlo st
Ġlo ving
Ġlo oketh
Ġpri ce
ĠJud as
Ġgood ly
ĠR eb
are th
Ġen l
Ġthan k
Ġturn eth
Ġhar p
Ġqu est
Ġcl ay
ĠPhilist ine
Ġfl ame
Ġinhabit ant
Ġwhe els
Ġbod ies
Ġinst ruction
Ġcontinu al
ĠAd am
Ġpal aces
Ġeight een
Ġjourney ed
ĠOn ly
Ġsepar ated
Ġpor ters
Ġherd s
Ġexcell ent
Ġdeed s
Ġprofan e
Ġfount ain
Ġharden ed
Ġencam ped
ĠShil oh
ĠCarm el
Ġvali ant
Ġlau gh
MIC AH
Ġdeter m
Ġpome gran
e us
g ing
i ers
s o
t est
Ġs own
Ġc ord
Ġc us
Ġbe ha
Ġhe at
as ha
Ġwith al
Ġme mbers
ad venture
Ġsh ine
ĠIs aiah
Ġsp ot
Ġca ve
ok s
Ġlo aves
Ġlo osed
Ġgreat ness
Ġsto re
ĠAb isha
ic ing
Ġen ough
Ġtru ly
ĠSh eba
ĠK en
Ġfound ations
Ġtre acher
Ġcause th
Ġpart ak
Ġwa ve
Ġinhabit ed
Ġsub j
shi p
Ġclean se
Ġtrust ed
Ġfeast s
ĠAd oni
Ġdece ive
Ġgr ant
Ġabund antly
Ġbran ch
Ġrepent ed
Ġgird ed
Ġrequ ire
Ġfow l
Ġtar ried
Ġsojour n
Ġscript ure
Ġwhoredom s
ĠGed aliah
Ġmal es
Ġmemor ial
Ġfirstfru its
a j
c ience
d d
e cted
g il
h ort
o z
p et
x es
th ah
Ġa st
Ġo int
er us
re zzar
to us
Ġf ed
Ġd ue
Ġbe w
Ġl ine
Ġsa kes
Ġun right
Ġun god
Ġt ast
ĠL est
ar ge
ĠG et
ri eth
Ġup per
est y
ĠM es
Ġsp ices
Ġsp eed
Ġsp ring
Ġst ayed
Ġsay ings
Ġher it
ab as
ĠN er
ĠP ut
Ġsu ck
Ġpro ve
ish on
ĠZ idon
Ġper pet
Ġal read
Ġtre mble
Ġyoung er
Ġmin ist
Ġborn e
Ġtest ify
Ġanswer ing
su erus
ĠNebuchad rezzar
ĠAbi athar
Ġbreast pl
Ġhence forth
Ġhat eth
Ġdou b
Ġfet ch
Ġaw ake
Ġcurtain s
serv ant
Ġint reat
Ġplu ck
ĠAha suerus
Ġdism ayed
gil ead
Ġunright eous
Ġalread y
i as
i ar
k in
o ah
r ings
Ġs or
Ġh an
in adab
er ry
Ġb id
Ġm ention
is ing
ĠA ho
Ġd ieth
Ġp ain
Ġp ity
ha nd
Ġl ess
Ġwh ir
Ġg ain
Ġsa nd
Ġt ak
ĠL am
ĠL ib
Ġno bles
as en
ĠG om
ĠG ers
Ġre nder
Ġme ek
il ing
ĠH ag
ĠM aac
op s
ĠW ilt
Ġv ows
Ġab ideth
Ġkn ees
Ġover fl
ast ers
Ġput teth
Ġacc ount
Ġcall eth
Ġro b
Ġex hort
ĠK ed
Ġapp are
Ġal ong
ress ed
ĠWho se
ĠWho so
Ġcons p
Ġcons cience
Ġwalk ing
Ġstand eth
Ġtabernac les
Ġcont ra
Ġarm ed
ĠU p
ĠEl am
ile th
ĠSha phan
Ġcry ing
Ġwind ows
Ġhon ourable
Ġmar ried
ĠHear ken
Ġsold iers
Ġthanks g
Ġburden s
Ġsepar ate
Ġcal f
osh eth
Ġprev ail
Ġlear n
Ġsprink le
Ġordin ance
Ġprovin ces
Ġfurn ace
ĠCaes ar
Ġded ic
Ġthresh ing
kind ness
ĠAcc ording
Ġloving kindness
ĠReb ekah
Ġdeterm ined
Ġherit age
Ġhan ged
ĠLam b
ĠGers hon
E Z
R A
a x
h ud
l w
n est
n abas
r ates
y al
to gether
Ġm erry
Ġc ra
Ġc ross
ed ient
on ia
Ġd umb
Ġhe ir
ĠT ir
ĠT ell
ĠT ars
ra ge
ĠJ oram
Ġk ins
ĠG e
ĠS er
ĠS av
ĠH av
ĠM en
ĠW ill
ĠN un
ĠP ro
Ġhea ve
ĠC ursed
Ġat t
Ġpro ver
Ġwho lly
Ġbr asen
ĠJes hua
ĠZ ac
Ġcha pit
Ġpra ises
Ġro yal
Ġal together
Ġrep ort
Ġdep th
Ġarm s
Ġrej ected
Ġdiscip le
Ġcho se
Ġcertain ly
ĠEs h
eal th
Ġsing ing
Ġcontinu ed
Ġid ol
Ġter ror
Ġcreat ure
ĠHan aniah
Ġaccept ed
ĠBar nabas
Ġhum ble
Ġhum bled
Ġve x
Ġhung ry
Ġexec ute
Ġwea p
Ġcreep ing
ĠJeph thah
Ġmerchan ts
ĠLike wise
ĠPers ia
ĠKirj ath
Ġbus iness
Ġwhir lw
EZ RA
ĠSav iour
Ġwhirlw ind
c ip
c ust
d le
h ish
t les
Ġth ief
Ġs ort
in ation
Ġw oe
Ġb irth
Ġc ol
Ġd ung
om an
Ġg rew
ear er
ĠG ree
ĠB ara
us ion
Ġse est
Ġwe ek
our s
Ġpl ay
ĠN aam
Ġj ew
Ġli ves
Ġlo ose
Ġlo cust
Ġover t
ul ation
ĠSh im
Ġhundred s
ĠAm non
Ġglor ify
ĠK orah
Ġspirit ual
Ġprin cip
Ġfall eth
Ġpr ud
ĠLev ite
Ġunc over
Ġba cks
Ġcont ent
Ġpur sue
Ġutter most
ĠBa asha
ĠWhi le
Ġdra wn
Ġvalley s
Ġob tained
Ġfur ther
Ġmak ing
Ġanoint ing
Ġer r
ĠUri ah
ĠNaz areth
Ġcove tous
Ġben eath
Ġperpet ual
Ġbreastpl ate
Ġappare l
Ġthanksg iving
a w
g o
i us
p ha
s alt
Ġa li
er ing
Ġb est
to ne
Ġm aj
Ġp salt
an ah
Ġl ame
Ġe un
Ġis les
ĠG az
ĠB er
Ġcom est
Ġsh ittim
Ġfa ult
ĠM aced
Ġsp ace
ĠE x
Ġwe igh
ab el
ĠO ph
ĠN ah
ĠC ain
Ġcon v
Ġeat ing
ĠR ep
ic ations
ĠEgypt ian
Ġwork ers
Ġper ceive
Ġlook ing
Ġqu en
ĠRe j
Ġcover eth
ĠBen had
Ġcam est
Ġjoy ful
Ġfind eth
Ġjust ice
Ġtouch ing
Ġgri ef
Ġwhither soever
ĠJo hanan
ĠHeb rew
ĠShall um
ĠZer u
ĠRam oth
Ġforb ear
Ġbreast s
Ġfish es
ĠUzz iah
Ġresto red
Ġbot tom
Ġdou ble
Ġpunish ment
Ġordin ances
Ġprovin ce
Ġsum mer
Ġlangu age
Ġtr odden
Ġliber ty
Ġmirac les
Ġungod ly
Ġmaj esty
Ġeun uch
ĠBenhad ad
B A
o ok
r ite
u ra
Ġ z
Ġth under
Ġw aves
is s
Ġc lo
Ġp i
Ġl e
Ġun bel
Ġfor m
ĠS ing
il ty
Ġmy st
us han
Ġgo ings
ĠH us
ĠH ath
ĠM ine
ĠM al
Ġever more
ĠP eace
Ġwor se
Ġco als
Ġbo ast
Ġwhere on
Ġpra ised
Ġbl ack
Ġmore over
Ġper ished
Ġro be
Ġsm ell
Ġgi ving
Ġfour teen
Ġhigh way
Ġad v
ĠEl is
Ġconf usion
Ġchar ity
Ġest im
Ġtest ified
Ġtim ber
ase iah
Ġfors ook
Ġpreach ing
Ġgu ilty
Ġbond s
Ġnever theless
Ġrun ning
Ġrepent ance
Ġwest ward
Ġsepar ation
Ġwidow s
Ġrefu se
Ġcou rage
ĠBar uch
Ġrejo icing
ĠNot withstanding
ĠAsh d
Ġmak est
Ġexcell ency
Ġswall owed
ĠHitt ite
Ġkis sed
Ġtremb ling
Ġfing er
Ġchan ge
Ġaccompl ished
wh at
Ġshar p
Ġcord s
ĠAdoni jah
Ġoint ment
Ġprincip al
ĠMaced onia
ĠZeru iah
E S
c il
i am
n i
o od
u g
u ph
Ġs now
Ġb le
Ġb ath
Ġb ough
Ġm elt
Ġf ash
Ġd im
ĠL a
ra c
ar iah
Ġwith ered
ow ers
Ġre lea
ad ed
Ġgo tten
ĠH iv
Ġst e
Ġst ro
Ġst ub
ine has
ĠE k
Ġca kes
ab ad
ĠO ut
Ġpl ains
ĠD eb
ĠD oth
ĠD ari
Ġab ound
Ġpro long
ish ment
Ġla ck
Ġco at
ĠR abb
Ġro bb
Ġfour teenth
Ġmo ck
oth am
ĠPh inehas
Ġcons id
Ġfell ows
Ġcont end
Ġlea ven
Ġsome what
ĠAr non
Ġcoun cil
Ġcour ts
Ġminister s
ĠNeb at
Ġful ness
oc ation
Ġrequ est
ĠMa aseiah
Ġcal am
Ġtempt ed
Ġhung er
Ġseem eth
Ġsho ot
Ġsprink led
Ġlament ation
Ġwilling ly
Ġlod ge
Ġbird s
Ġoffend ed
Ġswall ow
ĠJebus ites
Ġocc as
ĠMesh ullam
Ġrecompen se
Ġrebu ked
Ġdisplea sed
Ġeag le
ĠAbisha i
Ġoverfl ow
Ġjew els
ĠRej oice
ĠDari us
N AH
a pp
a haz
d e
e le
f old
g ro
Ġ ed
Ġth igh
Ġa ck
Ġw ard
Ġw ealth
Ġf re
Ġf ame
Ġf em
Ġf irm
en n
Ġc ent
Ġin s
Ġp ath
Ġbe f
ĠI m
Ġl ots
Ġt ri
ĠL ach
ĠT amar
Ġe mb
ow ard
ĠJ otham
Ġk ine
ĠG race
Ġre nd
Ġre ven
ĠS end
Ġfr oward
ĠM ah
Ġst eal
Ġdo gs
Ġam b
ie zer
ĠC om
Ġus ury
Ġear nest
Ġlo se
Ġcomm on
Ġsw ift
Ġpla gues
Ġbring ing
ub b
Ġbeg otten
Ġpray ers
Ġsea l
Ġsword s
Ġba ld
Ġbow ls
iz z
Ġvis ions
Ġmar ry
Ġhelp ed
Ġsk ins
Ġnorth ward
Ġbea reth
Ġap art
Ġstre am
Ġsick ness
Ġfore head
Ġoppress ion
pe h
hem esh
Ġcru el
ĠZer ah
Ġden y
Ġfig s
Ġced ars
Ġpersec ute
Ġsynago gues
Ġgro ves
Ġdeceit ful
ĠMidian ites
Ġnin ety
serv ants
Ġlust s
Ġoverth row
ĠAmalek ites
Ġbar ren
ĠTim oth
ĠBo az
Ġvo id
Ġbride gro
Ġtith es
ĠJab esh
ĠDel iver
Ġappro ach
Ġprecept s
Ġsel f
ĠGom or
Ġcontra ry
Ġdedic ated
ĠTars hish
Ġprud ent
ĠMal ch
Ġfash ion
ĠEk ron
Ġack now
Ġfem ale
Ġcent uri
ĠLach ish
Ġbridegro om
f th
f ast
f fect
l en
l ings
u se
z ah
Ġh un
Ġw in
er ah
is m
en eth
ed fast
on ite
Ġd ar
Ġd ear
Ġp ull
ea c
ea lo
Ġwh ereas
st ra
Ġt um
as es
Ġe ffect
ĠS u
ĠS is
ĠS il
Ġmy r
ad an
ĠH iram
ĠM ar
ĠM ak
Ġst edfast
rou s
Ġam az
ĠFor asmuch
ĠP ar
Ġcon vers
Ġlo vers
Ġhast ed
Ġde b
Ġsto r
ĠJe hor
Ġcall ing
ĠAb el
Ġheaven ly
ub ile
Ġproph ec
fe ction
Ġro cks
ĠSh eb
eb el
ĠY our
Ġwicked ly
Ġfe eb
Ġbes to
Ġqu ar
Ġcl ear
Ġfif teen
Ġmultitud es
Ġsub du
Ġgen ealo
ĠJeho ahaz
Ġtwel fth
Ġsal ute
Ġwind s
Ġabomin able
Ġteach ing
Ġsouth ward
ĠAss yri
Ġrec onc
Ġwhos o
Ġkill eth
Ġgr own
Ġgu ide
ĠAmmon ites
Ġmatter s
Ġaccept able
Ġvisit ed
ĠJez ebel
ĠLo ok
ĠHaz ael
Ġshield s
Ġadult er
JO EL
ĠMiz pah
ĠMiz peh
Ġplu cked
Ġpubl ic
Ġstir red
ĠPer izz
Ġmarvell ed
Ġmarvell ous
ĠCy rus
Ġpronoun ce
Ġbask et
Ġequ al
Ġbesie ged
Ġanc ient
ĠMach ir
Ġstum ble
Ġpomegran ates
Ġtreacher ously
Ġestim ation
Ġble w
ĠJehor am
A M
D IAH
O N
O BA
g r
t ime
y s
th a
Ġh in
er oth
Ġof t
Ġb ru
Ġm or
Ġm om
Ġf ir
Ġc r
ed om
on t
Ġp ar
ha i
om i
Ġsha ken
Ġwh or
Ġg lean
im mon
ve th
ut ion
ĠTh ine
ri age
ĠB il
Ġsaid st
Ġse ver
ĠH as
ĠM el
ho od
al on
Ġhad st
ĠO g
Ġpl edge
ĠC all
Ġne cess
Ġus ed
Ġj ubile
Ġwor m
Ġga ll
Ġsin neth
Ġsto ned
ic ians
Ġset teth
Ġro of
ĠAm as
ĠK ish
Ġmerc hand
Ġpo ol
Ġdisc ern
Ġdisc overed
Ġcons ent
Ġbear ing
ĠEl k
ĠEph es
Ġdef ence
Ġrec over
Ġneighbour s
Ġcompan ions
Ġmour ned
up on
Ġsorrow s
Ġvi ct
Ġbapt ism
Ġrequ ired
Ġgovern ors
ĠZer ubb
Ġcou p
Ġbitter ness
Ġadvers ary
Ġve xed
ĠTy rus
Ġvirg ins
Ġlear ned
Ġcarc ases
ĠSt and
Ġbright ness
ĠHitt ites
Ġinf irm
ba al
ĠNab al
ĠNab oth
Ġperver se
ĠKe ep
Ġconcub ine
Ġoverc ome
Ġtemp est
Ġreckon ed
Ġpartak ers
Ġast ray
Ġtast e
Ġminist ry
ĠAshd od
Ġoccas ion
Ġtum ult
OBA DIAH
Ġmom ent
Ġmerchand ise
ĠZerubb abel
I N
b read
c om
f lo
f ts
g ar
k k
u ah
Ġo w
Ġo ak
Ġo rac
re ws
Ġm us
Ġm asters
Ġf ain
Ġd an
Ġd un
Ġp aren
Ġp eac
Ġto ken
ea ble
Ġl ew
Ġl arge
om uch
ĠT ob
Ġthere by
Ġas under
Ġtheir s
Ġse er
ĠH u
if er
ake th
ĠE uph
ĠO m
Ġpl ent
Ġtw ined
Ġor n
ish eth
Ġgreat est
ĠBe fore
Ġacc us
Ġsin ner
ĠZ o
ĠR ab
ran k
ĠAs ia
Ġper tain
Ġper adventure
ĠSh ushan
ne h
Ġsaw est
Ġend ed
Ġhigh er
Ġkeep er
Ġkeep ers
Ġtrib ulation
Ġgra ves
Ġmo cked
Ġdrink ing
ai as
Ġrest ed
Ġopen eth
Ġsix teen
Ġstrong er
ĠEli ab
Ġcho ice
Ġhold s
ĠEs aias
ĠMan y
Ġhusband men
ĠHeb rews
Ġdream s
Ġfulf il
ich ri
Ġfalse ly
Ġcorrupt ion
Ġperfor med
Ġgro an
Ġaston ishment
Ġexec uted
Ġsuppl ications
Ġcondem ned
Ġsho es
JO NAH
Ġlod ged
oph el
ĠNa omi
Ġscript ures
ĠAch ish
Ġtremb led
Ġmagn ified
Ġsaf ely
ĠBeths hemesh
ĠAra b
ĠIth amar
Ġcounsell ors
Ġunrighteous ness
Ġweap ons
Ġmyst ery
Ġrelea se
Ġcenturi on
Ġdar ken
ĠSis era
Ġamaz ed
Ġprophec y
ĠElk anah
Ġparen ts
Ġlew d
ĠEuph rates
b earer
c er
d an
e z
i cks
i xt
j ust
o ll
p ence
r ison
u ed
th ophel
to p
Ġf eareth
Ġc ens
or y
ĠA p
ĠA th
Ġp ots
it ed
Ġl end
Ġg at
Ġhe w
Ġhe ifer
Ġun p
Ġt ro
Ġt ried
ve h
Ġfor asmuch
et urn
ĠS et
ĠB u
Ġthere to
ah el
Ġsh in
Ġson gs
Ġfa v
ĠH el
if ieth
ĠE den
Ġv ile
Ġpl ow
Ġpl ayed
ĠN ine
ĠN adab
Ġhea ps
ot ed
ard on
Ġcomm end
Ġacc ursed
Ġsw ine
Ġshould ers
ĠJe hi
ĠZ im
Ġwhere unto
ĠR eturn
Ġwork ing
Ġbl ot
ĠAs k
Ġfo ld
Ġen vy
Ġro ots
Ġdis ob
ach in
Ġlaw s
Ġex am
Ġr ide
Ġsc our
Ġal oud
hab iah
Ġhow l
Ġshew eth
Ġent ereth
Ġhar ps
Ġfl ower
Ġbear d
Ġconf irm
Ġeld er
Ġworshi pp
Ġest eem
Ġred empt
ail s
Ġnam ely
Ġtransgress ors
ĠHez ron
Ġstri ve
Ġprison ers
Ġdream ed
Ġsecret ly
ĠAh im
ĠAhi jah
ĠAhi kam
ĠAhi thophel
Ġpast ure
ĠAbi jah
Ġsear ched
Ġhabit ations
Ġfree w
Ġbeaut iful
Ġrecom pence
ĠNeth aniah
Ġbelong eth
Ġinward s
Ġeleven th
Ġwonder ful
ĠEthiop ia
Ġhypocr ites
Ġfi ery
Ġmurm ur
Ġmurder er
Ġsim ple
Ġfil th
Ġhallow ed
Ġpersu aded
ĠObed edom
Ġcus tom
Ġdoub t
Ġtak ing
ĠSer aiah
ĠHav ing
Ġprover b
Ġeunuch s
Ġste ward
Ġconvers ation
Ġfeeb le
Ġsubdu ed
Ġredempt ion
c rib
c hab
d ay
d ition
i jah
m ite
o a
p ress
u a
Ġ es
Ġ ease
Ġs ie
Ġs igh
Ġb al
Ġb one
Ġf ra
en e
Ġd ire
Ġd rank
Ġp ardon
Ġn est
Ġn our
it ess
Ġl ower
Ġg host
Ġun just
im es
ĠL ift
Ġfor ce
ar row
ar oth
ir t
Ġwith hold
ĠTh ose
ear im
ĠG ather
ri el
ĠS an
ĠS hob
ĠS idon
ro th
Ġfa ileth
ĠM ep
Ġsp ent
Ġst umb
Ġdo ve
Ġher b
Ġv owed
Ġoff ence
ĠP re
ĠC ast
cc oth
Ġearth qu
Ġdea ls
ĠZ ib
Ġmight est
Ġen j
Ġra ven
ĠSh el
ĠAm on
Ġr ing
Ġcast ing
Ġdwell est
Ġmouth s
Ġstand ard
Ġhar m
Ġlea n
Ġlea ves
Ġlea gue
Ġkind le
Ġcloth ing
Ġthr own
ĠMoab ites
ĠWhi ther
ĠAn ath
ĠAn ti
Ġslay er
Ġlab oured
Ġsister s
Ġdesp iseth
Ġcommitt eth
Ġupright ness
Ġfaithful ness
Ġinstru cted
Ġfoolish ness
Ġden ied
Ġele ct
Ġpersec uted
ĠHaz or
Ġbot tles
Ġflood s
Ġpurp osed
Ġpot ter
ĠHar an
Ġkis s
Ġtor ment
Ġbetray ed
Ġmagn ify
Ġsaf ety
Ġmed it
Ġascend ed
Ġmurm ured
Ġdescend ed
Ġdrag on
Ġquest ion
ĠMes ha
Ġspeed ily
ĠAho li
Ġconsp ired
Ġthreshing flo
Ġcovetous ness
ĠGaz a
ĠRamoth gilead
Ġle gs
Ġcalam ity
Ġbef all
ĠGomor rah
ĠSu ccoth
Ġwhor ing
Ġdarken ed
ĠAnti och
H A
j earim
l and
n ings
p a
th ough
in ims
Ġw ages
Ġb ade
Ġb ush
Ġm el
Ġc y
Ġc ro
Ġc atch
or ted
ed ience
Ġd er
Ġd ishon
ha l
ea b
it eth
an eel
om er
Ġt ry
le ep
ĠT w
ĠT ab
ĠT eman
ĠT HE
ar ing
ri ce
Ġre ver
ĠS ir
ĠS ad
ĠB re
ke h
Ġfr an
us hi
Ġman na
Ġsh ea
ĠH ore
ĠM ag
ĠIsrael ites
ĠE z
ck en
Ġher bs
ge on
Ġne cks
Ġho of
Ġho oks
ath a
Ġco ld
Ġco lt
Ġco ck
vil y
are a
Ġwhom soever
ĠAs ahel
Ġen v
Ġburn eth
Ġra ge
Ġex erc
Ġturn ing
Ġr ow
ag on
Ġpray ing
ham a
Ġshew bread
Ġmid dle
Ġcons ol
Ġyoung est
Ġba se
Ġnight s
Ġfif teenth
Ġlay eth
Ġwine press
ĠEl ip
Ġflo or
ĠMan oah
Ġcour ses
Ġfamil iar
Ġmar riage
Ġback ward
haz zar
Ġrepro ve
Ġbreak ing
ĠAn ak
Ġfast ened
Ġstri cken
Ġpresent ed
ĠBaal im
ney s
Ġsound ed
Ġob tain
Ġsorrow ful
Ġmaid ens
Ġcal ves
ĠUn til
Ġapost le
Ġbas ons
ĠUzz iel
Ġkid neys
ĠMic aiah
Ġfet ched
air s
ĠSee ing
Ġhang ing
Ġhang ings
ĠNeth inims
Ġarmour bearer
ĠKe ilah
ĠMicha l
Ġwand er
Ġignor ance
Ġcommun ed
wor k
AN S
Ġintreat ed
ĠLib nah
ĠMaac hah
ĠUp on
ĠTir zah
ĠKirjath jearim
Ġbath e
Ġbough s
Ġstub ble
Ġstor m
ĠPerizz ites
ĠOm ri
ĠNine veh
ĠJehi el
O S
P H
c ah
c ense
d on
e ver
e ction
r h
s s
u ish
u als
z e
Ġth res
Ġb ud
Ġf it
is ions
en ces
Ġc rieth
ĠA ro
Ġd i
Ġd rin
Ġd iff
ha ri
Ġhe wn
st ri
ĠG re
Ġre l
Ġsh ore
Ġsh ot
au m
Ġst abl
ĠF o
Ġdo g
ĠD ep
Ġtw ain
Ġtw ice
Ġbre aketh
Ġde g
Ġput ting
ig ail
Ġbo il
Ġbo ard
ĠAb igail
Ġbu ck
Ġwork man
Ġbl am
Ġper tained
Ġdes ir
ĠSh ould
ob ah
Ġpre vent
Ġex c
Ġex pe
Ġang uish
ĠAm ram
Ġjudg eth
Ġr ush
Ġcast eth
Ġdwell ings
Ġgather eth
oth s
Ġcons ult
Ġunc le
Ġunc overed
Ġcomp l
ff ering
loth ful
ĠRe chab
Ġbow l
Ġlong er
Ġlong su
Ġpur cha
ĠEl ah
ĠJeho ash
ara h
Ġdre ad
Ġchar ger
Ġdiv isions
Ġutter ed
Ġest ate
Ġrejoice th
Ġstat ure
Ġtrust eth
Ġhid den
Ġrepro of
Ġhusband s
Ġfat ness
Ġfast ing
Ġstri pes
Ġcompan ies
Ġdesire th
Ġbond men
hath ite
Ġwatch man
Ġmaid servant
Ġpun ished
Ġprosper ity
Ġtow ers
Ġlep er
Ġgro ve
Ġhat red
ĠSara i
Ġfellow ship
Ġheal th
Ġthirst y
Ġflow ers
ĠElias hib
ĠBel ial
uri ous
ĠCaes area
Ġtor n
Ġvo ices
Ġhapp y
Ġconcub ines
Ġignor ant
Ġfil thy
Ġfort ress
Ġhind er
ĠKad esh
Ġsubj ect
kin cense
Ġkins man
Ġatt end
Ġdepth s
ĠNaam an
Ġovert ake
Ġbacks l
Ġweigh ed
ĠNah or
ĠElis hama
Ġfre ely
Ġfirm ament
Ġins omuch
ĠTimoth eus
Ġacknow ledge
Ġmyr rh
Ġpublic ans
ĠEphes us
Ġvict uals
Ġorac le
Ġlewd ness
ĠAth aliah
Ġfreew ill
Ġsie ge
Ġstumb ling
Ġthreshingflo or
Ġcy mb
Ġfran kincense
ĠHore b
Ġthres hold
ĠAro er
Ġdrin keth
ĠDep art
Ġlongsu ffering
I ANS
g eth
h ear
m it
r is
t ion
Ġ ill
Ġ rans
th ood
Ġth ie
Ġs urn
Ġs lothful
Ġw ra
Ġof ten
to ol
Ġm ill
Ġc op
es thood
Ġin v
Ġin te
ha iah
Ġn ay
it us
it ub
Ġha ught
ĠL y
ve l
Ġfor ces
ut y
ar n
Ġis land
ir med
Ġwith dra
ĠG a
ĠG esh
Ġre ne
ĠS ave
ĠB es
il ity
Ġas leep
Ġcom ely
Ġse vent
ĠH ur
ĠH eth
ĠH eman
Ġsp rings
Ġst uff
Ġout ward
ĠE b
ĠE g
Ġag re
Ġhea v
ĠC ap
ĠC ons
Ġne ther
Ġso ever
Ġde fe
ale el
Ġpri esthood
um m
qu et
Ġacc ord
ĠR ise
ĠR immon
Ġfo ots
Ġen s
ern aum
Ġdeliver ance
ĠAm ariah
Ġr ows
Ġspeak est
un neh
Ġsl ow
Ġblood y
Ġhow beit
att ereth
Ġrep air
ĠWhat soever
az ar
Ġpres erved
Ġsix ty
Ġbetw ixt
Ġcloth e
Ġdev ices
ify ing
Ġwind ow
Ġres erved
Ġsuff ic
Ġhid eth
Ġteach eth
Ġwast ed
Ġref resh
Ġmind s
Ġstra w
Ġneed s
sha keh
Ġob edient
Ġport ions
ĠAl as
Ġac qu
pl ace
ĠAh imelech
ĠReuben ites
ĠIsh b
Ġbas es
Ġtempt ation
Ġcand le
Ġsepulch res
Ġpara bles
Ġseem ed
Ġspear s
Ġblasphem ed
Ġpubl ish
ĠSal ute
Ġoverth rown
Ġep ist
ĠJeph unneh
Ġaven ged
Ġban quet
Ġabhor red
Ġroar ing
Ġproclaim ed
Ġdrag ons
ĠMatt aniah
Ġche er
Ġev id
Ġenl ar
Ġchapit ers
Ġlocust s
ĠEx cept
Ġconv ocation
Ġquen ched
Ġz eal
Ġunbel ief
ĠHiv ites
Ġconsid ered
Ġearnest ly
Ġwin ter
gr ity
ĠMel ch
ĠAmas a
Ġmus ick
ĠRab shakeh
Ġfilth iness
Ġearthqu ake
ĠZib a
ĠAnath oth
Ġexpe ct
Ġcymb als
Ġrans om
Ġthie ves
Ġinte grity
Ġsevent een
ĠCap ernaum
Ġfoots tool
G A
a az
a hath
d i
d al
e ch
f er
k l
k ing
l eness
n an
o lt
p an
r ors
s ame
u ous
u kes
z ur
z abad
Ġth in
Ġa fore
Ġs ed
Ġs cept
Ġw re
Ġw ing
er xes
re es
Ġb er
Ġb ab
Ġm ire
Ġm irth
Ġc art
ed ne
Ġd ukes
Ġp et
Ġp ound
Ġp ip
Ġp atter
Ġp ressed
it re
ĠI z
Ġwi de
Ġg n
Ġsa iled
Ġt urt
ĠL azar
Ġno on
Ġno stri
ra in
ra ined
od s
ir iam
ĠJ ok
ĠJ aph
ĠG er
ĠG reat
ĠG osh
Ġup hold
Ġre ins
ĠB ani
ĠH os
ĠM il
ĠM iriam
Ġst ar
Ġst am
pt ist
Ġoff ereth
ĠP e
ĠC onc
Ġso ber
Ġso ft
Ġlo cks
Ġpro ved
lo ck
Ġover se
Ġbec ometh
Ġar ches
Ġbr ims
ĠBe z
ĠHe ber
Ġpri vily
Ġla ver
Ġacc use
Ġdea f
Ġsto pped
ĠAb edne
are ah
Ġbehold ing
Ġen g
Ġbeg et
Ġdis ease
li ves
Ġsc or
me el
me lech
Ġshew ing
Ġthir teen
ai oth
Ġent ry
Ġfall ing
Ġdisc over
Ġgod ly
Ġgod liness
Ġcont empt
Ġwar s
Ġwa iling
Ġopen ly
Ġfl atter
Ġposs ible
Ġbuild ers
ĠBeth an
Ġwhe el
ĠEli akim
ĠEl iezer
Ġfollow eth
Ġsend eth
ara dan
Ġdev ise
ĠSha dra
aan ah
Ġres ist
ĠBa ptist
ĠHo ld
ĠNeb uz
Ġfast ed
Ġmind ed
Ġbea m
Ġfore s
ĠWhere in
Ġreproach ed
Ġrod e
Ġrod s
Ġtrespass ed
Ġincrease th
ĠAh itub
Ġsn ares
Ġwond ered
Ġwond rous
Ġhair s
Ġvisit ation
Ġreg ion
ĠSe ven
Ġflour ish
Ġsojour neth
Ġenc han
Ġinterp re
Ġmag icians
Ġchamber l
ĠArt ax
Ġshout ing
Ġbot tle
Ġdilig ent
Ġregard eth
Ġuncircumc ision
Ġsow eth
Ġpat ient
Ġbrook s
Ġprofan ed
ĠHad ad
ĠZi kl
Ġoverl ay
Ġfount ains
ĠKohath ites
Ġaven ge
ĠJa haz
ĠMicha el
Ġwound s
Ġocc up
Ġfing ers
Ġbask ets
Ġshort ly
Ġbreach es
Ġnat ura
hib osheth
Ġgrant ed
ĠHag ar
ĠPro ph
ĠZac hari
Ġweek s
Ġself same
Ġgenealo gy
ĠHas habiah
ĠTob iah
ĠZim ri
ĠAhim aaz
Ġes p
Ġdire ct
ĠMep hibosheth
Ġenj oy
ĠMesha ch
Ġder ision
Ġconsol ation
ĠElip haz
Ġblam eless
Ġpatter n
ĠLazar us
Ġnostri ls
ĠGosh en
ĠConc erning
Ġbrims tone
ĠAbedne go
ĠShadra ch
ĠNebuz aradan
ĠArtax erxes
ĠZikl ag
E R
d ed
e ther
g ah
h ur
n ight
o ck
p are
w ake
w are
Ġ eas
Ġth und
Ġw ag
re l
Ġb ag
Ġb orrow
Ġm ain
at er
ed an
ĠA wake
Ġd ash
Ġp h
Ġp sal
Ġp als
Ġp owers
ea fter
ĠI dd
Ġsha ve
Ġsa fe
ut ing
ut eth
ĠT ru
ĠT ek
Ġe mer
ar ry
am ents
ver ty
ce es
ĠG ersh
ĠS it
ĠS hi
ĠB et
ur ing
il a
and er
ro vers
ad iah
ĠH ash
ĠM at
Ġsp ies
Ġst ate
Ġst ick
Ġst iff
os ing
Ġpl aced
ĠD ec
ĠD ib
ĠP ed
ĠP ash
ĠP ekah
Ġhea ling
Ġcon ver
Ġcon ceive
Ġwent est
Ġli ver
ĠWh ether
Ġar ch
ĠBe ware
ĠJer ub
um ph
um ber
Ġco ats
Ġacc used
Ġsto op
Ġsto len
ĠZ el
Ġcha ff
Ġdel ic
ĠSh un
Ġfirst ling
Ġsc all
Ġal ms
Ġdestroy ing
Ġru in
Ġru leth
Ġmid night
Ġpo verty
Ġlight nings
Ġcont rovers
ild o
Ġcl ave
Ġbow s
sp ring
Ġlea vened
ĠBeth hor
Ġpur ged
Ġseek ing
Ġsure ty
Ġwis ely
Ġsend ing
Ġwo ol
Ġeld est
Ġtest ament
Ġremain ing
Ġreb el
haz i
Ġteach ers
ĠCanaan ite
Ġspread eth
lem iah
Ġoppress or
Ġsupp er
Ġasse mble
Ġris eth
Ġreward ed
Ġfalse hood
ĠHer mon
ĠGad ites
ĠChald ees
uth un
ĠAmor ite
Ġrev olt
Ġdelight eth
Ġhither to
Ġlead eth
Ġcorrupt ed
Ġwear ied
Ġdist rib
Ġtal ent
Ġshout ed
has h
ĠKnow ing
Ġblasphem y
ĠSi x
Ġgrow eth
Ġadd ed
ĠNeth aneel
ĠZi ph
ĠBel a
Ġpurif y
Ġcreep eth
Ġencam p
Ġfro gs
Ġban k
ĠJebus ite
Ġdro p
Ġmerchan t
Ġaccompl ish
du cees
Ġtith e
Ġreach eth
Ġconsecr ated
Ġpronoun ced
Ġimag ination
ĠJed uthun
Ġche ek
Ġbad gers
Ġev ildo
ĠMed es
Ġquest ions
Ġsubj ection
Ġbew are
Ġsor ry
Ġbid den
ĠEsh t
Ġvex ation
Ġcol our
ĠGree ks
ĠBara k
Ġpsalt eries
Ġclo se
ĠHus hai
Ġdim in
ĠDeb ir
Ġtri umph
Ġbesto wed
Ġplent eous
Ġorn aments
Ġfav oured
ĠAholi b
Ġcro oked
ĠTw o
ĠSad ducees
Ġdiff er
Ġwra pped
ĠCons ider
Ġdefe nd
Ġepist le
Ġexpect ation
Ġscept re
Ġgn ash
ĠIdd o
ĠGersh om
ĠPash ur
ĠJerub baal
ĠBethhor on
G GA
U S
a hab
c ham
g u
h um
n ath
p ents
s ide
t ieth
v iour
Ġ rough
Ġ iv
Ġth rice
Ġa x
Ġo ven
Ġw ist
Ġw ol
Ġm itre
en ai
Ġc ake
on our
Ġp ress
ea m
Ġn ur
Ġn ets
Ġn arrow
ĠAnd rew
Ġwh el
Ġsa d
Ġhe wed
ĠT itus
ra w
ar ation
ĠTh rough
am ing
ĠJ eth
ĠJ ah
ĠJ op
ĠJ air
ĠG ol
ĠG itt
ri pp
ĠS ome
ĠS enn
est us
Ġman tle
Ġman servant
ĠH od
ĠH inn
ĠH onour
if ication
ĠM i
ĠM ich
ĠE ber
Ġag o
ĠF estus
eop ard
Ġca us
ĠO lives
Ġpl enty
ĠD agon
ĠD raw
Ġab s
Ġkn eel
Ġser pents
Ġli ar
Ġlo ops
Ġho le
ĠWh ence
pp hi
qu are
Ġsw ell
Ġcommand eth
Ġbrought est
ĠR ib
ĠR uth
ĠAb inadab
Ġmight ier
Ġcha in
Ġcha sed
Ġbl ast
Ġansw ereth
Ġsm iteth
Ġown er
Ġdeliver eth
Ġdis s
Ġdis eas
Ġex ac
ĠAm ong
ĠAm oz
Ġgi ants
Ġother wise
ĠK areah
Ġal m
Ġhigh est
Ġru led
Ġbet roth
Ġmo ve
ai leth
Ġfear ful
ort al
Ġreign eth
Ġcar ved
Ġcar pent
Ġlight ed
Ġlight ning
az er
han aim
ĠU r
itud e
Ġfull y
ĠRe z
Ġlam p
Ġpossess ions
Ġlea p
Ġpur ge
ĠEph ron
ĠNe top
Ġconf irmed
Ġgar rison
ĠCan st
Ġvine gar
Ġdra ve
ĠNeb o
had d
ĠHam or
Ġgu ilt
Ġcompan ion
Ġprom ises
Ġprison er
Ġlabour s
Ġabund ant
ush ed
ĠEdom ites
Ġvan ities
ĠPharise e
Ġprosp ered
ĠHan nah
ĠMa hanaim
Ġaffliction s
ĠAg ag
ĠSe ek
ĠRem aliah
Ġgre et
Ġprofit able
Ġer ror
Ġcandlest icks
acher ib
Ġcleave th
ĠEthiop ians
Ġconsecr ate
Ġfi erc
Ġcounsell or
ĠAmm inadab
Ġincl ined
ĠJed aiah
Ġbold ly
ĠSham m
Ġlaugh ed
Ġbeha lf
Ġmeek ness
ĠGe zer
Ġchapit er
Ġali en
Ġpsalt ery
ĠOph ir
iss ion
Ġstro ve
ĠRabb ah
Ġrobb ed
Ġamb ass
ĠSil as
ĠMar tha
ĠAssyri an
Ġdun geon
Ġtro op
Ġdisob edient
Ġmedit ate
HA GGA
Ġmel ted
eab ly
Ġrever ence
ĠMag dal
Ġconsult ed
Ġstumbling b
ĠGesh ur
ĠEg lon
Ġheav iness
Ġsuffic ient
Ġber ea
Ġpet ition
Ġenchan t
Ġnatura l
Ġpals y
Ġcontrovers y
Ġiv ory
ĠJop pa
ĠSenn acherib
ĠHinn om
ĠMich m
Ġdiseas es
HAGGA I
e ck
f are
f ty
g ad
g idd
h ites
i ation
m o
t ai
y x
z ill
th e
Ġa v
Ġa ud
in ers
er es
re z
Ġb ount
to ry
Ġm ist
Ġm eal
Ġf ou
Ġf ea
Ġc aul
es y
ed ee
on iah
ĠA c
ĠA cha
Ġd em
Ġp arted
Ġto oth
om as
Ġsa ving
Ġsa dd
Ġsa pphi
Ġun aw
im oth
ĠL ame
Ġno se
ut ation
Ġhis s
ĠTh omas
el on
Ġk in
ther s
ĠG eba
Ġfa iled
ĠM o
Ġsp y
Ġsp ared
ĠE r
ĠE bed
Ġdo ves
Ġv est
Ġv ic
Ġv ines
Ġoff spring
Ġyour s
ĠN im
ĠN one
ĠD est
ĠD edan
ge ons
ĠP en
ĠP el
ĠP ray
ru ng
ĠC or
Ġso le
Ġear rings
Ġserv ile
Ġour s
ish ua
Ġpass ing
ak est
ĠJer ah
pp eth
ath ite
ĠZ ab
ĠZ alm
ĠZ ichri
Ġwat ered
Ġwat ched
Ġmu les
ic a
are zer
Ġwork men
Ġheard est
Ġbeg un
Ġgi vest
Ġr id
un na
row s
Ġru m
Ġgra pe
Ġrep orted
ĠPha rez
Ġent reat
Ġcl ust
Ġad mon
Ġcam el
Ġcur sing
Ġspo on
Ġspo ons
Ġhold en
ĠNe ph
Ġch ew
Ġdev ised
Ġcoun sels
Ġdiv ination
Ġtrou bles
Ġsk irt
ĠAn ah
ĠAn ani
ĠJon as
ĠJon adab
ĠShe phat
Ġstri ke
Ġstri pped
Ġneed le
Ġdepart ing
Ġbea ms
Ġsick le
Ġfore f
Ġter rors
Ġob edience
Ġfoot men
Ġtrespass es
Ġwatch men
Ġupright ly
ĠZeb ah
ĠZeb edee
Ġseas ons
Ġcreat ures
ĠHan an
Ġreason ed
Ġsn uff
ĠAg ripp
Ġdelight ed
Ġfoolish ly
Ġdraw eth
ĠAbi hu
Ġcou ple
ĠBar zill
Ġdam n
ĠSyri an
Ġquick en
Ġsojour ned
Ġoffic er
ĠOr nan
Ġmak er
Ġgarden s
Ġsho ok
Ġfin ish
Ġer red
Ġwea ned
Ġhy ss
ZE PH
ĠEn och
Ġflow ing
Ġflow eth
Ġoverth rew
ĠHad arezer
Ġchast en
Ġbelong ed
Ġpurif ied
Ġpurif ying
Ġcruc ify
Ġdro ve
Ġroll ed
ĠNaz ar
Ġhapp ened
Ġwax en
ĠMe gidd
Ġsim il
Ġimag ine
Ġcondemn ation
Ġincl ine
Ġpitch er
Ġnat ure
AN IAH
Ġbri ers
Ġcus to
Ġaccount ed
Ġrob ber
ĠKed ar
ĠKed esh
ĠGe hazi
Ġcol ours
ĠGree k
Ġstream s
ĠJabesh gilead
Ġhun t
Ġsever al
Ġcoup led
Ġinfirm ities
IN G
Ġfain ted
ĠHu ram
Ġcens er
Ġscour ge
ĠPre pare
ĠBre thren
Ġbacksl iding
Ġmill s
Ġacqu aint
ĠIshb osheth
Ġwre ath
Ġeng ra
ĠBet ter
Ġarch ers
Ġevildo ers
Ġdiffer ence
Ġfierc eness
Ġambass ad
ĠMagdal ene
Ġaud ience
eres oever
Ġunaw ares
ĠLame ch
Ġvic tory
ĠZalm unna
ĠShephat iah
ĠAgripp a
ĠBarzill ai
Ġhyss op
ZEPH ANIAH
T H
T I
b ut
c ing
c ur
c ari
d y
f o
h ite
h eba
i pp
i ally
k er
l ers
r ation
r ising
s ight
t aroth
z eb
Ġ ere
Ġs owed
Ġh omer
Ġo d
in oam
re h
Ġb ak
to ok
is dom
Ġc ud
ĠA ph
ĠA ram
Ġd ress
Ġp ins
Ġp enn
Ġto ps
ea leth
it ions
Ġbe nd
ĠI b
Ġwi z
an n
an na
Ġha lt
Ġl ev
Ġy est
Ġun s
id ron
ĠL ay
ut ish
ch iah
ĠT erah
Ġwith er
am ed
ce le
ĠJ azer
ere chiah
ĠS ep
ĠS uff
ĠB aths
Ġas keth
Ġse ats
ĠH im
ĠH osh
ĠH app
hi ch
ĠIs cari
ĠM ark
Ġsp it
Ġsp end
Ġsp eck
op he
ĠE p
ĠW ell
ĠW atch
ĠW rite
ĠW isdom
ud ah
Ġhand le
em uel
ok ing
ĠO pen
ĠD in
ĠP ur
ĠP adan
ie ve
Ġwor th
Ġlo vest
Ġho les
Ġover sight
Ġar iseth
Ġbr id
Ġbr utish
ĠBe ing
ĠBe eroth
Ġla cked
Ġco st
itt ed
ĠJud ge
Ġsw eareth
ĠJe iel
ĠZ in
ĠZ obah
ĠAb iram
all at
Ġmight ily
ub al
Ġsent ence
Ġper il
Ġper fection
ĠSh u
ĠSh ew
ĠSh elah
ign ed
Ġthrough ly
eb ar
Ġex per
Ġr idd
ĠK idron
Ġsc al
un ished
Ġsl umber
Ġgather ing
Ġkeep ing
Ġmo ons
Ġthir teenth
Ġent rance
Ġbless ings
Ġcar nal
ff ed
Ġwar m
Ġwar n
ark s
Ġcl osed
Ġsan g
Ġfl ax
Ġwell s
Ġlea f
Ġlay ing
Ġunderstand eth
ĠGo g
ĠEli hu
ara m
bb as
ec ially
Ġut most
Ġdesol ations
Ġdiv or
Ġdiv ine
Ġjust ify
Ġprov ision
Ġhel m
Ġmeas uring
Ġrec overed
Ġbur ying
Ġwait eth
Ġsign et
ĠAd ullam
Ġid le
Ġhop ed
Ġgu ile
Ġmour neth
Ġprof ess
Ġgri nd
ave l
ave th
ĠJo ah
Ġbond w
Ġcor rection
Ġrun neth
Ġbra cele
ĠJehoi achin
Ġtra dition
ĠV ash
ĠHan un
ĠHan ani
Ġplain ly
ĠAfter ward
Ġinter cess
Ġpast ures
Ġren own
Ġvir t
Ġdisp ers
Ġobs erved
ĠUzz i
ĠAsh taroth
Ġlow est
Ġafterward s
Ġpoll ute
Ġdeceit fully
Ġfet ters
ĠKnow est
Ġlament ed
ĠSin ce
Ġint ent
Ġpubl ished
ĠUri jah
Ġdistress ed
oura ged
Ġmark et
ĠHar im
ĠPer adventure
ĠBo z
Ġcare ful
Ġarray ed
Ġreed s
Ġhypocr ite
ĠRed eem
Ġscorn er
Ġoverc ometh
ĠAmm i
Ġstrait ly
Ġfly ing
Ġproceed eth
Ġbesie ge
Ġeighteen th
ĠKen az
Ġrob es
Ġconsp ira
Ġcra ft
Ġheir s
Ġidol at
ĠBara bbas
Ġali ke
ĠBer iah
Ġquen ch
Ġpi erc
Ġstro ke
Ġrobb ers
Ġoverflow ing
ĠMah li
Ġamb ush
ĠPar an
Ġmor ter
ĠBil hah
ĠAp oll
Ġunp unished
Ġshin ing
Ġesteem ed
ĠShel om
Ġdishon our
Ġexerc ise
Ġstabl ish
ĠFo llow
Ġbuck ler
Ġdesir ing
Ġenlar ged
ĠIz har
ĠJaph eth
ĠMil cah
Ġscor p
ĠBethan y
Ġinterpre ted
ĠProph esy
ĠZachari as
Ġmain tain
Ġph ys
ĠMat th
ĠDec l
ĠZel ophe
cham ber
Ġax e
Ġabs ent
ĠRib lah
Ġdiss ol
ĠRez in
Ġstumblingb lock
ĠAcha ia
Ġdem and
ĠAnani as
Ġdamn ation
ĠMegidd o
Ġsimil itude
Ġacquaint ance
zeb ub
Ġpenn y
ĠHosh ea
ĠHapp y
ĠIscari ot
Ġspeck led
ĠZelophe had
N ow
a ws
b allat
c ast
h el
i ath
i ents
j alon
j udah
l ay
l am
m a
o ham
r at
s ah
t ereth
u ries
v ah
v ings
x ad
y ed
in th
Ġw ot
Ġw rest
er able
Ġb ake
ou se
Ġf er
Ġf ret
is hadd
en a
Ġc urious
or rupt
es hazzar
ĠA le
Ġd et
Ġd ip
Ġp en
Ġp om
Ġp ear
Ġp il
Ġp ush
Ġp oureth
ea lt
Ġn ails
Ġha m
Ġl il
Ġl ake
Ġl oss
om f
Ġg ained
Ġsa cks
Ġsa viour
Ġun t
Ġun w
st ain
Ġt ach
Ġt ail
ve lation
Ġno ble
ch o
ĠT i
ĠT ro
ĠT ah
ĠT oph
ĠT ubal
Ġe w
Ġwith stand
Ġnot withstanding
el i
el ius
am re
am ah
ther more
Ġre ared
ĠS ho
ĠB elt
ĠB aanah
ĠB erechiah
ur thermore
Ġon yx
ven ient
ad eth
ad ah
Ġsh ear
Ġsh oe
Ġsh ove
ĠH ea
if e
ĠM ill
ĠM amre
Ġsp akest
Ġst airs
ho pp
ĠE d
ĠE hud
ĠF urthermore
Ġher eafter
Ġv om
Ġv int
ĠN ic
Ġbefore time
ĠD e
ĠD athan
ĠP i
ĠP ass
Ġmen servants
ĠC orn
ĠC ushi
Ġaf fection
Ġkn op
Ġat tained
Ġcon stra
Ġcon venient
Ġli ers
ĠWh ereas
Ġover took
res seth
ell ed
Ġbr im
ĠBe or
ĠHe le
ĠHe pher
ĠJer oham
Ġearth en
Ġsin cer
Ġdea leth
Ġforth with
ĠZ ur
ĠR ahab
Ġlif teth
Ġgl ass
ĠCh ereth
Ġrem ission
Ġro ast
Ġro tten
ĠSh es
ĠSh ec
Ġr iding
Ġsc attereth
un t
un ah
Ġfound ed
Ġapp eareth
Ġret ain
Ġal arm
Ġal most
Ġfam ous
Ġmid w
Ġmo th
Ġdisc omf
Ġlight s
ret ch
Ġpres um
Ġpres ents
Ġwar ned
Ġfl ies
ĠU z
ĠRe uel
ĠBeth uel
Ġsub mit
ĠEli el
ron t
ĠAr ch
ĠAr pha
Ġkind s
Ġkind ly
Ġclean sing
for med
Ġdev ice
Ġdev oureth
Ġaff right
Ġdiv ideth
Ġfind ing
Ġhon est
Ġtim b
Ġknew est
Ġsun rising
Ġrepro ved
Ġbull s
Ġbur st
ĠAd ar
ĠShe lemiah
Ġwash ing
Ġmind ful
ĠSamar it
Ġredeem er
Ġtreas uries
Ġtrouble th
Ġcor re
Ġbed s
Ġcurse th
Ġsuffer ings
pe or
Ġmaid servants
Ġsecret s
Ġinstru ct
Ġvill age
Ġviol ent
Ġviol ently
Ġcou ch
ĠRem ove
Ġcease th
Ġpersec ut
Ġpersec ution
Ġgre ed
ĠUzz a
Ġgrass hopp
Ġadvers ity
Ġmag ist
Ġaston ied
Ġdilig ence
Ġsatisf y
Ġblasphem e
ĠSt retch
ĠAgain st
Ġmanifest ed
ĠBethlehem judah
eshb arn
ĠZi pp
ĠBel oved
Ġchast ise
Ġtread eth
Ġquiet ness
Ġperver t
Ġmad est
Ġchan ce
Ġwand ered
Ġded ication
Ġmurder ers
Ġrecompen sed
head ed
Ġmirac le
ĠKad eshbarn
Ġequ ity
Ġbold ness
Ġbri ck
Ġanc ients
Ġpomegran ate
ĠNer iah
ĠZidon ians
Ġexhort ation
Ġbirth right
Ġz ealous
Ġpi geons
Ġunbel ie
Ġhighway s
ĠDeb orah
Ġfellows erv
ĠIm mer
ĠCom m
Ġstedfast ly
ĠAssyri ans
AM OS
Ġmor sel
Ġnecess ity
Ġcoup ling
Ġinfirm ity
Ġow l
Ġpeac eably
Ġaccus ation
ĠZo ar
Ġbal ances
Ġnour ished
Ġwithhold en
ĠSan ballat
ĠTab or
Ġdi pped
ĠGre et
Ġhaught y
Ġwithdra w
Ġrene w
Ġrefresh ed
Ġturt led
ĠGer ar
ĠTru ly
Ġnur se
Ġwhel ps
ĠJeth ro
Ġalm ond
Ġguilt less
Ġenchant ments
Ġsadd led
ĠJerah meel
Ġrum our
Ġforef ront
Ġwreath en
reh end
ĠBaths heba
ĠPadan aram
Ġscal es
Ġbracele ts
ĠVash ti
Ġdispers ed
ĠAmmi hud
Ġconspira cy
ĠApoll os
ĠDecl are
ishadd ai
ĠAle x
Ġlil ies
Ġtach es
ĠBelt eshazzar
ĠMill o
Ġvint age
ĠCorn elius
ĠArpha xad
ĠKadeshbarn ea
A L
b ai
c ol
d ing
d est
d ish
i xed
k n
k elon
l a
m ity
m bs
m aveth
n s
n ai
n iel
o nder
p ill
s hon
t an
t age
u i
u ck
u ously
u tors
w ood
Ġth row
Ġth ron
Ġh ed
Ġh edge
Ġw ont
er i
er ity
er day
Ġb ill
Ġb aken
Ġb aths
to nes
Ġm at
Ġm ixed
Ġf an
is ance
Ġc ater
Ġu r
ĠA v
Ġd ur
Ġd au
Ġd rought
Ġp as
Ġp ow
Ġp av
Ġp ang
Ġp oint
Ġn aught
Ġn ail
it er
it ish
it ure
it ute
Ġbe ll
an ks
Ġsha m
Ġg ent
Ġsa il
Ġhe m
Ġun l
Ġun ic
id s
Ġt as
Ġt ip
ĠL od
ld ron
as ons
le t
ĠT each
ra ud
Ġe g
ar ch
Ġis su
Ġwith s
ĠTh ess
el ids
am ation
ĠJ achin
ĠG am
ĠG ird
ĠG era
ri est
Ġre vil
Ġre velation
ĠS ion
ĠS eth
ĠS ab
ĠS ib
ĠS mite
ĠB ig
ĠB oth
il ion
il ight
il ful
il iation
Ġthere unto
ro f
ro lo
Ġas su
Ġsh ined
Ġsh owers
ĠH at
hi a
if ully
ĠM eth
ĠM ad
ĠM isha
Ġsp an
Ġst ink
ho oks
ĠE ng
ĠE lon
ĠE zer
Ġbut ter
ĠW oman
Ġag ed
al mon
ĠF eli
Ġv ale
Ġca se
Ġca ldron
ab eth
ab ly
Ġhand ful
ith iah
em ath
ph ele
ĠO F
ĠN or
ĠD or
ĠD od
ĠP rin
ĠP ele
Ġab iding
ĠC ai
Ġkn ops
Ġso l
ade zer
Ġcon tain
Ġtw ilight
Ġsu p
Ġho llow
av an
Ġhast y
Ġhast eth
ous es
pp im
Ġpri v
ol a
Ġyear ly
Ġsto cks
Ġbo asting
Ġbo oths
Ġpla ister
ĠZ il
Ġwhere upon
ĠR ome
Ġmu le
ic ia
Ġpra ising
Ġbl oss
Ġset t
Ġset tle
sw er
ĠCh en
ĠCh em
Ġra v
Ġra ined
ĠSh ere
ĠSh ealt
Ġey elids
Ġsm o
Ġevil s
ne cked
Ġdeliver er
Ġdis gu
Ġex t
eas ing
li eth
Ġcast le
Ġsc ab
Ġtab ret
Ġfe el
Ġfe ver
Ġfe eding
Ġsl ing
Ġal though
Ġrep ay
Ġpo ison
Ġthir tieth
Ġsil ent
ised ec
ret ion
Ġcont ention
llow s
Ġwar p
Ġwar red
Ġhar t
oss ible
Ġfl aming
Ġbuild eth
Ġcover t
Ġlong ed
Ġsub til
Ġseek est
ap has
Ġforg ave
ĠEph rath
ĠHow l
Ġexce ed
Ġhold eth
Ġch est
Ġwit ch
Ġdev out
Ġwo of
Ġut tereth
Ġserve th
ib ah
Ġsal uted
Ġhon oured
Ġhon oureth
Ġprep aration
Ġprov ided
Ġmar vel
Ġdef enced
Ġminister ing
Ġhelp er
ĠAss hur
ĠAd aiah
ĠAn swer
Ġspoil er
Ġgu est
ave ment
Ġperish eth
ĠJo zabad
ĠAmmon ite
Ġtreas ury
Ġobe isance
Ġfle eth
Ġter rif
Ġlabour ers
ĠGilead ite
har s
Ġflee ce
Ġjourney s
ĠAl pha
Ġtra vell
Ġget teth
Ġmaid s
ĠZeb adiah
Ġlift ing
Ġexalt eth
Ġrequ ite
ĠMa hal
Ġsn ared
Ġcru se
Ġcrown s
Ġrefu seth
Ġdeep er
Ġrebell ion
Ġden s
Ġtalk ing
Ġbaptiz e
Ġcond u
Ġbitter ly
ĠJob ab
ĠAsh kelon
Ġseeth e
Ġhoney com
Ġhung red
Ġpost erity
Ġlear ning
Ġregard ed
Ġbind eth
Ġproud ly
Ġint end
Ġreap ers
ĠNa hash
ked ah
ĠHad adezer
Ġprocl amation
Ġimp ossible
ĠTim nath
Ġaven ger
Ġfours quare
Ġdefile th
Ġrecord er
Ġvirgin ity
ĠHor mah
Ġmad ness
Ġconsecr ation
Ġben ef
ĠAra unah
wor m
Ġshar pen
Ġshort ened
Ġtemp les
Ġproceed ed
Ġpersu ade
Ġexp ired
Ġeag les
Ġhire ling
Ġenl arge
Ġbeha ved
Ġtreacher ous
Ġpartak er
Ġast rolo
Ġsor cer
Ġtak est
ĠHag g
ĠGershon ites
Ġcra fts
Ġprover bs
ĠNah shon
ĠRep ha
Ġadv ice
ĠElis abeth
ĠHiv ite
Ġprolong ed
Ġconsid ereth
ĠMalch iah
ĠMak kedah
ĠSheb na
Ġbesto w
Ġquar ters
Ġadulter ers
Ġbru ised
Ġpar ched
Ġnecess ary
Ġgroan ing
Ġhew ers
Ġshin eth
Ġmurmur ings
crib e
ĠSan ct
ĠShob al
Ġshea f
Ġshea ves
ĠAnak ims
Ġdeg rees
Ġprevent ed
Ġpurcha sed
Ġdread ful
Ġcop y
ĠGa al
ĠBes ide
Ġens ign
ĠMelch isedec
Ġbab es
Ġstam ped
ĠPe leth
ĠBez aleel
Ġfores kin
Ġchamberl ains
Ġwag ons
Ġstiff necked
ĠDib on
Ġconver ted
Ġdimin ish
Ġbetroth ed
Ġcarpent ers
ĠMichm ash
Ġmist ress
Ġsapphi re
Ġentreat ed
Ġneedle work
ĠNazar ite
Ġmills tone
Ġwiz ards
ĠSuff er
Ġbrid le
Ġridd le
Ġintercess ion
ĠBoz rah
ĠShelom ith
Ġscorp ions
Ġfer vent
ĠToph et
Ġshove ls
ĠChereth ites
Ġdiscomf ited
Ġaffright ed
ĠComm and
Ġthron es
Ġcater pill
Ġdur st
Ġpang s
ĠThess alon
Ġassu red
ĠFeli x
ĠCai aphas
Ġbloss om
ĠShealt iel
Ġhoneycom b
H N
b u
b an
b ar
b eth
b iah
b oa
c ra
d ue
e g
e zer
g a
g ies
g ments
h ement
k ins
l st
l ai
m ith
m iel
o enai
p rus
t ies
u ne
u ally
w ord
Ġs ine
Ġs li
Ġs ower
Ġo uch
in eth
in ate
Ġw ed
re i
Ġb ent
Ġb les
Ġb ul
Ġb ery
to fore
is gah
Ġc le
ĠA ri
ĠA kk
Ġd ance
Ġd ough
Ġd ross
Ġd uty
Ġp ine
Ġp avement
Ġbe e
Ġbe ckon
ĠI ra
Ġwi pe
Ġha ll
Ġsha king
Ġwh eresoever
se mble
Ġun kn
id ered
Ġt ren
Ġt ied
Ġt ares
ĠL uz
Ġhis sing
gh ill
ĠT ill
ĠT arry
ra i
ra r
ra nd
Ġe vent
Ġwith ereth
ĠTh ree
ĠTh ink
am mite
ĠJ E
ĠJ ust
ri al
Ġup ro
ĠS y
ĠB l
ĠB els
ĠB ichri
Ġwhi lst
il icia
ro g
ah em
Ġsh eath
ĠH ara
ĠIs hi
ĠM ig
ĠM all
ĠM ushi
Ġsp ort
Ġsp rung
Ġst ru
Ġst all
Ġout go
Ġout side
Ġbut ler
ĠW ould
Ġdo er
Ġv ie
Ġv ip
Ġv ap
ph en
ĠO th
Ġpl ants
ĠD is
ĠD rink
ĠD uke
Ġhea rest
ie ce
ĠC on
ĠC hi
ĠC ry
ĠC ilicia
Ġso oths
Ġcon ce
Ġwor ms
Ġli ars
Ġlo fty
Ġover wh
res hah
Ġhast ily
Ġde cked
ĠJes h
ĠJer imoth
ol ished
um p
ath ah
Ġheart ed
qu iet
Ġga llows
Ġco ll
Ġsw im
Ġsw arm
Ġsin ful
Ġsto ck
ĠJe c
ĠJe ther
ĠJe ush
Ġbo x
ĠZ e
ĠZ orah
ĠZ abad
ĠR om
ĠR ock
ĠAb don
all u
ic ian
Ġen mity
Ġbro idered
Ġper ple
Ġper dition
ĠCh ebar
Ġra iseth
ĠSh in
ĠSh isha
Ġpre fer
Ġbeg u
Ġdis eased
Ġdis quiet
Ġlaw y
Ġex tor
Ġjudg est
Ġgi ant
Ġdest itute
Ġr ud
Ġrighteous ly
Ġend ured
Ġprophet ess
Ġsl ack
Ġapp le
Ġdestroy eth
Ġgra in
Ġmo veth
Ġdisc retion
Ġfear ing
Ġfaith fully
Ġinc orrupt
Ġmother s
Ġrest rained
Ġim m
Ġtem per
Ġbelie ving
Ġwar ning
han iah
Ġqu iver
Ġchief est
Ġfl ight
ĠRe hum
Ġfif ties
Ġlea ped
Ġsub due
ĠEli phele
ĠEli oenai
ĠIt tai
ĠEl n
Ġfollow ers
Ġwis er
Ġforg at
Ġcur ses
ĠNe hem
ious ness
Ġdec re
Ġdev iseth
ĠSha ul
ĠSha phat
Ġaff airs
Ġbook s
Ġpleas ures
Ġsuff ice
Ġprov ide
Ġprov ocation
ĠBenjam ites
ĠBenjam ite
Ġinst ant
Ġteach est
ĠGil boa
Ġhere tofore
Ġwait ing
Ġsk ilful
Ġref rain
ĠAd ah
Ġdece iver
Ġpreach er
Ġstri p
Ġglad ly
Ġdesp ite
Ġdepart eth
ĠJo i
Ġap iece
Ġfur rows
ĠWhere upon
Ġperfect ed
Ġshut teth
Ġoppress ors
Ġbound s
Ġsupp ose
Ġsupp osed
Ġvi al
Ġmaid en
ĠOn an
per se
Ġcarry ing
Ġinstru ment
ĠGal ila
ĠMa on
ĠMa reshah
Ġrev ive
Ġrev eal
Ġfeed eth
ĠSe est
Ġcircumc ise
Ġsy com
Ġprosper ous
Ġsojour ner
Ġpersec utors
Ġtempt ations
Ġkid s
Ġve hement
ĠAz maveth
Ġherd men
Ġfill ets
Ġmanif old
Ġhard ly
Ġpursu ing
Ġpursu eth
Ġaw oke
Ġaw aked
Ġsearch eth
Ġhandmaid s
JO HN
ĠEth an
Ġven ison
Ġstir reth
ĠZi beon
Ġdistress es
Ġfurn iture
Ġchast ened
Ġpurif ication
Ġforgiven ess
Ġwant ing
Ġyield ed
ĠJezreel ite
Ġlangu isheth
Ġempt ied
Ġimp uted
Ġconfid ent
Ġdiver se
Ġcare less
ĠJa hath
ĠCarm i
ĠMesh ech
Ġcove t
ĠEthiop ian
ĠJab in
Ġreach ed
ĠCy ren
ĠCy prus
Ġtr ode
ĠMe h
Ġdescend ing
Ġappro ved
Ġmean eth
Ġliber al
Ġstrait ened
ĠMatt ithiah
ĠKad miel
Ġincl osed
Ġpreserve th
Ġkindred s
ometh ing
ĠSham mah
ĠHere by
Ġenl ight
ĠKen ites
Ġtast ed
ĠMen ahem
Ġatt ent
ĠZac cur
Ġweap on
Ġovert urn
ĠOph rah
ĠRep ent
ura ble
Ġlack ing
ĠRabb i
app uah
Ġed ifying
Ġemb race
Ġbald ness
Ġforehead s
Ġdear th
Ġdear ly
ĠMak er
Ġquar ter
Ġgenealo gies
Ġreconc iliation
Ġbru ise
Ġworm wood
Ġdan ger
Ġdun ghill
Ġpeac eable
Ġaccus ers
Ġpertain ing
ĠArab ia
Ġcens ers
Ġunp rof
Ġexam ple
Ġbal ance
Ġtorment ed
Ġrush ing
Ġcompl ain
Ġpurcha se
Ġsurn ame
Ġsurn amed
ĠEb al
Ġagre ed
umm im
Ġflatter ing
Ġeas ier
Ġemer ods
ĠPed aiah
ĠShun ammite
ĠAholib amah
ĠGitt ite
Ġkneel ed
Ġexac t
ĠNetop hathite
ĠMo lech
Ġvest ure
ĠDest roy
ĠPen uel
ĠCor inth
Ġchew eth
Ġambassad ors
Ġbak er
ĠAph ek
Ġyest erday
ĠSep har
ĠDin ah
Ġperil s
Ġhelm et
Ġbondw oman
ĠRedeem er
Ġpierc ed
Ġdissol ved
Ġpear ls
ĠEd rei
Ġvom it
ĠShec haniah
Ġcorre ct
Ġmagist rates
Ġalmond s
Ġpas tors
Ġpow der
Ġtas k
ĠMisha el
Ġsol it
Ġpriv ately
ĠChem osh
ĠShere biah
Ġastrolo gers
ĠSanct ify
Ġouch es
Ġbles seth
Ġbery l
ĠAkk ub
Ġunkn own
Ġtren ch
Ġupro ar
ĠBels hazzar
Ġoutgo ings
Ġsooths ay
Ġoverwh el
Ġextor tion
ĠNehem iah
Ġsycom ore
Ġunprof it
T HE
a ld
a ven
a ol
a tor
b or
b on
b ite
c ent
c ript
d s
d iel
d ius
f aring
g ard
g iver
k ah
l ath
m ind
n y
o ves
p art
r od
r ate
s sed
s mith
v aim
z or
z an
z ad
z eel
Ġth ro
Ġth orn
Ġth read
Ġth rew
Ġa xes
Ġa ileth
Ġs omething
in ations
in ner
Ġw el
Ġw ish
er red
re b
re ls
Ġb ite
to ps
Ġm aim
Ġm ortal
Ġm asons
Ġf adeth
at ing
at ia
Ġc ow
Ġc row
Ġc ert
Ġc easing
ed e
Ġu seth
ĠA pp
Ġd it
Ġd ish
Ġd rown
Ġd ressed
Ġd yed
Ġin k
Ġin vent
Ġin asmuch
Ġp an
Ġp ru
Ġp ec
Ġto es
Ġto ssed
ha il
Ġbe mo
Ġbe headed
ĠI d
Ġha p
Ġl ent
Ġl aughter
Ġl ump
Ġsha ven
Ġsha keth
Ġy onder
id a
Ġt et
ĠL ove
Ġfor ced
Ġno ond
ch oh
as per
le e
le ct
ĠT re
ĠT ou
ĠT el
ĠT em
ĠT aan
ĠT rust
ĠT ola
od y
od ic
ar c
ar im
ir g
ir ts
Ġwith held
el zebub
am ia
ĠJ arm
ĠJ abb
ĠJ avan
ĠG ab
ĠG irg
ri p
et een
Ġre alm
ĠS te
ĠS lay
ĠB inn
ur ance
Ġwhi les
Ġan t
ad d
Ġsh one
Ġgo t
ĠH en
ĠH al
ĠH att
hi p
ĠM ish
Ġsp ran
Ġsp ee
Ġout cast
op ot
ĠW as
ĠW ord
al iel
Ġhear th
ĠF eed
ĠF lee
pt uously
Ġdo ers
Ġv ol
Ġca reth
Ġhouse top
Ġhouse tops
Ġoff ences
Ġchild less
ĠO reb
ĠN oph
ĠD ost
ĠD ishon
ĠP eth
ĠP ath
Ġab ility
ĠC al
ĠC ret
ĠC ush
ĠC har
Ġkn ead
Ġne g
Ġso les
Ġj aw
Ġj eopard
Ġj avel
Ġj asper
Ġri pe
Ġsu cc
Ġsu nder
ill a
Ġpro test
Ġcomm une
Ġhast en
Ġhast ened
ĠBe elzebub
ol k
ol is
um erable
ind er
Ġput test
itt ing
Ġsto p
Ġsto ny
ul iar
ĠZ ar
ĠZ op
ĠR es
ĠR aam
ĠAb iezer
all owed
ic al
Ġpra ct
Ġset test
Ġfo es
Ġfo xes
ef iled
Ġgl itter
ĠCh er
Ġra w
Ġra zor
Ġro e
Ġdes er
ĠSh eth
Ġhundred fold
Ġsm ith
Ġdis perse
Ġlaw giver
Ġex ped
Ġr ider
Ġr ideth
Ġpray eth
Ġsc rip
Ġapp ertain
Ġdestroy er
Ġcan ker
Ġreturn eth
Ġgra y
Ġrep len
Ġpo nd
Ġent ice
Ġdead ly
Ġwalk est
Ġlight en
Ġlight ly
ia tor
ĠPhil ipp
Ġcont em
Ġbes ides
Ġmeat s
Ġqu ite
Ġcl im
Ġfl ag
ĠU nder
Ġsec ure
Ġad j
Ġad m
Ġad orn
ĠBeth aven
ĠGo od
Ġcam ps
Ġcertain ty
Ġsave th
Ġgar ris
Ġask ing
Ġdev oted
ĠSha l
ĠSha ron
aid a
Ġdiv iding
Ġdiv iners
Ġtell eth
Ġres c
Ġcorn et
Ġsun k
Ġdef raud
Ġhusband man
Ġhelp ers
Ġfeast ing
Ġwast es
Ġsk y
Ġsk ill
Ġsk irts
Ġref rained
Ġspoil ers
Ġprophes ieth
Ġslay ing
Ġpal ms
Ġmess age
Ġsound ing
ĠWhere with
ĠWhere unto
Ġperfect ly
Ġreproach eth
hath ites
Ġass urance
Ġsupp osing
ĠAl though
ĠZeb o
Ġsleep eth
Ġblind ness
Ġcreat e
Ġsitt est
ĠAh inoam
ĠChald ea
ĠMa ha
Ġcrown ed
Ġdelight s
ĠShem a
ĠAt aroth
Ġcorrupt ible
Ġmis ery
Ġfish ers
Ġfig ure
Ġquick ened
Ġhousehold s
ĠMer aioth
ĠMer ibah
Ġtempt ing
Ġda wn
Ġhum ility
Ġve il
ĠAz ekah
Ġnin eteen
Ġweak ness
ĠGi bb
Ġhard ness
Ġwea ver
Ġinn umerable
Ġchang es
Ġnet work
ĠEn os
Ġund efiled
Ġpot tage
ĠJam in
Ġroot ed
Ġstretch eth
Ġwant eth
Ġyield ing
Ġval ue
Ġharl ots
Ġlangu ages
ĠAch bor
Ġgriev ously
cha ble
ĠGed or
Ġtrav aileth
Ġsell eth
ĠAi jalon
ĠLot an
ĠMicha iah
Ġdro pped
Ġconfess ed
Ġstrengthen eth
ĠBeths h
ĠBeths aida
Ġdrunken ness
Ġhypocr is
Ġmed iator
Ġroom s
ĠKirj athar
Ġhind s
Ġwrong fully
Ġnat ivity
Ġsel ves
Ġspot ted
Ġstore h
ĠMes opot
Ġprove nder
Ġminist ration
Ġmention ed
Ġkins men
ĠHav ilah
Ġhumble th
Ġsort s
Ġplay ing
ĠCain an
Ġconv in
Ġbottom less
Ġprincipal ities
Ġmelt eth
ĠLa ish
ĠLa adan
ĠLa odic
Ġstub born
Ġreven ger
ĠTimoth y
Ġfashion ed
Ġacknow led
Ġpull ed
stra ked
Ġdeb t
ĠSheb aniah
Ġreconc iled
Ġadulter ess
Ġcr ushed
Ġdan cing
Ġtoken s
Ġorn ament
ĠZo an
Ġpertain eth
oll en
Ġtro ops
ĠBu y
ĠBu kk
Ġworshipp ers
crib ed
Ġsigh ing
Ġfra gments
Ġnour ish
Ġring straked
Ġbefall en
ĠEz ion
ĠGre c
Ġrel ig
Ġrel ieve
Ġdeg ree
Ġworkman ship
Ġcompl aint
hear ted
Ġisland s
Ġevid ence
Ġafore time
Ġsoft ly
Ġoverse er
Ġoccup ied
Ġesp ous
Ġthund ers
Ġpsal m
Ġpsal ms
Ġstoop ed
Ġrevolt ed
ĠEsht aol
Ġgnash ing
Ġwol ves
Ġcaus es
Ġswell ing
ĠUr im
Ġalien ated
Ġfea thers
Ġclust ers
Ġcusto ms
Ġrobber y
ING S
fo oted
Ġod ours
Ġdivor ce
Ġburying place
Ġvirt ue
Ġdemand ed
Ġdet est
Ġpom p
Ġham mer
Ġew e
Ġsincer ity
Ġmidw ives
ĠSamarit ans
Ġgrasshopp ers
ĠZipp or
Ġturtled oves
Ġdau bed
Ġsham ef
Ġeg gs
Ġissu ed
ĠGam aliel
ĠPele g
ĠZil pah
Ġsett led
Ġrav ished
Ġsmo oth
Ġwitch cra
ĠMahal aleel
Ġcrafts men
ĠPeleth ites
bu k
Ġwed ding
ĠAri och
Ġbee ves
rar ch
Ġstru ck
ĠOth niel
ĠJec oniah
ĠShin ar
ĠShisha k
ĠEln athan
Ġsolit ary
Ġoverwhel med
Ġunprofit able
cript ion
zad ak
Ġthro at
Ġwel fare
Ġmaim ed
Ġpec uliar
Ġbemo an
Ġtet rarch
Ġnoond ay
ĠJarm uth
ĠJabb ok
ĠSte phen
ĠBinn ui
Ġspran g
Ġspee ches
Ġoutcast s
Ġjavel in
Ġexped ient
Ġgarris ons
ĠMesopot amia
> ;
A nd
E A
E ST
I S
K INGS
L ES
O V
S AL
T ER
U K
W S
a eus
a inder
b ah
b ies
c el
c keth
c oni
c ceed
d rew
f ers
f um
g lah
g ued
h att
i est
i res
i tor
l ies
l ory
m ers
m oab
m asters
m itted
n ets
p ered
p elah
r immon
t ah
u sel
u ps
u rah
v ai
w ear
w hich
z ap
th irst
Ġth reat
Ġth umb
Ġa lo
Ġs odden
in ally
Ġw et
Ġw av
Ġw are
Ġw ert
er ate
Ġb ay
Ġb ol
Ġb rib
Ġb att
Ġb alm
to l
ou rest
Ġm and
Ġm ote
Ġf ade
Ġf ug
Ġf urious
ll ed
ll em
is ho
is ement
is seth
at eth
at iah
Ġc ister
Ġc ups
ed i
ed ech
ĠA qu
ĠA then
ĠA riel
Ġd ign
Ġd art
Ġd ying
Ġd ances
Ġin formed
Ġp ant
Ġp its
Ġp isseth
Ġto e
Ġto ler
Ġto mbs
Ġn av
it a
it ful
it ution
ĠI coni
an k
an oah
Ġha ven
Ġl ain
Ġl uc
Ġl asc
Ġl eopard
Ġwh is
Ġg our
Ġg ains
Ġsa r
Ġhe el
se mb
Ġun less
Ġun fru
st er
Ġt a
Ġt all
Ġt end
Ġt eareth
Ġt aleb
Ġt ails
ĠL e
ĠL ud
Ġfor ts
ld ren
ch er
ĠT ish
ĠT alm
ĠT ahath
ĠT appuah
ra kes
Ġis le
ir y
Ġwith drew
ear ned
ĠJ as
ĠJ ar
ĠJ oses
ĠJ ap
ĠJ ash
ĠJ ared
ĠJ ael
ĠJ ES
ĠG r
ĠG em
ĠG idd
ri ages
ri kam
ent imes
Ġall ow
et ed
ere ward
Ġre hear
ĠS wear
ĠB ea
ĠB ow
ĠB ak
ĠB ash
ĠB uz
Ġme mber
eth on
ah iah
Ġman ners
Ġman kind
Ġse ers
au n
ĠH ab
ĠH ide
if ter
ĠM is
ĠM ass
ĠM erem
ĠM oz
Ġsp ied
Ġsp arrow
Ġsp ouse
Ġst icks
Ġby word
ĠE m
ĠE at
ĠE ither
ight eous
Ġag ree
ĠF ill
ĠF riend
ĠF inally
Ġdo ted
Ġca ves
ab er
ph on
ĠO b
ĠO z
Ġam end
Ġpl ates
ĠN ob
ĠN aioth
ĠD em
ĠD ef
ĠFor b
ĠP ot
ĠP ris
ĠP ahath
Ġab ated
ĠC l
ĠC ep
ĠC aph
ep hi
Ġkn it
Ġkn ee
Ġkn ife
Ġat tain
Ġj aws
Ġtw ins
Ġsu st
Ġsu per
Ġsu cceed
ill y
Ġli ce
Ġho l
av ah
Ġpro of
Ġserv ing
Ġbr ink
ĠBe bai
ak es
ak ing
um ah
Ġsw ifter
Ġsin k
rin es
Ġsto le
ĠJe hon
ĠJe hud
Ġway faring
Ġbo at
Ġpla gued
Ġgood man
ĠR ighteous
ĠAb id
ĠAb ib
Ġbu nd
Ġbu rial
ic us
Ġcha se
are el
ĠAs aiah
ĠAs semble
ng el
Ġper vers
Ġper fum
ĠCh ittim
Ġrem ainder
Ġro pes
ĠSh ur
Ġke y
Ġdis ann
Ġfirst lings
Ġseven fold
Ġjudg ing
Ġr ereward
Ġcast les
ag ed
ag ger
ĠK ings
ĠK ib
ĠK ishon
Ġsc ra
un ity
Ġdwell ed
Ġgold smith
Ġsl ip
Ġsl ug
Ġsl ander
Ġret ained
Ġhigh ly
Ġru bies
Ġhow ling
Ġbrother ly
iv iousness
oth ec
ek od
Ġrece iving
Ġdisc ouraged
ort unity
Ġstand est
ia el
Ġten ons
Ġinc urable
ret ched
Ġcomp elled
Ġcut teth
ff ick
Ġrest itution
Ġbelie vest
Ġwar med
Ġinherit ed
Ġbes et
han ge
be z
Ġopen ing
Ġqu it
Ġcl ap
Ġcl ods
Ġconc eal
Ġstran g
Ġfl attereth
Ġfl anks
ĠJos edech
ĠRe ceive
Ġlea ned
ĠEl im
ĠEl imelech
ĠJeho hanan
Ġcho ked
Ġsend est
ĠAr p
Ġhor rible
Ġhold est
Ġconf ed
Ġgar n
Ġsacrifice th
Ġwo ollen
Ġchar g
Ġchar ges
Ġpit ied
ĠMan ass
Ġdiv ision
Ġsal utation
ĠMoab itess
Ġpleas ing
Ġred dish
Ġtrust est
Ġread ing
Ġprov oking
Ġdef ied
Ġhid ing
Ġhid est
Ġrepro b
Ġdra ms
Ġtong s
Ġteach er
Ġord ain
Ġcloud y
ĠAd in
aph im
Ġfast en
Ġprophes ying
Ġgr ate
Ġneed eth
Ġneed ful
oc ations
Ġap othec
ĠBaal peor
Ġtreas ur
Ġbond man
Ġescap eth
Ġter rib
Ġter aphim
Ġleave th
Ġfur b
Ġbed chamber
Ġbon nets
Ġreward eth
ĠEdom ite
pl aces
Ġgird les
Ġtra ffick
Ġappear ing
Ġprosp ect
Ġwatch ing
Ġsleep ing
ĠHan och
Ġassemb lies
ĠAhi o
ĠAhi ezer
ĠGal atia
Ġtar g
Ġrev ived
Ġrev ealeth
Ġcal m
Ġpor ter
ĠAbi hail
EN T
Ġran k
ĠHebron ites
Ġdevour ing
Ġdam age
Ġele ction
Ġprofit ed
Ġprofit eth
ĠHaz ars
ĠHaz eroth
Ġlow ly
Ġlep ers
Ġlep rous
ĠWith out
Ġpoll s
Ġweight s
ĠAz el
ĠAz rikam
Ġjoin ts
Ġexec uteth
Ġfill eth
Ġhat est
Ġpu ffed
Ġsavour y
ĠGi hon
Ġfair s
Ġforsake th
Ġblasphem ies
Ġcre ation
Ġmet e
Ġlod ging
Ġlad en
Ġlust eth
ĠHerod ias
ĠSal ah
ĠSal mon
ĠSal vation
ĠElias aph
Ġmark ed
Ġfurn ished
Ġchast ised
ĠNathan ael
Ġliken ed
Ġlangu ish
Ġaccom pan
Ġfro st
ba ck
Ġplease th
ĠGibeon ites
Ġolive yard
ĠJa al
Ġconfess ion
Ġmal ice
Ġdrunk ards
Ġwand ereth
Ġwand ering
Ġhapp eneth
Ġvali antly
Ġmemor y
ĠDel aiah
ĠDel ilah
Ġcommun ic
Ġcommun ication
bel oved
Ġfort ify
ĠAmm iel
Ġimag inations
ĠJed iael
Ġexp ounded
Ġexp ressed
ĠMed ia
ĠMach pelah
Ġstum bled
Ġbeha ve
ĠKen ite
Ġdeceive th
Ġbew ail
Ġupper most
Ġsor c
ĠGom er
ĠKed em
ĠEsh col
ĠShim ron
Ġcontent ions
Ġthunder ings
Ġblack ness
Ġadv ant
Ġcontend ed
Ġtri al
ĠMalch ijah
Ġeffect ual
Ġmyr tle
Ġpublic an
AM ENT
Ġoft entimes
Ġpar l
Ġpar cel
Ġglean ed
Ġow ls
Ġoak s
Ġdan ced
ĠArab ians
Ġcommend ed
Ġblot ted
Ġdisob edience
Ġexam ined
Ġworshipp eth
Ġmedit ation
ĠTeman ite
ĠSir s
Ġhoof s
Ġenv ied
Ġexerc ised
Ġdesir ous
Ġexc hange
ĠLy stra
Ġwithdra wn
Ġrene wed
Ġagre ement
Ġens am
Ġseventeen th
Ġthin keth
Ġbab e
Ġpip es
ĠJok tan
ĠHos anna
Ġoverse ers
Ġchamberl ain
Ġpatient ly
ĠJahaz iel
ĠTek oa
Ġemer ald
Ġdistrib uted
ĠEsht em
ĠAholib ah
Ġrough ly
Ġwol f
ĠGol iath
ĠMi k
ĠShamm ai
Ġberea ve
Ġberea ved
Ġav o
Ġbount ifully
ĠAc han
ĠEbed melech
ĠZab di
Ġsnuff ers
Ġchasten ing
Ġlev y
Ġcost ly
Ġexper t
Ġphys icians
rat ah
Ġpil gr
ĠTro as
ĠPi rath
Ġconstra ined
Ġpresum ptuously
Ġpersecut est
Ġgreed y
Ġunbelie ving
Ġfellowserv ant
rehend ed
ĠAlex ander
Ġhed ges
Ġur ged
Ġunl earned
Ġunic orn
Ġwiths tood
Ġrevil ed
ĠBig vai
ĠMeth usel
ĠEng edi
Ġsubtil ty
Ġguest s
Ġsorcer ers
ĠRepha im
ĠThessalon ica
Ġassured ly
Ġbeckon ed
ĠMall uch
ĠChi ldren
ĠJesh imon
ĠZe eb
ĠRom ans
Ġdisquiet ed
Ġimm ortal
ĠEliphele t
Ġenlight ened
Ġattent ive
ĠSephar vaim
Ġtask masters
Ġsoothsay ers
mind ed
Ġdit ch
Ġhap ly
ĠTaan ach
ĠGirg ash
Ġjeopard y
ĠZar hites
Ġglitter ing
Ġdeser ts
Ġcanker worm
ĠPhilipp i
ĠGibb ethon
ĠBethsh ean
Ġhypocris y
ĠKirjathar ba
Ġdivorce ment
Ġdetest able
zap han
Ġwav ed
Ġbol ster
Ġbatt les
Ġmand rakes
Ġfug it
ĠAqu ila
Ġtoler able
Ġnav y
ĠIconi um
Ġluc re
Ġlasc iviousness
Ġunfru itful
Ġtaleb earer
ĠTish bite
ĠTalm ai
ĠJES US
ĠBash emath
ĠMerem oth
ĠPris c
ĠPahath moab
ĠCep has
Ġpervers eness
Ġslug gard
ĠMethusel ah
A TI
H OS
O L
Q u
R E
U M
a ith
a avah
b rand
c us
c ran
c ence
d ess
d ers
e ches
f u
f lesh
g our
g ob
g ather
h im
h od
i ph
i ken
i bb
i athan
k est
k ath
l ine
l ab
l ations
m ong
m aster
o ving
r ha
r ites
s ure
s tones
t am
u ar
u ce
v an
v ous
w k
w arks
y li
z ib
Ġ Qu
th ite
th ai
Ġa right
Ġa thirst
Ġs om
Ġs ur
Ġs our
Ġs odom
Ġh os
Ġo mer
in ent
in nah
Ġw an
re zer
Ġb ason
Ġb abb
Ġb isho
to cks
Ġm ort
Ġm ild
Ġf elt
Ġf ins
Ġf uel
Ġf olk
is ome
is ible
en gers
Ġc ure
Ġc irc
Ġc rew
Ġc riest
or la
ed orla
on ti
ĠA in
ĠA ven
ĠA ter
ĠA iah
ĠA way
ĠA rist
ĠA zz
Ġp ac
Ġp ence
Ġp ained
Ġp ierce
ha le
ing ed
ĠI j
Ġha ber
Ġha wk
Ġl ur
Ġl ac
Ġl ily
om en
Ġwh it
Ġg erah
Ġg ushed
Ġun m
im us
st al
st ead
id im
id ents
Ġt in
Ġt it
Ġt ale
Ġt rance
Ġt rieth
ĠL ight
ch icus
le h
le el
ĠT er
ĠT almon
ra ced
od em
od ach
Ġe mp
ay ing
ay eth
ĠTh ummim
Ġnot able
el iness
am on
am ph
am ite
am mon
ear ch
ear iah
ear ted
ear chable
ĠJ ad
ĠJ ason
ĠG in
ĠG en
ĠG all
ĠG eb
ĠG un
ĠG ai
ĠG lory
ri x
ri ved
ri pe
et ime
Ġup side
ere z
ĠS ar
ĠS ac
ĠS earch
ĠB ah
ĠB ind
ĠB ild
ur im
il ud
ke m
Ġthere upon
est in
Ġcom eliness
Ġwill ows
ah zur
Ġfa bles
Ġse ct
Ġse iz
ĠH ell
ĠH ither
ĠH ach
ĠH ail
ĠH oph
hi ah
if ic
ĠM ith
ĠM ol
ĠM erc
ĠM ago
ĠM arah
Ġsp ice
Ġsp un
Ġsp ots
Ġsp ecially
Ġst ud
op tion
ers cription
ĠE vil
ĠE tam
Ġthis tle
ĠW ere
ĠW alk
ĠThe m
pt ion
Ġv ia
Ġoff ices
Ġhand fu
em pered
ph idim
ĠO ver
ĠO be
ĠO thers
ĠO cran
Ġpl at
Ġpl owed
ĠN oe
Ġbefore hand
ĠD oe
ĠD ian
ĠD eal
Ġland m
ĠFor ty
ĠP as
ĠP al
ĠP ag
ĠP isgah
ĠP allu
ĠP amph
ĠP erez
Ġab ounded
Ġab stain
Ġab olished
ie vous
ĠC as
ĠC ho
ĠC ease
ĠC ircumc
ĠC arry
Ġaf fect
Ġkn ives
Ġkn ock
ot ent
Ġj oint
Ġcon st
Ġcon tained
Ġear ring
Ġri b
Ġri gour
Ġsu ng
Ġbre eches
Ġli est
Ġli ck
Ġlo g
Ġlo ft
Ġho ar
Ġho ok
Ġpro c
Ġpro cess
Ġover sha
Ġdown ward
Ġpass est
Ġpass ages
Ġpass engers
ĠBe zer
ĠBe cher
ĠHe w
ĠJes haiah
Ġearth ly
um iel
ath ites
Ġla p
Ġla vers
Ġsw add
Ġany thing
Ġdea c
Ġsto ut
Ġsto ries
ul ar
ul ations
ĠZ or
ĠZ em
ĠZ ered
ĠZ are
ĠZ anoah
ĠZ uar
ĠR un
ĠR oman
ĠAb ide
ĠAb ishua
Ġwat ches
Ġwat ereth
Ġbu ff
ic ity
Ġbring est
are b
ran ged
Ġbl ade
Ġbl asting
ub ah
Ġen ri
Ġper ce
ĠCh edorla
Ġra is
Ġrem oving
Ġro t
Ġro es
Ġro eb
Ġro ared
ĠSh uth
ĠSh ittim
ĠSh uah
ĠSh ede
Ġsm iting
Ġsm oking
Ġown ers
Ġdis allowed
li est
Ġr ate
Ġfire brand
ĠK or
ĠK ING
Ġsc um
Ġend ued
me on
Ġsea ls
Ġfe ign
Ġflesh hooks
Ġtrib ut
Ġru mp
Ġbet imes
Ġshew est
Ġsi ze
Ġgra ffed
ful ness
Ġrep utation
Ġmo ving
Ġmo cketh
Ġpo ols
Ġdep uty
Ġent ang
Ġlight er
Ġlight ened
Ġlive ly
Ġgod dess
Ġcomp el
Ġcomp ared
Ġcomp asseth
Ġcut ting
az im
az zar
Ġpres idents
Ġcont rite
Ġrest ing
Ġwar fare
Ġhar ness
Ġlook s
Ġwa res
Ġwa fers
Ġrej ect
Ġconc l
Ġfl int
Ġseed s
Ġbuild est
ĠPharaoh ne
ĠRe u
ĠRe nder
ĠRe habiah
ĠRe kem
ĠRe phidim
Ġsanct ification
Ġad option
Ġlea ving
ĠGo zan
Ġsub ver
Ġwall ow
Ġpur se
ap e
ĠEli zur
ĠEl se
ĠEl ath
ĠJeho s
ĠEph ratah
ĠAr gob
Ġhold ing
Ġconf ound
Ġclean ness
ĠSha al
Ġcry stal
Ġsal uteth
Ġtrou b
Ġthr ong
Ġutter ance
Ġres erve
Ġres orted
Ġest ranged
Ġtest ifieth
Ġsuff ereth
ĠEphraim ites
Ġmar ch
Ġmar red
Ġmar ble
Ġmar row
Ġmar iners
med atha
Ġdef y
Ġtransgress or
Ġdra ught
Ġcould est
aac hah
Ġhere in
Ġhere by
Ġconsum ption
ĠAss ir
Ġfat ted
Ġfat lings
Ġsk ies
Ġsk ull
Ġcontinu eth
Ġcontinu ance
ĠJerem oth
Ġkill ing
Ġref ined
ĠAd mah
Ġdecl ine
Ġspoil s
Ġspoil ing
ĠHam medatha
Ġgu ided
Ġslay eth
Ġsanctu aries
Ġlab oureth
Ġmust ard
ims on
Ġstra wed
Ġprom ote
Ġprom oted
Ġpresent ly
ĠJo iar
ĠJo zadak
Ġopp resseth
Ġopp ortunity
Ġbea rest
ĠBaal ah
ĠBaal hanan
sha tha
Ġfore part
Ġob lations
Ġfur long
Ġsold ier
Ġreproach es
Ġcor p
Ġsweet ness
ush im
Ġsupp ly
Ġlin t
Ġhorse back
Ġsit u
Ġreward s
ich rist
Ġrepent eth
pl icity
Ġsuffer ing
Ġbra kest
Ġsain t
Ġtra de
Ġtra ded
Ġtop az
ĠOn o
Ġblind ed
Ġsepar ateth
Ġplant eth
ĠAh ilud
ĠAhi ra
Ġreason ing
Ġhair y
ĠElea leh
Ġsware st
ĠAbi jam
ĠIsh meel
Ġled ges
Ġled dest
Ġforb ad
Ġcomfort eth
Ġcomfort ably
Ġwhore mong
Ġquick eneth
Ġdisp uted
Ġdisp uting
Ġenc ouraged
Ġthink est
Ġgro pe
Ġadult eries
ĠAz areel
ĠTy chicus
Ġpurp oses
Ġdwelling places
Ġpursu ers
Ġaw are
Ġblasphem eth
Ġrememb ereth
Ġdoct rines
Ġnet tles
ĠEn an
ĠEn ter
ĠNa ha
ĠNa hath
Ġmisch ievous
Ġund one
Ġbar n
oura ge
Ġchast eneth
Ġchast isement
Ġbelong ing
ĠJezreel itess
ĠAch or
Ġgrie ve
Ġtrav ailed
ĠTim nah
Ġcomfor ters
Ġban ks
ĠShil onite
Ġinnoc ency
Ġforn ica
ĠJa az
ĠGide oni
Ġperver ted
Ġperver teth
Ġdro ps
idd ing
Ġabhor reth
Ġdrunk ard
Ġremove th
Ġmed dle
Ġfi xed
Ġascend ing
ĠAra d
Ġhail stones
ĠHigh est
Ġsim plicity
ĠPers ians
ĠAmm ishaddai
Ġstrait ness
Ġhind ered
atch et
Ġpitch ers
Ġdisplea se
Ġdisplea sure
aren es
ĠMed eba
ĠCarmel ite
ĠAbisha g
Ġoint ments
Ġspring ing
Ġsuck ing
ĠAho lah
ĠAho hite
ĠLib y
ĠLib ni
Ġburdens ome
ĠTir shatha
ĠTars us
Ġkins f
ĠSer ug
ĠPro v
ĠNaam ah
Ġcontent ious
ĠOph el
ĠRep haiah
Ġclo ven
Ġmyst eries
ĠHus hathite
Ġcourage ous
iam in
Ġste ep
Ġmock ing
Ġmock ers
Ġrequest ed
Ġins urrection
Ġbef ell
Ġemb raced
Ġreven ge
Ġcruel ty
ĠZerah iah
Ġoverthrow eth
ĠGomor rha
ĠPar osh
Ġdeb tors
Ġstor k
Ġclear ly
Ġreconc ile
ĠPerizz ite
Ġcr imson
Ġglean ing
ĠCall ed
ĠAmas ai
Ġconsent ed
Ġvict ual
Ġpots her
ĠBu ild
ĠHel p
ĠHel on
Ġfold s
Ġworshipp ing
Ġdoubt less
Ġfra me
ĠSidon ians
roth hatt
Ġraven s
Ġraven ing
ĠShel umiel
Ġlean ness
ĠAholi ab
ĠBre ak
Ġenv ying
Ġbud ded
Ġbuck lers
Ġexc el
Ġinv aded
Ġinv isible
Ġhaught iness
Ġevid ent
pan hes
Ġsed uc
Ġsed ition
Ġpound s
ĠHos ah
ĠPe or
Ġfores kins
Ġoccup ation
Ġdash ed
ĠTek o
ĠHash um
ĠPed ahzur
Ġdelic ate
Ġdistrib ute
Ġcheek s
Ġdimin ished
ĠHod ijah
Ġblast ed
ĠAgag ite
ĠGeshur ites
Ġfou l
Ġfou nder
ĠNim shi
ĠPel atiah
Ġrid ers
Ġclust er
Ġadmon ished
Ġcusto dy
Ġengra vings
Ġlev iathan
Ġuns earchable
ĠEp aph
ĠEp hah
ĠPur im
ĠShu hite
Ġcraft iness
Ġidolat ers
Ġphys ician
ĠMatth ew
Ġunt empered
ĠTah panhes
ĠHea ven
ĠNic odem
ĠHele z
ĠZur ishaddai
Ġrotten ness
ĠShes han
ĠArch ite
Ġtimb rel
Ġtimb rels
Ġmat rix
Ġgent le
arch us
ĠDod o
ĠPrin ce
Ġsup erscription
ĠChen aanah
Ġdisgu ised
Ġext end
Ġtabret s
ĠAnswer est
ĠAlpha eus
Ġbenef it
ĠHagg ith
Ġcaterpill er
Ġsine ws
Ġbul warks
Ġcle fts
Ġevent ide
ĠBl ow
ĠHara rite
ĠMig d
ĠDis han
Ġconce it
Ġswarm s
Ġperple xed
Ġprefer red
Ġbegu iled
Ġlawy ers
Ġdecre ed
ĠGalila eans
Ġvehement ly
Ġcert ify
Ġdrown ed
Ġinvent ions
ĠId um
ĠTou ch
ĠTem a
Ġant ichrist
ĠHatt ush
Ġvol unt
ĠPath ros
ĠCret e
ĠRaam ah
ĠSheth ar
Ġreplen ished
ĠUnder stand
Ġadj ure
ĠZebo im
Ġdawn ing
Ġstoreh ouses
ĠLaodic ea
ĠBukk i
Ġrelig ion
Ġespous ed
Ġalo es
ĠAthen s
Ġwhis per
Ġgour d
Ġtend eth
ĠJap hia
ĠGr ant
ĠGem ariah
ĠBak buk
ĠMoz a
ĠCl au
ĠCaph tor
Ġhol pen
ĠAbid an
ĠKib rothhatt
Ġgarn ished
Ġcharg eable
Ġfurb ished
Ġoliveyard s
Ġsorc eries
Ġparl our
ĠEshtem oa
ĠPirath onite
Ġimmortal ity
ĠGirgash ites
ĠPrisc illa
ATI ON
HOS EA
flesh ed
iken ard
yli a
Ġwan ton
Ġmild ew
ĠArist archus
Ġlac keth
Ġgerah s
ĠGai us
ĠBah urim
ĠBild ad
ĠHither to
ĠHoph ni
ĠMago g
Ġvia ls
Ġhandfu ls
ĠObe y
ĠDoe g
ĠDian a
ĠPag iel
ĠPamph ylia
Ġoversha dow
ĠChedorla omer
ĠShede ur
ĠJoiar ib
Ġfurlong s
ĠNicodem us
ĠKibrothhatt aavah
A T
A s
C OR
D E
E M
E TER
H OV
I L
I EL
J U
K K
M O
O M
P ETER
R ON
S AM
S ON
S IANS
S SAL
T h
T EST
U EL
a ly
a al
a ps
b one
b un
b raid
b oz
c ai
c ify
d a
d ia
e nder
e lemiah
f ac
f rom
g ath
g ai
g arm
g aber
i um
i cked
l ites
m ation
m aachah
n as
n ites
n els
n ched
n ally
n eam
o g
p r
p in
p eth
p ie
p les
p lea
p hath
p ans
r as
r isha
s ation
t reat
t ray
t ters
u ia
u him
v a
v ad
v eable
y r
th at
th ol
th aim
Ġa pt
Ġs en
Ġs op
Ġh ers
Ġo per
Ġo pin
in ing
in ence
Ġw ake
Ġw aken
Ġw rung
er be
re p
re et
re ator
Ġb ore
Ġb aked
to re
to ck
Ġm ice
Ġm ul
Ġm ixt
Ġm iry
Ġm ammon
Ġf resh
Ġf lieth
is led
en ch
