{
  "version": "1.0",
  "truncation": null,
  "padding": null,
  "added_tokens": [
    {
      "id": 0,
      "content": "ye",
      "single_word": false,
      "lstrip": false,
      "rstrip": false,
      "normalized": false,
      "special": true
    },
    {
      "id": 1,
      "content": "Christ",
      "single_word": false,
      "lstrip": false,
      "rstrip": false,
      "normalized": false,
      "special": true
    },
    {
      "id": 2,
      "content": "God",
      "single_word": false,
      "lstrip": false,
      "rstrip": false,
      "normalized": false,
      "special": true
    },
    {
      "id": 3,
      "content": "Israel",
      "single_word": false,
      "lstrip": false,
      "rstrip": false,
      "normalized": false,
      "special": true
    },
    {
      "id": 4,
      "content": "earth",
      "single_word": false,
      "lstrip": false,
      "rstrip": false,
      "normalized": false,
      "special": true
    },
    {
      "id": 5,
      "content": "Lord",
      "single_word": false,
      "lstrip": false,
      "rstrip": false,
      "normalized": false,
      "special": true
    },
    {
      "id": 6,
      "content": "Jesus",
      "single_word": false,
      "lstrip": false,
      "rstrip": false,
      "normalized": false,
      "special": true
    },
    {
      "id": 7,
      "content": "Spirit",
      "single_word": false,
      "lstrip": false,
      "rstrip": false,
      "normalized": false,
      "special": true
    },
    {
      "id": 8,
      "content": "<|endoftext|>",
      "single_word": false,
      "lstrip": false,
      "rstrip": false,
      "normalized": true,
      "special": true
    },
    {
      "id": 9,
      "content": "<TESTAMENT_START=OT>",
      "single_word": false,
      "lstrip": false,
      "rstrip": false,
      "normalized": false,
      "special": true
    },
    {
      "id": 10,
      "content": "<TESTAMENT_END=OT>",
      "single_word": false,
      "lstrip": false,
      "rstrip": false,
      "normalized": false,
      "special": true
    },
    {
      "id": 11,
      "content": "<TESTAMENT_START=NT>",
      "single_word": false,
      "lstrip": false,
      "rstrip": false,
      "normalized": false,
      "special": true
    },
    {
      "id": 12,
      "content": "<TESTAMENT_END=NT>",
      "single_word": false,
      "lstrip": false,
      "rstrip": false,
      "normalized": false,
      "special": true
    },
    {
      "id": 13,
      "content": "<BOOK_START=GENESIS>",
      "single_word": false,
      "lstrip": false,
      "rstrip": false,
      "normalized": false,
      "special": true
    },
    {
      "id": 14,
      "content": "<BOOK_START=EXODUS>",
      "single_word": false,
      "lstrip": false,
      "rstrip": false,
      "normalized": false,
      "special": true
    },
    {
      "id": 15,
      "content": "<BOOK_START=LEVITICUS>",
      "single_word": false,
      "lstrip": false,
      "rstrip": false,
      "normalized": false,
      "special": true
    },
    {
      "id": 16,
      "content": "<BOOK_START=NUMBERS>",
      "single_word": false,
      "lstrip": false,
      "rstrip": false,
      "normalized": false,
      "special": true
    },
    {
      "id": 17,
      "content": "<BOOK_START=DEUTERONOMY>",
      "single_word": false,
      "lstrip": false,
      "rstrip": false,
      "normalized": false,
      "special": true
    },
    {
      "id": 18,
      "content": "<BOOK_START=JOSHUA>",
      "single_word": false,
      "lstrip": false,
      "rstrip": false,
      "normalized": false,
      "special": true
    },
    {
      "id": 19,
      "content": "<BOOK_START=JUDGES>",
      "single_word": false,
      "lstrip": false,
      "rstrip": false,
      "normalized": false,
      "special": true
    },
    {
      "id": 20,
      "content": "<BOOK_START=RUTH>",
      "single_word": false,
      "lstrip": false,
      "rstrip": false,
      "normalized": false,
      "special": true
    },
    {
      "id": 21,
      "content": "<BOOK_START=1SAMUEL>",
      "single_word": false,
      "lstrip": false,
      "rstrip": false,
      "normalized": false,
      "special": true
    },
    {
      "id": 22,
      "content": "<BOOK_START=2SAMUEL>",
      "single_word": false,
      "lstrip": false,
      "rstrip": false,
      "normalized": false,
      "special": true
    },
    {
      "id": 23,
      "content": "<BOOK_START=1KINGS>",
      "single_word": false,
      "lstrip": false,
      "rstrip": false,
      "normalized": false,
      "special": true
    },
    {
      "id": 24,
      "content": "<BOOK_START=2KINGS>",
      "single_word": false,
      "lstrip": false,
      "rstrip": false,
      "normalized": false,
      "special": true
    },
    {
      "id": 25,
      "content": "<BOOK_START=1CHRONICLES>",
      "single_word": false,
      "lstrip": false,
      "rstrip": false,
      "normalized": false,
      "special": true
    },
    {
      "id": 26,
      "content": "<BOOK_START=2CHRONICLES>",
      "single_word": false,
      "lstrip": false,
      "rstrip": false,
      "normalized": false,
      "special": true
    },
    {
      "id": 27,
      "content": "<BOOK_START=EZRA>",
      "single_word": false,
      "lstrip": false,
      "rstrip": false,
      "normalized": false,
      "special": true
    },
    {
      "id": 28,
      "content": "<BOOK_START=NEHEMIAH>",
      "single_word": false,
      "lstrip": false,
      "rstrip": false,
      "normalized": false,
      "special": true
    },
    {
      "id": 29,
      "content": "<BOOK_START=ESTHER>",
      "single_word": false,
      "lstrip": false,
      "rstrip": false,
      "normalized": false,
      "special": true
    },
    {
      "id": 30,
      "content": "<BOOK_START=JOB>",
      "single_word": false,
      "lstrip": false,
      "rstrip": false,
      "normalized": false,
      "special": true
    },
    {
      "id": 31,
      "content": "<BOOK_START=PSALMS>",
      "single_word": false,
      "lstrip": false,
      "rstrip": false,
      "normalized": false,
      "special": true
    },
    {
      "id": 32,
      "content": "<BOOK_START=PROVERBS>",
      "single_word": false,
      "lstrip": false,
      "rstrip": false,
      "normalized": false,
      "special": true
    },
    {
      "id": 33,
      "content": "<BOOK_START=ECCLESIASTES>",
      "single_word": false,
      "lstrip": false,
      "rstrip": false,
      "normalized": false,
      "special": true
    },
    {
      "id": 34,
      "content": "<BOOK_START=SONGOFSONGS>",
      "single_word": false,
      "lstrip": false,
      "rstrip": false,
      "normalized": false,
      "special": true
    },
    {
      "id": 35,
      "content": "<BOOK_START=ISAIAH>",
      "single_word": false,
      "lstrip": false,
      "rstrip": false,
      "normalized": false,
      "special": true
    },
    {
      "id": 36,
      "content": "<BOOK_START=JEREMIAH>",
      "single_word": false,
      "lstrip": false,
      "rstrip": false,
      "normalized": false,
      "special": true
    },
    {
      "id": 37,
      "content": "<BOOK_START=LAMENTATIONS>",
      "single_word": false,
      "lstrip": false,
      "rstrip": false,
      "normalized": false,
      "special": true
    },
    {
      "id": 38,
      "content": "<BOOK_START=EZEKIEL>",
      "single_word": false,
      "lstrip": false,
      "rstrip": false,
      "normalized": false,
      "special": true
    },
    {
      "id": 39,
      "content": "<BOOK_START=DANIEL>",
      "single_word": false,
      "lstrip": false,
      "rstrip": false,
      "normalized": false,
      "special": true
    },
    {
      "id": 40,
      "content": "<BOOK_START=HOSEA>",
      "single_word": false,
      "lstrip": false,
      "rstrip": false,
      "normalized": false,
      "special": true
    },
    {
      "id": 41,
      "content": "<BOOK_START=JOEL>",
      "single_word": false,
      "lstrip": false,
      "rstrip": false,
      "normalized": false,
      "special": true
    },
    {
      "id": 42,
      "content": "<BOOK_START=AMOS>",
      "single_word": false,
      "lstrip": false,
      "rstrip": false,
      "normalized": false,
      "special": true
    },
    {
      "id": 43,
      "content": "<BOOK_START=OBADIAH>",
      "single_word": false,
      "lstrip": false,
      "rstrip": false,
      "normalized": false,
      "special": true
    },
    {
      "id": 44,
      "content": "<BOOK_START=JONAH>",
      "single_word": false,
      "lstrip": false,
      "rstrip": false,
      "normalized": false,
      "special": true
    },
    {
      "id": 45,
      "content": "<BOOK_START=MICAH>",
      "single_word": false,
      "lstrip": false,
      "rstrip": false,
      "normalized": false,
      "special": true
    },
    {
      "id": 46,
      "content": "<BOOK_START=NAHUM>",
      "single_word": false,
      "lstrip": false,
      "rstrip": false,
      "normalized": false,
      "special": true
    },
    {
      "id": 47,
      "content": "<BOOK_START=HABAKKUK>",
      "single_word": false,
      "lstrip": false,
      "rstrip": false,
      "normalized": false,
      "special": true
    },
    {
      "id": 48,
      "content": "<BOOK_START=ZEPHANIAH>",
      "single_word": false,
      "lstrip": false,
      "rstrip": false,
      "normalized": false,
      "special": true
    },
    {
      "id": 49,
      "content": "<BOOK_START=HAGGAI>",
      "single_word": false,
      "lstrip": false,
      "rstrip": false,
      "normalized": false,
      "special": true
    },
    {
      "id": 50,
      "content": "<BOOK_START=ZECHARIAH>",
      "single_word": false,
      "lstrip": false,
      "rstrip": false,
      "normalized": false,
      "special": true
    },
    {
      "id": 51,
      "content": "<BOOK_START=MALACHI>",
      "single_word": false,
      "lstrip": false,
      "rstrip": false,
      "normalized": false,
      "special": true
    },
    {
      "id": 52,
      "content": "<BOOK_START=MATTHEW>",
      "single_word": false,
      "lstrip": false,
      "rstrip": false,
      "normalized": false,
      "special": true
    },
    {
      "id": 53,
      "content": "<BOOK_START=MARK>",
      "single_word": false,
      "lstrip": false,
      "rstrip": false,
      "normalized": false,
      "special": true
    },
    {
      "id": 54,
      "content": "<BOOK_START=LUKE>",
      "single_word": false,
      "lstrip": false,
      "rstrip": false,
      "normalized": false,
      "special": true
    },
    {
      "id": 55,
      "content": "<BOOK_START=JOHN>",
      "single_word": false,
      "lstrip": false,
      "rstrip": false,
      "normalized": false,
      "special": true
    },
    {
      "id": 56,
      "content": "<BOOK_START=ACTS>",
      "single_word": false,
      "lstrip": false,
      "rstrip": false,
      "normalized": false,
      "special": true
    },
    {
      "id": 57,
      "content": "<BOOK_START=ROMANS>",
      "single_word": false,
      "lstrip": false,
      "rstrip": false,
      "normalized": false,
      "special": true
    },
    {
      "id": 58,
      "content": "<BOOK_START=1CORINTHIANS>",
      "single_word": false,
      "lstrip": false,
      "rstrip": false,
      "normalized": false,
      "special": true
    },
    {
      "id": 59,
      "content": "<BOOK_START=2CORINTHIANS>",
      "single_word": false,
      "lstrip": false,
      "rstrip": false,
      "normalized": false,
      "special": true
    },
    {
      "id": 60,
      "content": "<BOOK_START=GALATIANS>",
      "single_word": false,
      "lstrip": false,
      "rstrip": false,
      "normalized": false,
      "special": true
    },
    {
      "id": 61,
      "content": "<BOOK_START=EPHESIANS>",
      "single_word": false,
      "lstrip": false,
      "rstrip": false,
      "normalized": false,
      "special": true
    },
    {
      "id": 62,
      "content": "<BOOK_START=PHILIPPIANS>",
      "single_word": false,
      "lstrip": false,
      "rstrip": false,
      "normalized": false,
      "special": true
    },
    {
      "id": 63,
      "content": "<BOOK_START=COLOSSIANS>",
      "single_word": false,
      "lstrip": false,
      "rstrip": false,
      "normalized": false,
      "special": true
    },
    {
      "id": 64,
      "content": "<BOOK_START=1THESSALONIANS>",
      "single_word": false,
      "lstrip": false,
      "rstrip": false,
      "normalized": false,
      "special": true
    },
    {
      "id": 65,
      "content": "<BOOK_START=2THESSALONIANS>",
      "single_word": false,
      "lstrip": false,
      "rstrip": false,
      "normalized": false,
      "special": true
    },
    {
      "id": 66,
      "content": "<BOOK_START=1TIMOTHY>",
      "single_word": false,
      "lstrip": false,
      "rstrip": false,
      "normalized": false,
      "special": true
    },
    {
      "id": 67,
      "content": "<BOOK_START=2TIMOTHY>",
      "single_word": false,
      "lstrip": false,
      "rstrip": false,
      "normalized": false,
      "special": true
    },
    {
      "id": 68,
      "content": "<BOOK_START=TITUS>",
      "single_word": false,
      "lstrip": false,
      "rstrip": false,
      "normalized": false,
      "special": true
    },
    {
      "id": 69,
      "content": "<BOOK_START=PHILEMON>",
      "single_word": false,
      "lstrip": false,
      "rstrip": false,
      "normalized": false,
      "special": true
    },
    {
      "id": 70,
      "content": "<BOOK_START=HEBREWS>",
      "single_word": false,
      "lstrip": false,
      "rstrip": false,
      "normalized": false,
      "special": true
    },
    {
      "id": 71,
      "content": "<BOOK_START=JAMES>",
      "single_word": false,
      "lstrip": false,
      "rstrip": false,
      "normalized": false,
      "special": true
    },
    {
      "id": 72,
      "content": "<BOOK_START=1PETER>",
      "single_word": false,
      "lstrip": false,
      "rstrip": false,
      "normalized": false,
      "special": true
    },
    {
      "id": 73,
      "content": "<BOOK_START=2PETER>",
      "single_word": false,
      "lstrip": false,
      "rstrip": false,
      "normalized": false,
      "special": true
    },
    {
      "id": 74,
      "content": "<BOOK_START=1JOHN>",
      "single_word": false,
      "lstrip": false,
      "rstrip": false,
      "normalized": false,
      "special": true
    },
    {
      "id": 75,
      "content": "<BOOK_START=2JOHN>",
      "single_word": false,
      "lstrip": false,
      "rstrip": false,
      "normalized": false,
      "special": true
    },
    {
      "id": 76,
      "content": "<BOOK_START=3JOHN>",
      "single_word": false,
      "lstrip": false,
      "rstrip": false,
      "normalized": false,
      "special": true
    },
    {
      "id": 77,
      "content": "<BOOK_START=JUDE>",
      "single_word": false,
      "lstrip": false,
      "rstrip": false,
      "normalized": false,
      "special": true
    },
    {
      "id": 78,
      "content": "<BOOK_START=REVELATION>",
      "single_word": false,
      "lstrip": false,
      "rstrip": false,
      "normalized": false,
      "special": true
    },
    {
      "id": 79,
      "content": "<BOOK_END=GENESIS>",
      "single_word": false,
      "lstrip": false,
      "rstrip": false,
      "normalized": false,
      "special": true
    },
    {
      "id": 80,
      "content": "<BOOK_END=EXODUS>",
      "single_word": false,
      "lstrip": false,
      "rstrip": false,
      "normalized": false,
      "special": true
    },
    {
      "id": 81,
      "content": "<BOOK_END=LEVITICUS>",
      "single_word": false,
      "lstrip": false,
      "rstrip": false,
      "normalized": false,
      "special": true
    },
    {
      "id": 82,
      "content": "<BOOK_END=NUMBERS>",
      "single_word": false,
      "lstrip": false,
      "rstrip": false,
      "normalized": false,
      "special": true
    },
    {
      "id": 83,
      "content": "<BOOK_END=DEUTERONOMY>",
      "single_word": false,
      "lstrip": false,
      "rstrip": false,
      "normalized": false,
      "special": true
    },
    {
      "id": 84,
      "content": "<BOOK_END=JOSHUA>",
      "single_word": false,
      "lstrip": false,
      "rstrip": false,
      "normalized": false,
      "special": true
    },
    {
      "id": 85,
      "content": "<BOOK_END=JUDGES>",
      "single_word": false,
      "lstrip": false,
      "rstrip": false,
      "normalized": false,
      "special": true
    },
    {
      "id": 86,
      "content": "<BOOK_END=RUTH>",
      "single_word": false,
      "lstrip": false,
      "rstrip": false,
      "normalized": false,
      "special": true
    },
    {
      "id": 87,
      "content": "<BOOK_END=1SAMUEL>",
      "single_word": false,
      "lstrip": false,
      "rstrip": false,
      "normalized": false,
      "special": true
    },
    {
      "id": 88,
      "content": "<BOOK_END=2SAMUEL>",
      "single_word": false,
      "lstrip": false,
      "rstrip": false,
      "normalized": false,
      "special": true
    },
    {
      "id": 89,
      "content": "<BOOK_END=1KINGS>",
      "single_word": false,
      "lstrip": false,
      "rstrip": false,
      "normalized": false,
      "special": true
    },
    {
      "id": 90,
      "content": "<BOOK_END=2KINGS>",
      "single_word": false,
      "lstrip": false,
      "rstrip": false,
      "normalized": false,
      "special": true
    },
    {
      "id": 91,
      "content": "<BOOK_END=1CHRONICLES>",
      "single_word": false,
      "lstrip": false,
      "rstrip": false,
      "normalized": false,
      "special": true
    },
    {
      "id": 92,
      "content": "<BOOK_END=2CHRONICLES>",
      "single_word": false,
      "lstrip": false,
      "rstrip": false,
      "normalized": false,
      "special": true
    },
    {
      "id": 93,
      "content": "<BOOK_END=EZRA>",
      "single_word": false,
      "lstrip": false,
      "rstrip": false,
      "normalized": false,
      "special": true
    },
    {
      "id": 94,
      "content": "<BOOK_END=NEHEMIAH>",
      "single_word": false,
      "lstrip": false,
      "rstrip": false,
      "normalized": false,
      "special": true
    },
    {
      "id": 95,
      "content": "<BOOK_END=ESTHER>",
      "single_word": false,
      "lstrip": false,
      "rstrip": false,
      "normalized": false,
      "special": true
    },
    {
      "id": 96,
      "content": "<BOOK_END=JOB>",
      "single_word": false,
      "lstrip": false,
      "rstrip": false,
      "normalized": false,
      "special": true
    },
    {
      "id": 97,
      "content": "<BOOK_END=PSALMS>",
      "single_word": false,
      "lstrip": false,
      "rstrip": false,
      "normalized": false,
      "special": true
    },
    {
      "id": 98,
      "content": "<BOOK_END=PROVERBS>",
      "single_word": false,
      "lstrip": false,
      "rstrip": false,
      "normalized": false,
      "special": true
    },
    {
      "id": 99,
      "content": "<BOOK_END=ECCLESIASTES>",
      "single_word": false,
      "lstrip": false,
      "rstrip": false,
      "normalized": false,
      "special": true
    },
    {
      "id": 100,
      "content": "<BOOK_END=SONGOFSONGS>",
      "single_word": false,
      "lstrip": false,
      "rstrip": false,
      "normalized": false,
      "special": true
    },
    {
      "id": 101,
      "content": "<BOOK_END=ISAIAH>",
      "single_word": false,
      "lstrip": false,
      "rstrip": false,
      "normalized": false,
      "special": true
    },
    {
      "id": 102,
      "content": "<BOOK_END=JEREMIAH>",
      "single_word": false,
      "lstrip": false,
      "rstrip": false,
      "normalized": false,
      "special": true
    },
    {
      "id": 103,
      "content": "<BOOK_END=LAMENTATIONS>",
      "single_word": false,
      "lstrip": false,
      "rstrip": false,
      "normalized": false,
      "special": true
    },
    {
      "id": 104,
      "content": "<BOOK_END=EZEKIEL>",
      "single_word": false,
      "lstrip": false,
      "rstrip": false,
      "normalized": false,
      "special": true
    },
    {
      "id": 105,
      "content": "<BOOK_END=DANIEL>",
      "single_word": false,
      "lstrip": false,
      "rstrip": false,
      "normalized": false,
      "special": true
    },
    {
      "id": 106,
      "content": "<BOOK_END=HOSEA>",
      "single_word": false,
      "lstrip": false,
      "rstrip": false,
      "normalized": false,
      "special": true
    },
    {
      "id": 107,
      "content": "<BOOK_END=JOEL>",
      "single_word": false,
      "lstrip": false,
      "rstrip": false,
      "normalized": false,
      "special": true
    },
    {
      "id": 108,
      "content": "<BOOK_END=AMOS>",
      "single_word": false,
      "lstrip": false,
      "rstrip": false,
      "normalized": false,
      "special": true
    },
    {
      "id": 109,
      "content": "<BOOK_END=OBADIAH>",
      "single_word": false,
      "lstrip": false,
      "rstrip": false,
      "normalized": false,
      "special": true
    },
    {
      "id": 110,
      "content": "<BOOK_END=JONAH>",
      "single_word": false,
      "lstrip": false,
      "rstrip": false,
      "normalized": false,
      "special": true
    },
    {
      "id": 111,
      "content": "<BOOK_END=MICAH>",
      "single_word": false,
      "lstrip": false,
      "rstrip": false,
      "normalized": false,
      "special": true
    },
    {
      "id": 112,
      "content": "<BOOK_END=NAHUM>",
      "single_word": false,
      "lstrip": false,
      "rstrip": false,
      "normalized": false,
      "special": true
    },
    {
      "id": 113,
      "content": "<BOOK_END=HABAKKUK>",
      "single_word": false,
      "lstrip": false,
      "rstrip": false,
      "normalized": false,
      "special": true
    },
    {
      "id": 114,
      "content": "<BOOK_END=ZEPHANIAH>",
      "single_word": false,
      "lstrip": false,
      "rstrip": false,
      "normalized": false,
      "special": true
    },
    {
      "id": 115,
      "content": "<BOOK_END=HAGGAI>",
      "single_word": false,
      "lstrip": false,
      "rstrip": false,
      "normalized": false,
      "special": true
    },
    {
      "id": 116,
      "content": "<BOOK_END=ZECHARIAH>",
      "single_word": false,
      "lstrip": false,
      "rstrip": false,
      "normalized": false,
      "special": true
    },
    {
      "id": 117,
      "content": "<BOOK_END=MALACHI>",
      "single_word": false,
      "lstrip": false,
      "rstrip": false,
      "normalized": false,
      "special": true
    },
    {
      "id": 118,
      "content": "<BOOK_END=MATTHEW>",
      "single_word": false,
      "lstrip": false,
      "rstrip": false,
      "normalized": false,
      "special": true
    },
    {
      "id": 119,
      "content": "<BOOK_END=MARK>",
      "single_word": false,
      "lstrip": false,
      "rstrip": false,
      "normalized": false,
      "special": true
    },
    {
      "id": 120,
      "content": "<BOOK_END=LUKE>",
      "single_word": false,
      "lstrip": false,
      "rstrip": false,
      "normalized": false,
      "special": true
    },
    {
      "id": 121,
      "content": "<BOOK_END=JOHN>",
      "single_word": false,
      "lstrip": false,
      "rstrip": false,
      "normalized": false,
      "special": true
    },
    {
      "id": 122,
      "content": "<BOOK_END=ACTS>",
      "single_word": false,
      "lstrip": false,
      "rstrip": false,
      "normalized": false,
      "special": true
    },
    {
      "id": 123,
      "content": "<BOOK_END=ROMANS>",
      "single_word": false,
      "lstrip": false,
      "rstrip": false,
      "normalized": false,
      "special": true
    },
    {
      "id": 124,
      "content": "<BOOK_END=1CORINTHIANS>",
      "single_word": false,
      "lstrip": false,
      "rstrip": false,
      "normalized": false,
      "special": true
    },
    {
      "id": 125,
      "content": "<BOOK_END=2CORINTHIANS>",
      "single_word": false,
      "lstrip": false,
      "rstrip": false,
      "normalized": false,
      "special": true
    },
    {
      "id": 126,
      "content": "<BOOK_END=GALATIANS>",
      "single_word": false,
      "lstrip": false,
      "rstrip": false,
      "normalized": false,
      "special": true
    },
    {
      "id": 127,
      "content": "<BOOK_END=EPHESIANS>",
      "single_word": false,
      "lstrip": false,
      "rstrip": false,
      "normalized": false,
      "special": true
    },
    {
      "id": 128,
      "content": "<BOOK_END=PHILIPPIANS>",
      "single_word": false,
      "lstrip": false,
      "rstrip": false,
      "normalized": false,
      "special": true
    },
    {
      "id": 129,
      "content": "<BOOK_END=COLOSSIANS>",
      "single_word": false,
      "lstrip": false,
      "rstrip": false,
      "normalized": false,
      "special": true
    },
    {
      "id": 130,
      "content": "<BOOK_END=1THESSALONIANS>",
      "single_word": false,
      "lstrip": false,
      "rstrip": false,
      "normalized": false,
      "special": true
    },
    {
      "id": 131,
      "content": "<BOOK_END=2THESSALONIANS>",
      "single_word": false,
      "lstrip": false,
      "rstrip": false,
      "normalized": false,
      "special": true
    },
    {
      "id": 132,
      "content": "<BOOK_END=1TIMOTHY>",
      "single_word": false,
      "lstrip": false,
      "rstrip": false,
      "normalized": false,
      "special": true
    },
    {
      "id": 133,
      "content": "<BOOK_END=2TIMOTHY>",
      "single_word": false,
      "lstrip": false,
      "rstrip": false,
      "normalized": false,
      "special": true
    },
    {
      "id": 134,
      "content": "<BOOK_END=TITUS>",
      "single_word": false,
      "lstrip": false,
      "rstrip": false,
      "normalized": false,
      "special": true
    },
    {
      "id": 135,
      "content": "<BOOK_END=PHILEMON>",
      "single_word": false,
      "lstrip": false,
      "rstrip": false,
      "normalized": false,
      "special": true
    },
    {
      "id": 136,
      "content": "<BOOK_END=HEBREWS>",
      "single_word": false,
      "lstrip": false,
      "rstrip": false,
      "normalized": false,
      "special": true
    },
    {
      "id": 137,
      "content": "<BOOK_END=JAMES>",
      "single_word": false,
      "lstrip": false,
      "rstrip": false,
      "normalized": false,
      "special": true
    },
    {
      "id": 138,
      "content": "<BOOK_END=1PETER>",
      "single_word": false,
      "lstrip": false,
      "rstrip": false,
      "normalized": false,
      "special": true
    },
    {
      "id": 139,
      "content": "<BOOK_END=2PETER>",
      "single_word": false,
      "lstrip": false,
      "rstrip": false,
      "normalized": false,
      "special": true
    },
    {
      "id": 140,
      "content": "<BOOK_END=1JOHN>",
      "single_word": false,
      "lstrip": false,
      "rstrip": false,
      "normalized": false,
      "special": true
    },
    {
      "id": 141,
      "content": "<BOOK_END=2JOHN>",
      "single_word": false,
      "lstrip": false,
      "rstrip": false,
      "normalized": false,
      "special": true
    },
    {
      "id": 142,
      "content": "<BOOK_END=3JOHN>",
      "single_word": false,
      "lstrip": false,
      "rstrip": false,
      "normalized": false,
      "special": true
    },
    {
      "id": 143,
      "content": "<BOOK_END=JUDE>",
      "single_word": false,
      "lstrip": false,
      "rstrip": false,
      "normalized": false,
      "special": true
    },
    {
      "id": 144,
      "content": "<BOOK_END=REVELATION>",
      "single_word": false,
      "lstrip": false,
      "rstrip": false,
      "normalized": false,
      "special": true
    },
    {
      "id": 145,
      "content": "thou",
      "single_word": false,
      "lstrip": false,
      "rstrip": false,
      "normalized": false,
      "special": true
    },
    {
      "id": 146,
      "content": "thee",
      "single_word": false,
      "lstrip": false,
      "rstrip": false,
      "normalized": false,
      "special": true
    },
    {
      "id": 147,
      "content": "thine",
      "single_word": false,
      "lstrip": false,
      "rstrip": false,
      "normalized": false,
      "special": true
    },
    {
      "id": 148,
      "content": "doth",
      "single_word": false,
      "lstrip": false,
      "rstrip": false,
      "normalized": false,
      "special": true
    },
    {
      "id": 149,
      "content": "saith",
      "single_word": false,
      "lstrip": false,
      "rstrip": false,
      "normalized": false,
      "special": true
    },
    {
      "id": 150,
      "content": "heaven",
      "single_word": false,
      "lstrip": false,
      "rstrip": false,
      "normalized": false,
      "special": true
    }
  ],
  "normalizer": null,
  "pre_tokenizer": {
    "type": "ByteLevel",
    "add_prefix_space": false,
    "trim_offsets": true,
    "use_regex": true
  },
  "post_processor": {
    "type": "ByteLevel",
    "add_prefix_space": true,
    "trim_offsets": false,
    "use_regex": true
  },
  "decoder": {
    "type": "ByteLevel",
    "add_prefix_space": true,
    "trim_offsets": true,
    "use_regex": true
  },
  "model": {
    "type": "BPE",
    "dropout": null,
    "unk_token": null,
    "continuing_subword_prefix": "",
    "end_of_word_suffix": "",
    "fuse_unk": false,
    "byte_fallback": false,
    "ignore_merges": false,
    "vocab": {
      "ye": 0,
      "Christ": 1,
      "God": 2,
      "Israel": 3,
      "earth": 4,
      "Lord": 5,
      "Jesus": 6,
      "Spirit": 7,
      "<|endoftext|>": 8,
      "<TESTAMENT_START=OT>": 9,
      "<TESTAMENT_END=OT>": 10,
      "<TESTAMENT_START=NT>": 11,
      "<TESTAMENT_END=NT>": 12,
      "<BOOK_START=GENESIS>": 13,
      "<BOOK_START=EXODUS>": 14,
      "<BOOK_START=LEVITICUS>": 15,
      "<BOOK_START=NUMBERS>": 16,
      "<BOOK_START=DEUTERONOMY>": 17,
      "<BOOK_START=JOSHUA>": 18,
      "<BOOK_START=JUDGES>": 19,
      "<BOOK_START=RUTH>": 20,
      "<BOOK_START=1SAMUEL>": 21,
      "<BOOK_START=2SAMUEL>": 22,
      "<BOOK_START=1KINGS>": 23,
      "<BOOK_START=2KINGS>": 24,
      "<BOOK_START=1CHRONICLES>": 25,
      "<BOOK_START=2CHRONICLES>": 26,
      "<BOOK_START=EZRA>": 27,
      "<BOOK_START=NEHEMIAH>": 28,
      "<BOOK_START=ESTHER>": 29,
      "<BOOK_START=JOB>": 30,
      "<BOOK_START=PSALMS>": 31,
      "<BOOK_START=PROVERBS>": 32,
      "<BOOK_START=ECCLESIASTES>": 33,
      "<BOOK_START=SONGOFSONGS>": 34,
      "<BOOK_START=ISAIAH>": 35,
      "<BOOK_START=JEREMIAH>": 36,
      "<BOOK_START=LAMENTATIONS>": 37,
      "<BOOK_START=EZEKIEL>": 38,
      "<BOOK_START=DANIEL>": 39,
      "<BOOK_START=HOSEA>": 40,
      "<BOOK_START=JOEL>": 41,
      "<BOOK_START=AMOS>": 42,
      "<BOOK_START=OBADIAH>": 43,
      "<BOOK_START=JONAH>": 44,
      "<BOOK_START=MICAH>": 45,
      "<BOOK_START=NAHUM>": 46,
      "<BOOK_START=HABAKKUK>": 47,
      "<BOOK_START=ZEPHANIAH>": 48,
      "<BOOK_START=HAGGAI>": 49,
      "<BOOK_START=ZECHARIAH>": 50,
      "<BOOK_START=MALACHI>": 51,
      "<BOOK_START=MATTHEW>": 52,
      "<BOOK_START=MARK>": 53,
      "<BOOK_START=LUKE>": 54,
      "<BOOK_START=JOHN>": 55,
      "<BOOK_START=ACTS>": 56,
      "<BOOK_START=ROMANS>": 57,
      "<BOOK_START=1CORINTHIANS>": 58,
      "<BOOK_START=2CORINTHIANS>": 59,
      "<BOOK_START=GALATIANS>": 60,
      "<BOOK_START=EPHESIANS>": 61,
      "<BOOK_START=PHILIPPIANS>": 62,
      "<BOOK_START=COLOSSIANS>": 63,
      "<BOOK_START=1THESSALONIANS>": 64,
      "<BOOK_START=2THESSALONIANS>": 65,
      "<BOOK_START=1TIMOTHY>": 66,
      "<BOOK_START=2TIMOTHY>": 67,
      "<BOOK_START=TITUS>": 68,
      "<BOOK_START=PHILEMON>": 69,
      "<BOOK_START=HEBREWS>": 70,
      "<BOOK_START=JAMES>": 71,
      "<BOOK_START=1PETER>": 72,
      "<BOOK_START=2PETER>": 73,
      "<BOOK_START=1JOHN>": 74,
      "<BOOK_START=2JOHN>": 75,
      "<BOOK_START=3JOHN>": 76,
      "<BOOK_START=JUDE>": 77,
      "<BOOK_START=REVELATION>": 78,
      "<BOOK_END=GENESIS>": 79,
      "<BOOK_END=EXODUS>": 80,
      "<BOOK_END=LEVITICUS>": 81,
      "<BOOK_END=NUMBERS>": 82,
      "<BOOK_END=DEUTERONOMY>": 83,
      "<BOOK_END=JOSHUA>": 84,
      "<BOOK_END=JUDGES>": 85,
      "<BOOK_END=RUTH>": 86,
      "<BOOK_END=1SAMUEL>": 87,
      "<BOOK_END=2SAMUEL>": 88,
      "<BOOK_END=1KINGS>": 89,
      "<BOOK_END=2KINGS>": 90,
      "<BOOK_END=1CHRONICLES>": 91,
      "<BOOK_END=2CHRONICLES>": 92,
      "<BOOK_END=EZRA>": 93,
      "<BOOK_END=NEHEMIAH>": 94,
      "<BOOK_END=ESTHER>": 95,
      "<BOOK_END=JOB>": 96,
      "<BOOK_END=PSALMS>": 97,
      "<BOOK_END=PROVERBS>": 98,
      "<BOOK_END=ECCLESIASTES>": 99,
      "<BOOK_END=SONGOFSONGS>": 100,
      "<BOOK_END=ISAIAH>": 101,
      "<BOOK_END=JEREMIAH>": 102,
      "<BOOK_END=LAMENTATIONS>": 103,
      "<BOOK_END=EZEKIEL>": 104,
      "<BOOK_END=DANIEL>": 105,
      "<BOOK_END=HOSEA>": 106,
      "<BOOK_END=JOEL>": 107,
      "<BOOK_END=AMOS>": 108,
      "<BOOK_END=OBADIAH>": 109,
      "<BOOK_END=JONAH>": 110,
      "<BOOK_END=MICAH>": 111,
      "<BOOK_END=NAHUM>": 112,
      "<BOOK_END=HABAKKUK>": 113,
      "<BOOK_END=ZEPHANIAH>": 114,
      "<BOOK_END=HAGGAI>": 115,
      "<BOOK_END=ZECHARIAH>": 116,
      "<BOOK_END=MALACHI>": 117,
      "<BOOK_END=MATTHEW>": 118,
      "<BOOK_END=MARK>": 119,
      "<BOOK_END=LUKE>": 120,
      "<BOOK_END=JOHN>": 121,
      "<BOOK_END=ACTS>": 122,
      "<BOOK_END=ROMANS>": 123,
      "<BOOK_END=1CORINTHIANS>": 124,
      "<BOOK_END=2CORINTHIANS>": 125,
      "<BOOK_END=GALATIANS>": 126,
      "<BOOK_END=EPHESIANS>": 127,
      "<BOOK_END=PHILIPPIANS>": 128,
      "<BOOK_END=COLOSSIANS>": 129,
      "<BOOK_END=1THESSALONIANS>": 130,
      "<BOOK_END=2THESSALONIANS>": 131,
      "<BOOK_END=1TIMOTHY>": 132,
      "<BOOK_END=2TIMOTHY>": 133,
      "<BOOK_END=TITUS>": 134,
      "<BOOK_END=PHILEMON>": 135,
      "<BOOK_END=HEBREWS>": 136,
      "<BOOK_END=JAMES>": 137,
      "<BOOK_END=1PETER>": 138,
      "<BOOK_END=2PETER>": 139,
      "<BOOK_END=1JOHN>": 140,
      "<BOOK_END=2JOHN>": 141,
      "<BOOK_END=3JOHN>": 142,
      "<BOOK_END=JUDE>": 143,
      "<BOOK_END=REVELATION>": 144,
      "thou": 145,
      "thee": 146,
      "thine": 147,
      "doth": 148,
      "saith": 149,
      "heaven": 150,
      "!": 151,
      "\"": 152,
      "#": 153,
      "$": 154,
      "%": 155,
      "&": 156,
      "'": 157,
      "(": 158,
      ")": 159,
      "*": 160,
      "+": 161,
      ",": 162,
      "-": 163,
      ".": 164,
      "/": 165,
      "0": 166,
      "1": 167,
      "2": 168,
      "3": 169,
      "4": 170,
      "5": 171,
      "6": 172,
      "7": 173,
      "8": 174,
      "9": 175,
      ":": 176,
      ";": 177,
      "<": 178,
      "=": 179,
      ">": 180,
      "?": 181,
      "@": 182,
      "A": 183,
      "B": 184,
      "C": 185,
      "D": 186,
      "E": 187,
      "F": 188,
      "G": 189,
      "H": 190,
      "I": 191,
      "J": 192,
      "K": 193,
      "L": 194,
      "M": 195,
      "N": 196,
      "O": 197,
      "P": 198,
      "Q": 199,
      "R": 200,
      "S": 201,
      "T": 202,
      "U": 203,
      "V": 204,
      "W": 205,
      "X": 206,
      "Y": 207,
      "Z": 208,
      "[": 209,
      "\\": 210,
      "]": 211,
      "^": 212,
      "_": 213,
      "`": 214,
      "a": 215,
      "b": 216,
      "c": 217,
      "d": 218,
      "e": 219,
      "f": 220,
      "g": 221,
      "h": 222,
      "i": 223,
      "j": 224,
      "k": 225,
      "l": 226,
      "m": 227,
      "n": 228,
      "o": 229,
      "p": 230,
      "q": 231,
      "r": 232,
      "s": 233,
      "t": 234,
      "u": 235,
      "v": 236,
      "w": 237,
      "x": 238,
      "y": 239,
      "z": 240,
      "{": 241,
      "|": 242,
      "}": 243,
      "~": 244,
      "¡": 245,
      "¢": 246,
      "£": 247,
      "¤": 248,
      "¥": 249,
      "¦": 250,
      "§": 251,
      "¨": 252,
      "©": 253,
      "ª": 254,
      "«": 255,
      "¬": 256,
      "®": 257,
      "¯": 258,
      "°": 259,
      "±": 260,
      "²": 261,
      "³": 262,
      "´": 263,
      "µ": 264,
      "¶": 265,
      "·": 266,
      "¸": 267,
      "¹": 268,
      "º": 269,
      "»": 270,
      "¼": 271,
      "½": 272,
      "¾": 273,
      "¿": 274,
      "À": 275,
      "Á": 276,
      "Â": 277,
      "Ã": 278,
      "Ä": 279,
      "Å": 280,
      "Æ": 281,
      "Ç": 282,
      "È": 283,
      "É": 284,
      "Ê": 285,
      "Ë": 286,
      "Ì": 287,
      "Í": 288,
      "Î": 289,
      "Ï": 290,
      "Ð": 291,
      "Ñ": 292,
      "Ò": 293,
      "Ó": 294,
      "Ô": 295,
      "Õ": 296,
      "Ö": 297,
      "×": 298,
      "Ø": 299,
      "Ù": 300,
      "Ú": 301,
      "Û": 302,
      "Ü": 303,
      "Ý": 304,
      "Þ": 305,
      "ß": 306,
      "à": 307,
      "á": 308,
      "â": 309,
      "ã": 310,
      "ä": 311,
      "å": 312,
      "æ": 313,
      "ç": 314,
      "è": 315,
      "é": 316,
      "ê": 317,
      "ë": 318,
      "ì": 319,
      "í": 320,
      "î": 321,
      "ï": 322,
      "ð": 323,
      "ñ": 324,
      "ò": 325,
      "ó": 326,
      "ô": 327,
      "õ": 328,
      "ö": 329,
      "÷": 330,
      "ø": 331,
      "ù": 332,
      "ú": 333,
      "û": 334,
      "ü": 335,
      "ý": 336,
      "þ": 337,
      "ÿ": 338,
      "Ā": 339,
      "ā": 340,
      "Ă": 341,
      "ă": 342,
      "Ą": 343,
      "ą": 344,
      "Ć": 345,
      "ć": 346,
      "Ĉ": 347,
      "ĉ": 348,
      "Ċ": 349,
      "ċ": 350,
      "Č": 351,
      "č": 352,
      "Ď": 353,
      "ď": 354,
      "Đ": 355,
      "đ": 356,
      "Ē": 357,
      "ē": 358,
      "Ĕ": 359,
      "ĕ": 360,
      "Ė": 361,
      "ė": 362,
      "Ę": 363,
      "ę": 364,
      "Ě": 365,
      "ě": 366,
      "Ĝ": 367,
      "ĝ": 368,
      "Ğ": 369,
      "ğ": 370,
      "Ġ": 371,
      "ġ": 372,
      "Ģ": 373,
      "ģ": 374,
      "Ĥ": 375,
      "ĥ": 376,
      "Ħ": 377,
      "ħ": 378,
      "Ĩ": 379,
      "ĩ": 380,
      "Ī": 381,
      "ī": 382,
      "Ĭ": 383,
      "ĭ": 384,
      "Į": 385,
      "į": 386,
      "İ": 387,
      "ı": 388,
      "Ĳ": 389,
      "ĳ": 390,
      "Ĵ": 391,
      "ĵ": 392,
      "Ķ": 393,
      "ķ": 394,
      "ĸ": 395,
      "Ĺ": 396,
      "ĺ": 397,
      "Ļ": 398,
      "ļ": 399,
      "Ľ": 400,
      "ľ": 401,
      "Ŀ": 402,
      "ŀ": 403,
      "Ł": 404,
      "ł": 405,
      "Ń": 406,
      "th": 407,
      "Ġth": 408,
      "Ġthe": 409,
      "Ġa": 410,
      "nd": 411,
      "Ġs": 412,
      "Ġh": 413,
      "Ġo": 414,
      "in": 415,
      "Ġw": 416,
      "er": 417,
      "Ġand": 418,
      "Ġof": 419,
      "re": 420,
      "Ġb": 421,
      "to": 422,
      "ou": 423,
      "Ġm": 424,
      "Ġf": 425,
      "ll": 426,
      "is": 427,
      "en": 428,
      "at": 429,
      "Ġc": 430,
      "or": 431,
      "es": 432,
      "ed": 433,
      "on": 434,
      "Ġu": 435,
      "ĠA": 436,
      "Ġd": 437,
      "Ġin": 438,
      "Ġp": 439,
      "Ġto": 440,
      "ha": 441,
      "ing": 442,
      "ea": 443,
      "Ġn": 444,
      "it": 445,
      "Ġbe": 446,
      "ĠI": 447,
      "ĠAnd": 448,
      "Ġthat": 449,
      "Ġwi": 450,
      "an": 451,
      "Ġha": 452,
      "Ġl": 453,
      "om": 454,
      "Ġsha": 455,
      "Ġwh": 456,
      "Ġg": 457,
      "Ġy": 458,
      "Ġsa": 459,
      "Ġhe": 460,
      "se": 461,
      "Ġun": 462,
      "im": 463,
      "Ġshall": 464,
      "st": 465,
      "id": 466,
      "Ġt": 467,
      "ĠL": 468,
      "ve": 469,
      "Ġfor": 470,
      "Ġno": 471,
      "Ġunto": 472,
      "ut": 473,
      "ld": 474,
      "Ġhis": 475,
      "ch": 476,
      "as": 477,
      "gh": 478,
      "le": 479,
      "ĠT": 480,
      "ra": 481,
      "od": 482,
      "Ġe": 483,
      "Ġhim": 484,
      "ar": 485,
      "Ġthey": 486,
      "Ġis": 487,
      "ir": 488,
      "Ġthem": 489,
      "Ġwith": 490,
      "OR": 491,
      "ĠLOR": 492,
      "ĠLORD": 493,
      "ay": 494,
      "ĠTh": 495,
      "Ġnot": 496,
      "el": 497,
      "am": 498,
      "ow": 499,
      "ver": 500,
      "ce": 501,
      "ear": 502,
      "ĠJ": 503,
      "Ġk": 504,
      "ther": 505,
      "ĠG": 506,
      "Ġit": 507,
      "ght": 508,
      "ri": 509,
      "Ġthou": 510,
      "ent": 511,
      "Ġall": 512,
      "et": 513,
      "Ġup": 514,
      "ere": 515,
      "Ġyou": 516,
      "Ġre": 517,
      "ore": 518,
      "ĠS": 519,
      "Ġthy": 520,
      "Ġwas": 521,
      "ĠB": 522,
      "Ġme": 523,
      "ur": 524,
      "Ġwhi": 525,
      "il": 526,
      "ke": 527,
      "Ġan": 528,
      "ord": 529,
      "and": 530,
      "ain": 531,
      "Ġmy": 532,
      "Ġwhich": 533,
      "Ġthere": 534,
      "ion": 535,
      "Ġon": 536,
      "ro": 537,
      "Ġas": 538,
      "ĠGod": 539,
      "est": 540,
      "ven": 541,
      "Ġsaid": 542,
      "Ġcom": 543,
      "Ġfr": 544,
      "Ġtheir": 545,
      "Ġwill": 546,
      "Ġhave": 547,
      "Ġthee": 548,
      "Ġye": 549,
      "us": 550,
      "eth": 551,
      "ah": 552,
      "Ġman": 553,
      "Ġfrom": 554,
      "ad": 555,
      "fore": 556,
      "Ġsh": 557,
      "ess": 558,
      "ame": 559,
      "Ġson": 560,
      "Ġgo": 561,
      "Ġfa": 562,
      "Ġse": 563,
      "Ġking": 564,
      "au": 565,
      "ĠH": 566,
      "lt": 567,
      "hi": 568,
      "ĠIs": 569,
      "if": 570,
      "ĠM": 571,
      "ake": 572,
      "Ġare": 573,
      "Ġsp": 574,
      "Ġst": 575,
      "Ġout": 576,
      "ren": 577,
      "Ġwere": 578,
      "Ġupon": 579,
      "ter": 580,
      "ho": 581,
      "ine": 582,
      "ly": 583,
      "Ġday": 584,
      "rael": 585,
      "ĠIsrael": 586,
      "op": 587,
      "Ġby": 588,
      "Ġwhen": 589,
      "ers": 590,
      "ĠE": 591,
      "Ġsay": 592,
      "Ġthis": 593,
      "ight": 594,
      "Ġbut": 595,
      "rou": 596,
      "ls": 597,
      "ĠW": 598,
      "Ġag": 599,
      "ation": 600,
      "Ġhou": 601,
      "Ġchi": 602,
      "ĠThe": 603,
      "al": 604,
      "Ġhear": 605,
      "Ġagain": 606,
      "ĠF": 607,
      "ive": 608,
      "ck": 609,
      "Ġhath": 610,
      "Ġwe": 611,
      "pt": 612,
      "Ġdo": 613,
      "Ġher": 614,
      "eop": 615,
      "ud": 616,
      "Ġv": 617,
      "Ġpeop": 618,
      "Ġpeople": 619,
      "Ġca": 620,
      "Ġhouse": 621,
      "our": 622,
      "Ġoff": 623,
      "ab": 624,
      "ant": 625,
      "Ġcame": 626,
      "Ġhad": 627,
      "Ġchild": 628,
      "Ġhand": 629,
      "Ġinto": 630,
      "ith": 631,
      "âĢ": 632,
      "âĢĻ": 633,
      "em": 634,
      "ong": 635,
      "ings": 636,
      "Ġyour": 637,
      "os": 638,
      "ok": 639,
      "sel": 640,
      "ph": 641,
      "Ġcome": 642,
      "ĠO": 643,
      "Ġone": 644,
      "urn": 645,
      "Ġam": 646,
      "ness": 647,
      "Ġchildren": 648,
      "Ġpl": 649,
      "ĠN": 650,
      "Ġbefore": 651,
      "ĠD": 652,
      "ge": 653,
      "Ġever": 654,
      "Ġland": 655,
      "lso": 656,
      "Ġshe": 657,
      "ĠFor": 658,
      "ĠP": 659,
      "Ġhea": 660,
      "ru": 661,
      "Ġab": 662,
      "ie": 663,
      "Ġmen": 664,
      "ity": 665,
      "one": 666,
      "Ġalso": 667,
      "red": 668,
      "Ġagainst": 669,
      "ĠC": 670,
      "Ġaf": 671,
      "ep": 672,
      "Ġkn": 673,
      "Ġshalt": 674,
      "ass": 675,
      "ould": 676,
      "ause": 677,
      "own": 678,
      "ĠBut": 679,
      "Ġat": 680,
      "Ġne": 681,
      "ot": 682,
      "Ġso": 683,
      "Ġus": 684,
      "Ġser": 685,
      "hold": 686,
      "ade": 687,
      "Ġj": 688,
      "Ġfather": 689,
      "Ġcon": 690,
      "Ġtw": 691,
      "Ġear": 692,
      "ies": 693,
      "Ġwent": 694,
      "Ġmade": 695,
      "ard": 696,
      "Ġwor": 697,
      "Ġsaying": 698,
      "Ġri": 699,
      "Ġsu": 700,
      "ĠThen": 701,
      "Ġoffer": 702,
      "Ġeven": 703,
      "ill": 704,
      "ise": 705,
      "Ġbre": 706,
      "ac": 707,
      "Ġli": 708,
      "reat": 709,
      "Ġlo": 710,
      "Ġho": 711,
      "iah": 712,
      "av": 713,
      "out": 714,
      "ĠWh": 715,
      "oun": 716,
      "Ġpro": 717,
      "lo": 718,
      "Ġor": 719,
      "Ġsaith": 720,
      "Ġover": 721,
      "Ġbec": 722,
      "ice": 723,
      "Ġwho": 724,
      "Ġword": 725,
      "ct": 726,
      "res": 727,
      "ell": 728,
      "Ġar": 729,
      "Ġserv": 730,
      "Ġour": 731,
      "ment": 732,
      "ish": 733,
      "Ġcomm": 734,
      "Ġevery": 735,
      "Ġafter": 736,
      "Ġgreat": 737,
      "Ġthings": 738,
      "Ġlet": 739,
      "Ġhast": 740,
      "Ġbr": 741,
      "Ġmay": 742,
      "les": 743,
      "ous": 744,
      "Ġmake": 745,
      "Ġdown": 746,
      "ved": 747,
      "Ġde": 748,
      "Ġknow": 749,
      "Ġif": 750,
      "ither": 751,
      "Ġdid": 752,
      "Ġpass": 753,
      "Ġsons": 754,
      "ĠBe": 755,
      "ist": 756,
      "ĠHe": 757,
      "ide": 758,
      "ĠJes": 759,
      "ak": 760,
      "way": 761,
      "ĠLord": 762,
      "ĠDav": 763,
      "ĠDavid": 764,
      "of": 765,
      "ves": 766,
      "ast": 767,
      "ĠJer": 768,
      "cc": 769,
      "ount": 770,
      "ale": 771,
      "pp": 772,
      "Ġpri": 773,
      "Ġearth": 774,
      "ol": 775,
      "orn": 776,
      "Ġbecause": 777,
      "Ġthese": 778,
      "um": 779,
      "ered": 780,
      "rought": 781,
      "ĠJesus": 782,
      "Ġservant": 783,
      "ath": 784,
      "ind": 785,
      "Ġname": 786,
      "Ġheart": 787,
      "Ġsee": 788,
      "self": 789,
      "Ġla": 790,
      "qu": 791,
      "Ġga": 792,
      "Ġsou": 793,
      "Ġco": 794,
      "Ġthen": 795,
      "Ġpriest": 796,
      "Ġput": 797,
      "Ġacc": 798,
      "itt": 799,
      "ites": 800,
      "Ġgive": 801,
      "Ġyear": 802,
      "ĠJud": 803,
      "led": 804,
      "Ġsw": 805,
      "Ġany": 806,
      "Ġthine": 807,
      "Ġsin": 808,
      "Ġdea": 809,
      "Ġright": 810,
      "Ġcommand": 811,
      "Ġaway": 812,
      "Ġthereof": 813,
      "Ġamong": 814,
      "Ġnor": 815,
      "Ġshould": 816,
      "Ġforth": 817,
      "rin": 818,
      "Ġsto": 819,
      "ĠJe": 820,
      "ry": 821,
      "ward": 822,
      "ig": 823,
      "Ġway": 824,
      "Ġbrought": 825,
      "nder": 826,
      "Ġdays": 827,
      "Ġcity": 828,
      "igh": 829,
      "Ġcall": 830,
      "ose": 831,
      "Ġbo": 832,
      "ree": 833,
      "oses": 834,
      "Ġpla": 835,
      "ire": 836,
      "ul": 837,
      "ĠZ": 838,
      "Ġgood": 839,
      "ĠMoses": 840,
      "Ġeat": 841,
      "ime": 842,
      "Ġwhere": 843,
      "ĠR": 844,
      "ĠAb": 845,
      "Ġwat": 846,
      "Ġtwo": 847,
      "alem": 848,
      "ĠJerus": 849,
      "ĠJudah": 850,
      "all": 851,
      "Ġbu": 852,
      "ĠJerusalem": 853,
      "Ġmu": 854,
      "ic": 855,
      "Ġmight": 856,
      "Ġcha": 857,
      "ound": 858,
      "Ġtherefore": 859,
      "Ġpra": 860,
      "ording": 861,
      "dom": 862,
      "Ġtake": 863,
      "Ġbring": 864,
      "ted": 865,
      "Ġwhat": 866,
      "other": 867,
      "ate": 868,
      "Ġneither": 869,
      "vil": 870,
      "aught": 871,
      "are": 872,
      "Ġaccording": 873,
      "und": 874,
      "gy": 875,
      "Ġbehold": 876,
      "Ġtook": 877,
      "lea": 878,
      "Ġwhom": 879,
      "ran": 880,
      "Ġjud": 881,
      "Ġlike": 882,
      "ite": 883,
      "ĠEgy": 884,
      "ĠEgypt": 885,
      "east": 886,
      "Ġwork": 887,
      "wn": 888,
      "Ġheaven": 889,
      "Ġbl": 890,
      "Ġset": 891,
      "Ġdw": 892,
      "Ġoffering": 893,
      "ied": 894,
      "ĠAs": 895,
      "Ġlif": 896,
      "oice": 897,
      "Ġdel": 898,
      "Ġplace": 899,
      "Ġmore": 900,
      "iver": 901,
      "ub": 902,
      "Ġfo": 903,
      "ef": 904,
      "Ġnow": 905,
      "ng": 906,
      "Ġen": 907,
      "Ġbro": 908,
      "Ġsent": 909,
      "Ġgl": 910,
      "erefore": 911,
      "sw": 912,
      "Ġburn": 913,
      "Ġper": 914,
      "ations": 915,
      "ĠCh": 916,
      "Ġansw": 917,
      "irst": 918,
      "Ġunder": 919,
      "ure": 920,
      "eak": 921,
      "ome": 922,
      "ern": 923,
      "rib": 924,
      "rough": 925,
      "Ġheard": 926,
      "Ġproph": 927,
      "fe": 928,
      "selves": 929,
      "Ġra": 930,
      "Ġrem": 931,
      "Ġtru": 932,
      "Ġro": 933,
      "Ġdes": 934,
      "ip": 935,
      "ĠThou": 936,
      "ĠSh": 937,
      "ob": 938,
      "Ġey": 939,
      "ign": 940,
      "ĠNow": 941,
      "Ġhund": 942,
      "Ġabout": 943,
      "Ġcalled": 944,
      "Ġhundred": 945,
      "ty": 946,
      "Ġke": 947,
      "ĠSo": 948,
      "Ġthrough": 949,
      "Ġmine": 950,
      "ance": 951,
      "Ġtime": 952,
      "Ġsm": 953,
      "Ġthan": 954,
      "Ġpre": 955,
      "Ġevil": 956,
      "Ġown": 957,
      "ne": 958,
      "ence": 959,
      "Ġwom": 960,
      "Ġbeg": 961,
      "Ġdeliver": 962,
      "Ġdis": 963,
      "eb": 964,
      "Ġfirst": 965,
      "eous": 966,
      "ach": 967,
      "Ġlaw": 968,
      "Ġex": 969,
      "aul": 970,
      "ĠBehold": 971,
      "ces": 972,
      "Ġang": 973,
      "Ġturn": 974,
      "ken": 975,
      "rist": 976,
      "Ġspake": 977,
      "sand": 978,
      "ĠAm": 979,
      "irit": 980,
      "Ġthousand": 981,
      "Ġmount": 982,
      "cked": 983,
      "ried": 984,
      "Ġdaught": 985,
      "Ġseven": 986,
      "ĠChrist": 987,
      "ber": 988,
      "eas": 989,
      "Ġsaw": 990,
      "Ġdone": 991,
      "thren": 992,
      "Ġyet": 993,
      "Ġjudg": 994,
      "Ġgi": 995,
      "li": 996,
      "Ġdest": 997,
      "Ġr": 998,
      "Ġfire": 999,
      "ities": 1000,
      "Ġbrethren": 1001,
      "art": 1002,
      "ue": 1003,
      "Ġrighteous": 1004,
      "Ġfathers": 1005,
      "Ġwords": 1006,
      "Ġthing": 1007,
      "Ġother": 1008,
      "Ġyears": 1009,
      "Ġcast": 1010,
      "ĠY": 1011,
      "Ġmany": 1012,
      "oe": 1013,
      "Ġglor": 1014,
      "ag": 1015,
      "lood": 1016,
      "Ġpray": 1017,
      "Ġhimself": 1018,
      "ĠK": 1019,
      "Ġspeak": 1020,
      "round": 1021,
      "gether": 1022,
      "Ġfour": 1023,
      "Ġeyes": 1024,
      "Ġvoice": 1025,
      "Ġsc": 1026,
      "un": 1027,
      "Ġdwell": 1028,
      "Ġfound": 1029,
      "Ġtab": 1030,
      "Ġgiven": 1031,
      "Ġend": 1032,
      "Ġanswered": 1033,
      "Ġhost": 1034,
      "Ġwicked": 1035,
      "ments": 1036,
      "een": 1037,
      "ving": 1038,
      "Ġgold": 1039,
      "Ġcapt": 1040,
      "Ġprophet": 1041,
      "me": 1042,
      "ĠIf": 1043,
      "Ġtogether": 1044,
      "Ġwould": 1045,
      "ham": 1046,
      "lean": 1047,
      "Ġhead": 1048,
      "Ġthree": 1049,
      "Ġservants": 1050,
      "Ġsea": 1051,
      "erc": 1052,
      "Ġholy": 1053,
      "her": 1054,
      "ble": 1055,
      "Ġfe": 1056,
      "ield": 1057,
      "oh": 1058,
      "Ġsl": 1059,
      "Ġblood": 1060,
      "roy": 1061,
      "Ġgave": 1062,
      "Ġhands": 1063,
      "Ġapp": 1064,
      "ead": 1065,
      "Ġret": 1066,
      "alk": 1067,
      "Ġsoul": 1068,
      "Ġal": 1069,
      "Ġdestroy": 1070,
      "rink": 1071,
      "Ġhigh": 1072,
      "Ġanother": 1073,
      "Ġart": 1074,
      "Ġlife": 1075,
      "Ġcities": 1076,
      "Ġbread": 1077,
      "ress": 1078,
      "ĠThus": 1079,
      "Ġcommanded": 1080,
      "Ġthose": 1081,
      "Ġsword": 1082,
      "Ġcan": 1083,
      "Ġwr": 1084,
      "Ġmou": 1085,
      "Ġgather": 1086,
      "Ġkeep": 1087,
      "hab": 1088,
      "Ġtre": 1089,
      "Ġside": 1090,
      "Ġmouth": 1091,
      "Ġalt": 1092,
      "Ġreturn": 1093,
      "lesh": 1094,
      "ĠTherefore": 1095,
      "Ġaltar": 1096,
      "ev": 1097,
      "Ġflesh": 1098,
      "ĠLet": 1099,
      "eace": 1100,
      "aken": 1101,
      "tain": 1102,
      "Ġfam": 1103,
      "ust": 1104,
      "row": 1105,
      "oin": 1106,
      "Ġmerc": 1107,
      "Ġtrib": 1108,
      "Ġwithout": 1109,
      "ĠSaul": 1110,
      "ull": 1111,
      "Ġru": 1112,
      "Ġhow": 1113,
      "Ġface": 1114,
      "Ġbet": 1115,
      "att": 1116,
      "Ġshew": 1117,
      "Ġmid": 1118,
      "Ġspirit": 1119,
      "Ġsi": 1120,
      "Ġthemselves": 1121,
      "Ġgra": 1122,
      "Ġbrother": 1123,
      "ful": 1124,
      "Ġwife": 1125,
      "Ġrep": 1126,
      "ĠThey": 1127,
      "Ġmo": 1128,
      "Ġwater": 1129,
      "gth": 1130,
      "Ġprin": 1131,
      "Ġpeace": 1132,
      "ĠPha": 1133,
      "rif": 1134,
      "oever": 1135,
      "Ġglory": 1136,
      "Ġkingdom": 1137,
      "Ġpriests": 1138,
      "Ġpo": 1139,
      "Ġthir": 1140,
      "iv": 1141,
      "ily": 1142,
      "Ġdep": 1143,
      "ĠWho": 1144,
      "oth": 1145,
      "Ġdrink": 1146,
      "ai": 1147,
      "ek": 1148,
      "Ġold": 1149,
      "Ġenem": 1150,
      "Ġent": 1151,
      "ĠJac": 1152,
      "ĠPh": 1153,
      "Ġrece": 1154,
      "ĠJacob": 1155,
      "Ġfall": 1156,
      "Ġbless": 1157,
      "til": 1158,
      "pen": 1159,
      "Ġpr": 1160,
      "Ġlove": 1161,
      "Ġdeath": 1162,
      "over": 1163,
      "Ġdisc": 1164,
      "reg": 1165,
      "Ġdead": 1166,
      "Ġcong": 1167,
      "Ġbel": 1168,
      "Ġcons": 1169,
      "Ġsil": 1170,
      "enty": 1171,
      "Ġwalk": 1172,
      "Ġfear": 1173,
      "ort": 1174,
      "Ġcongreg": 1175,
      "ĠLev": 1176,
      "Ġburnt": 1177,
      "ised": 1178,
      "Ġunc": 1179,
      "Ġstand": 1180,
      "Ġmidst": 1181,
      "Ġcongregation": 1182,
      "els": 1183,
      "Ġmult": 1184,
      "Ġcount": 1185,
      "ains": 1186,
      "Ġcause": 1187,
      "Ġreign": 1188,
      "ernac": 1189,
      "Ġwoman": 1190,
      "Ġfaith": 1191,
      "Ġtabernac": 1192,
      "ĠIn": 1193,
      "ses": 1194,
      "Ġcar": 1195,
      "aron": 1196,
      "ĠAaron": 1197,
      "Ġlight": 1198,
      "Ġboth": 1199,
      "Ġlef": 1200,
      "ĠWhat": 1201,
      "ner": 1202,
      "Ġfield": 1203,
      "ĠWhen": 1204,
      "Ġleft": 1205,
      "hu": 1206,
      "oab": 1207,
      "Ġwild": 1208,
      "Ġuntil": 1209,
      "Ġyoung": 1210,
      "Ġba": 1211,
      "Ġtoward": 1212,
      "Ġnone": 1213,
      "Ġsle": 1214,
      "Ġlive": 1215,
      "itten": 1216,
      "ia": 1217,
      "Ġfive": 1218,
      "Ġstood": 1219,
      "ond": 1220,
      "Ġten": 1221,
      "Ġtaken": 1222,
      "Ġinc": 1223,
      "Ġsac": 1224,
      "ĠPhil": 1225,
      "Ġbeast": 1226,
      "Ġpart": 1227,
      "Ġnations": 1228,
      "Ġsacrif": 1229,
      "iqu": 1230,
      "Ġsight": 1231,
      "ret": 1232,
      "Ġgod": 1233,
      "ĠThat": 1234,
      "Ġiniqu": 1235,
      "Ġcomp": 1236,
      "Ġver": 1237,
      "Ġcut": 1238,
      "Ġsame": 1239,
      "az": 1240,
      "ff": 1241,
      "Ġfell": 1242,
      "Ġpres": 1243,
      "Ġbeen": 1244,
      "ction": 1245,
      "Ġ<": 1246,
      "ister": 1247,
      "Ġkings": 1248,
      "BO": 1249,
      "ĠThis": 1250,
      "Ġcont": 1251,
      "OK": 1252,
      "lon": 1253,
      "Ġmother": 1254,
      "ower": 1255,
      "Ġtabernacle": 1256,
      "BOOK": 1257,
      "attle": 1258,
      "bs": 1259,
      "Ġrest": 1260,
      "Ġdaughter": 1261,
      "Ġnight": 1262,
      "rength": 1263,
      "illed": 1264,
      "ian": 1265,
      "ĠSam": 1266,
      "Ġim": 1267,
      "Ġdie": 1268,
      "end": 1269,
      "Ġround": 1270,
      "llow": 1271,
      "Ġtem": 1272,
      "Ġsilver": 1273,
      "Ġstrength": 1274,
      "ished": 1275,
      "Ġbelie": 1276,
      "Ġwar": 1277,
      "Ġhar": 1278,
      "oss": 1279,
      "Ġlook": 1280,
      "uch": 1281,
      "Ġmon": 1282,
      "stand": 1283,
      "ild": 1284,
      "Ġnum": 1285,
      "ĠAbra": 1286,
      "AR": 1287,
      "Ġinher": 1288,
      "Ġmonth": 1289,
      "its": 1290,
      "Ġinherit": 1291,
      "Ġbes": 1292,
      "loth": 1293,
      "ple": 1294,
      "keth": 1295,
      "Ġrighteousness": 1296,
      "erness": 1297,
      "han": 1298,
      "omon": 1299,
      "ĠSol": 1300,
      "Ġwilderness": 1301,
      "ĠSolomon": 1302,
      "ts": 1303,
      "OD": 1304,
      "be": 1305,
      "Ġwa": 1306,
      "ather": 1307,
      "ĠBab": 1308,
      "venant": 1309,
      "Ġcovenant": 1310,
      "ĠGOD": 1311,
      "Ġhosts": 1312,
      "ylon": 1313,
      "ĠBabylon": 1314,
      "Ġmeat": 1315,
      "Ġarm": 1316,
      "Ġopen": 1317,
      "ines": 1318,
      "Ġqu": 1319,
      "ark": 1320,
      "ove": 1321,
      "Ġchief": 1322,
      "yri": 1323,
      "atter": 1324,
      "Ġcl": 1325,
      "Ġrej": 1326,
      "Ġdelivered": 1327,
      "Ġjudgment": 1328,
      "mb": 1329,
      "Ġtwenty": 1330,
      "Ġworld": 1331,
      "ws": 1332,
      "Ġlord": 1333,
      "Ġconc": 1334,
      "ĠPhilist": 1335,
      "Ġthus": 1336,
      "Ġstran": 1337,
      "Ġspok": 1338,
      "Ġwaters": 1339,
      "Ġsan": 1340,
      "Ġfl": 1341,
      "ĠJos": 1342,
      "Ġturned": 1343,
      "Ġspoken": 1344,
      "Ġseed": 1345,
      "Ġstr": 1346,
      "ĠSon": 1347,
      "Ġfru": 1348,
      "Ġwhose": 1349,
      "age": 1350,
      "Ġinhab": 1351,
      "Ġposs": 1352,
      "Ġmuch": 1353,
      "Ġmighty": 1354,
      "Ġinhabit": 1355,
      "den": 1356,
      "ived": 1357,
      "ĠU": 1358,
      "ĠYe": 1359,
      "Ġtold": 1360,
      "itud": 1361,
      "Ġcometh": 1362,
      "Ġlaid": 1363,
      "ĠPhara": 1364,
      "Ġbeing": 1365,
      "Ġbuild": 1366,
      "Ġsix": 1367,
      "ĠPharaoh": 1368,
      "Ġsec": 1369,
      "Ġiniquity": 1370,
      "Ġfull": 1371,
      "Ġseen": 1372,
      "ĠRe": 1373,
      "Ġwritten": 1374,
      "Ġstrong": 1375,
      "Ġpower": 1376,
      "Ġgate": 1377,
      "Ġdiscip": 1378,
      "Ġbow": 1379,
      "ĠFather": 1380,
      "Ġsanct": 1381,
      "Ġwell": 1382,
      "Ġmercy": 1383,
      "ST": 1384,
      "ions": 1385,
      "ew": 1386,
      "sp": 1387,
      "Ġad": 1388,
      "Ġlam": 1389,
      "Ġfif": 1390,
      "Ġprinces": 1391,
      "Ġenemies": 1392,
      "cks": 1393,
      "Ġcover": 1394,
      "Ġpossess": 1395,
      "Ġgathered": 1396,
      "ned": 1397,
      "ning": 1398,
      "elt": 1399,
      "Ġmultitud": 1400,
      "Ġlea": 1401,
      "ants": 1402,
      "Ġofferings": 1403,
      "ĠLevites": 1404,
      "Ġlay": 1405,
      "ART": 1406,
      "ĠBen": 1407,
      "ĠBeth": 1408,
      "Ġdoor": 1409,
      "START": 1410,
      "ps": 1411,
      "Ġbear": 1412,
      "Ġlong": 1413,
      "ars": 1414,
      "ĠWherefore": 1415,
      "Ġsat": 1416,
      "Ġunderstand": 1417,
      "soever": 1418,
      "ches": 1419,
      "ĠGo": 1420,
      "Ġsub": 1421,
      "Ġcub": 1422,
      "aces": 1423,
      "Ġvery": 1424,
      "Ġwall": 1425,
      "Ġpur": 1426,
      "Ġfeet": 1427,
      "Ġwhe": 1428,
      "ched": 1429,
      "ified": 1430,
      "Ġriver": 1431,
      "ĠSp": 1432,
      "Ġseek": 1433,
      "ĠPhilistines": 1434,
      "ap": 1435,
      "Ġwine": 1436,
      "ĠEli": 1437,
      "Ġdaughters": 1438,
      "ĠIt": 1439,
      "Ġgen": 1440,
      "ĠJews": 1441,
      "ĠJose": 1442,
      "ĠEl": 1443,
      "Ġsure": 1444,
      "ĠJeho": 1445,
      "Ġwhole": 1446,
      "Ġfollow": 1447,
      "ĠAbraham": 1448,
      "ĠJoseph": 1449,
      "ged": 1450,
      "Ġbetw": 1451,
      "Ġcho": 1452,
      "ittle": 1453,
      "hua": 1454,
      "Ġsome": 1455,
      "Ġwise": 1456,
      "ertain": 1457,
      "less": 1458,
      "Ġwis": 1459,
      "ary": 1460,
      "Ġsend": 1461,
      "Ġsuch": 1462,
      "Ġdisciples": 1463,
      "sed": 1464,
      "oud": 1465,
      "ron": 1466,
      "zar": 1467,
      "ote": 1468,
      "erning": 1469,
      "Ġfruit": 1470,
      "Ġmultitude": 1471,
      "omin": 1472,
      "Ġgods": 1473,
      "Ġforg": 1474,
      "Ġtribe": 1475,
      "ĠEph": 1476,
      "shi": 1477,
      "ĠAr": 1478,
      "Ġprophets": 1479,
      "Ġinheritance": 1480,
      "ile": 1481,
      "Ġlittle": 1482,
      "Ġkind": 1483,
      "Ġworks": 1484,
      "ĠMy": 1485,
      "Ġcam": 1486,
      "ets": 1487,
      "Ġtruth": 1488,
      "thing": 1489,
      "Ġcur": 1490,
      "Ġyea": 1491,
      "Ġanger": 1492,
      "Ġunclean": 1493,
      "Ġhor": 1494,
      "ins": 1495,
      "Ġcloth": 1496,
      "orrow": 1497,
      "orning": 1498,
      "Ġbetween": 1499,
      "Ġcertain": 1500,
      "Ġtherein": 1501,
      "ara": 1502,
      "bb": 1503,
      "arted": 1504,
      "iled": 1505,
      "ĠHow": 1506,
      "Ġark": 1507,
      "Ġexce": 1508,
      "ese": 1509,
      "each": 1510,
      "Ġsmote": 1511,
      "Ġgener": 1512,
      "Ġspo": 1513,
      "Ġmorning": 1514,
      "Ġhold": 1515,
      "ointed": 1516,
      "Ġdre": 1517,
      "ĠThese": 1518,
      "Ġdwelt": 1519,
      "Ġconcerning": 1520,
      "ĠNe": 1521,
      "Ġconf": 1522,
      "Ġbegat": 1523,
      "ious": 1524,
      "Ġch": 1525,
      "Ġsave": 1526,
      "Ġnothing": 1527,
      "Ġdec": 1528,
      "Ġwisdom": 1529,
      "Ġwit": 1530,
      "Ġclean": 1531,
      "for": 1532,
      "Ġ(": 1533,
      "Ġgar": 1534,
      "Ġask": 1535,
      "Ġknown": 1536,
      "Ġdev": 1537,
      "Ġsacrifice": 1538,
      "ec": 1539,
      "rath": 1540,
      "Ġonly": 1541,
      "Ġabove": 1542,
      "Ġwo": 1543,
      "ons": 1544,
      "Ġchar": 1545,
      "ger": 1546,
      "Ġpit": 1547,
      "ĠSha": 1548,
      "mon": 1549,
      "oy": 1550,
      "Ġcoun": 1551,
      "Ġut": 1552,
      "Ġremem": 1553,
      "aiah": 1554,
      "esc": 1555,
      "Ġserve": 1556,
      "Ġdeparted": 1557,
      "ĠJoshua": 1558,
      "iel": 1559,
      "Ġwilt": 1560,
      "Ġthyself": 1561,
      "ilt": 1562,
      "ify": 1563,
      "Ġplaces": 1564,
      "ĠEs": 1565,
      "Ġflo": 1566,
      "ates": 1567,
      "esh": 1568,
      "Ġnear": 1569,
      "Ġgone": 1570,
      "Ġeld": 1571,
      "ĠMan": 1572,
      "Ġcubits": 1573,
      "Ġbod": 1574,
      "ean": 1575,
      "ash": 1576,
      "ĠThere": 1577,
      "ots": 1578,
      "aid": 1579,
      "ick": 1580,
      "Ġmin": 1581,
      "rans": 1582,
      "Ġcry": 1583,
      "Ġlest": 1584,
      "oney": 1585,
      "Ġtwel": 1586,
      "Ġhearken": 1587,
      "cause": 1588,
      "ib": 1589,
      "Ġdark": 1590,
      "Ġaff": 1591,
      "Ġways": 1592,
      "Ġreceive": 1593,
      "uel": 1594,
      "right": 1595,
      "Ġpoor": 1596,
      "ĠWe": 1597,
      "ee": 1598,
      "ute": 1599,
      "Ġdesol": 1600,
      "Ġtemple": 1601,
      "Ġcour": 1602,
      "ĠCan": 1603,
      "ĠBecause": 1604,
      "Ġdiv": 1605,
      "Ġsal": 1606,
      "Ġtrou": 1607,
      "Ġinhabitants": 1608,
      "nes": 1609,
      "Ġoil": 1610,
      "Ġbord": 1611,
      "ĠAll": 1612,
      "imon": 1613,
      "Ġtree": 1614,
      "Ġjoy": 1615,
      "Ġthr": 1616,
      "Ġwrath": 1617,
      "Ġdied": 1618,
      "Ġves": 1619,
      "Ġsheep": 1620,
      "Ġcried": 1621,
      "Ġtell": 1622,
      "Ġpraise": 1623,
      "Ġangel": 1624,
      "eter": 1625,
      "Ġworshi": 1626,
      "raid": 1627,
      "ĠJord": 1628,
      "ĠMoab": 1629,
      "aster": 1630,
      "Ġslew": 1631,
      "Ġutter": 1632,
      "ĠJordan": 1633,
      "with": 1634,
      "Ġeast": 1635,
      "Ġwind": 1636,
      "Ġmanner": 1637,
      "Ġbook": 1638,
      "Ġsurely": 1639,
      "aan": 1640,
      "Ġfind": 1641,
      "Ġground": 1642,
      "Ġres": 1643,
      "athan": 1644,
      "ared": 1645,
      "Ġhon": 1646,
      "reth": 1647,
      "Ġpleas": 1648,
      "Ġcontin": 1649,
      "yria": 1650,
      "iz": 1651,
      "read": 1652,
      "Ġafraid": 1653,
      "Ġfamil": 1654,
      "Ġest": 1655,
      "Ġbare": 1656,
      "raim": 1657,
      "Ġstone": 1658,
      "Ġtrans": 1659,
      "Ġvis": 1660,
      "Ġyourselves": 1661,
      "ledge": 1662,
      "Ġenter": 1663,
      "gers": 1664,
      "asse": 1665,
      "Ġbroken": 1666,
      "ekiah": 1667,
      "jam": 1668,
      "Ġborn": 1669,
      "ought": 1670,
      "Ġtest": 1671,
      "Ġvine": 1672,
      "Ġprep": 1673,
      "Ġwitness": 1674,
      "oured": 1675,
      "Ġcorn": 1676,
      "ĠTo": 1677,
      "ians": 1678,
      "bered": 1679,
      "not": 1680,
      "Ġrejoice": 1681,
      "Ġwhile": 1682,
      "ages": 1683,
      "Ġtwelve": 1684,
      "Ġstat": 1685,
      "Ġdoth": 1686,
      "Ġjust": 1687,
      "Ġsuff": 1688,
      "Ġblessed": 1689,
      "Ġred": 1690,
      "Ġremain": 1691,
      "Ġtrust": 1692,
      "Ġcannot": 1693,
      "Ġreturned": 1694,
      "Ġbelieve": 1695,
      "Ġwithin": 1696,
      "Ġread": 1697,
      "Ġprov": 1698,
      "Ġslain": 1699,
      "Ġthird": 1700,
      "ĠEphraim": 1701,
      "Ġhel": 1702,
      "Ġtim": 1703,
      "Ġwomen": 1704,
      "ĠBenjam": 1705,
      "Ġcountry": 1706,
      "ĠOf": 1707,
      "Ġjudge": 1708,
      "Ġnumber": 1709,
      "ail": 1710,
      "Ġfar": 1711,
      "eal": 1712,
      "ĠBa": 1713,
      "Ġknew": 1714,
      "Ġstones": 1715,
      "Ġbegan": 1716,
      "Ġelders": 1717,
      "Ġaffli": 1718,
      "Ġtransg": 1719,
      "men": 1720,
      "Ġthough": 1721,
      "band": 1722,
      "Ġmar": 1723,
      "Ġreb": 1724,
      "Ġcommandment": 1725,
      "Ġchari": 1726,
      "Ġmountains": 1727,
      "Ġhus": 1728,
      "ents": 1729,
      "Ġreigned": 1730,
      "Ġback": 1731,
      "Ġthrone": 1732,
      "ired": 1733,
      "med": 1734,
      "Ġnam": 1735,
      "ely": 1736,
      "ĠWhi": 1737,
      "Ġabomin": 1738,
      "Ġsun": 1739,
      "Ġdef": 1740,
      "Ġkept": 1741,
      "Ġbody": 1742,
      "Ġtransgress": 1743,
      "Ġhid": 1744,
      "haz": 1745,
      "Ġrepro": 1746,
      "Ġfamilies": 1747,
      "ase": 1748,
      "ey": 1749,
      "Ġaro": 1750,
      "Ġhaving": 1751,
      "Ġsins": 1752,
      "Ġhusband": 1753,
      "Ġarose": 1754,
      "jah": 1755,
      "oam": 1756,
      "Ġbattle": 1757,
      "Ġthirty": 1758,
      "ĠSpirit": 1759,
      "Ġdra": 1760,
      "Ġtong": 1761,
      "Ġsabb": 1762,
      "Ġknowledge": 1763,
      "Ġcommandments": 1764,
      "Ġminister": 1765,
      "Ġsabbath": 1766,
      "ost": 1767,
      "Ġsing": 1768,
      "Ġcould": 1769,
      "Ġinst": 1770,
      "sels": 1771,
      "Ġram": 1772,
      "Ġsecond": 1773,
      "dow": 1774,
      "Ġbuilt": 1775,
      "Ġrul": 1776,
      "Ġtill": 1777,
      "Ġteach": 1778,
      "ird": 1779,
      "ĠGil": 1780,
      "ĠHo": 1781,
      "Ġhelp": 1782,
      "aac": 1783,
      "Ġvall": 1784,
      "Ġdestroyed": 1785,
      "Ġvalley": 1786,
      "eem": 1787,
      "Ġox": 1788,
      "ison": 1789,
      "Ġsouth": 1790,
      "ĠBenjamin": 1791,
      "vation": 1792,
      "Ġmeas": 1793,
      "Ġfors": 1794,
      "Ġsep": 1795,
      "Ġord": 1796,
      "Ġhere": 1797,
      "Ġpie": 1798,
      "erem": 1799,
      "Ġbull": 1800,
      "Ġconsum": 1801,
      "Ġfeast": 1802,
      "ease": 1803,
      "ĠPaul": 1804,
      "ĠAss": 1805,
      "ĠCanaan": 1806,
      "gue": 1807,
      "ures": 1808,
      "Ġrec": 1809,
      "ĠPeter": 1810,
      "Ġpassed": 1811,
      "Ġthroughout": 1812,
      "Ġdarkness": 1813,
      "Ġbur": 1814,
      "Ġfat": 1815,
      "Ġfilled": 1816,
      "ĠDan": 1817,
      "Ġcloud": 1818,
      "Ġtouch": 1819,
      "ereth": 1820,
      "Ġable": 1821,
      "Ġneigh": 1822,
      "Ġanswer": 1823,
      "Ġreceived": 1824,
      "then": 1825,
      "Ġwast": 1826,
      "ton": 1827,
      "ĠTake": 1828,
      "Ġunderstanding": 1829,
      "Ġlifted": 1830,
      "Ġwait": 1831,
      "Ġsalvation": 1832,
      "Ġborder": 1833,
      "bour": 1834,
      "Ġsk": 1835,
      "Ġsign": 1836,
      "ated": 1837,
      "cept": 1838,
      "Ġbreak": 1839,
      "Ġtrees": 1840,
      "Ġcontinu": 1841,
      "Ġneighbour": 1842,
      "ĠJerem": 1843,
      "Ġnorth": 1844,
      "Ġwherein": 1845,
      "Ġfool": 1846,
      "oke": 1847,
      "Ġlie": 1848,
      "Ġwhos": 1849,
      "Ġkill": 1850,
      "Ġref": 1851,
      "Ġnew": 1852,
      "Ġbeasts": 1853,
      "Ġfifty": 1854,
      "Ġwhether": 1855,
      "ĠHez": 1856,
      "Ġvessels": 1857,
      "iness": 1858,
      "Ġcattle": 1859,
      "ĠAd": 1860,
      "Ġforty": 1861,
      "irc": 1862,
      "ĠZion": 1863,
      "ols": 1864,
      "ĠThy": 1865,
      "ĠNeb": 1866,
      "Ġincre": 1867,
      "Ġbullo": 1868,
      "had": 1869,
      "Ġears": 1870,
      "lf": 1871,
      "vers": 1872,
      "Ġheathen": 1873,
      "ices": 1874,
      "used": 1875,
      "ĠMore": 1876,
      "Ġthence": 1877,
      "Ġfled": 1878,
      "Ġdece": 1879,
      "Ġpreach": 1880,
      "Ġdecl": 1881,
      "ircum": 1882,
      "ense": 1883,
      "ĠAn": 1884,
      "Ġpers": 1885,
      "ĠJon": 1886,
      "Ġliving": 1887,
      "ĠManasse": 1888,
      "Ġdesolate": 1889,
      "ĠJeremiah": 1890,
      "ĠManasseh": 1891,
      "aph": 1892,
      "ks": 1893,
      "Ġfast": 1894,
      "fect": 1895,
      "ĠShe": 1896,
      "Ġgrace": 1897,
      "Ġtimes": 1898,
      "ircumc": 1899,
      "teen": 1900,
      "eared": 1901,
      "Ġsake": 1902,
      "ĠJoab": 1903,
      "Ġcarried": 1904,
      "Ġspoil": 1905,
      "Ġid": 1906,
      "Ġnation": 1907,
      "Ġgates": 1908,
      "Ġwash": 1909,
      "Ġstri": 1910,
      "pped": 1911,
      "Ġglad": 1912,
      "ĠHoly": 1913,
      "ĠMoreover": 1914,
      "AH": 1915,
      "Ġhop": 1916,
      "Ġpill": 1917,
      "ĠHam": 1918,
      "abl": 1919,
      "Ġoffered": 1920,
      "Ġprophes": 1921,
      "Ġlooked": 1922,
      "Ġhill": 1923,
      "Ġmoney": 1924,
      "ĠHear": 1925,
      "ĠWhy": 1926,
      "ĠSamuel": 1927,
      "lse": 1928,
      "Ġgr": 1929,
      "Ġgu": 1930,
      "Ġslay": 1931,
      "Ġsanctu": 1932,
      "Ġwood": 1933,
      "Ġcounsel": 1934,
      "ult": 1935,
      "Ġwhy": 1936,
      "Ġlab": 1937,
      "Ġthought": 1938,
      "Ġmeet": 1939,
      "iles": 1940,
      "Ġshek": 1941,
      "Ġmust": 1942,
      "Ġcaptain": 1943,
      "Ġcompan": 1944,
      "Ġcamp": 1945,
      "ĠBless": 1946,
      "ims": 1947,
      "ray": 1948,
      "Ġbegin": 1949,
      "Ġshewed": 1950,
      "Ġopened": 1951,
      "alt": 1952,
      "Ġmind": 1953,
      "Ġhalf": 1954,
      "Ġmountain": 1955,
      "Ġsanctuary": 1956,
      "ling": 1957,
      "mp": 1958,
      "Ġsister": 1959,
      "Ġmour": 1960,
      "Ġgoeth": 1961,
      "Ġhouses": 1962,
      "Ġprof": 1963,
      "Ġbecome": 1964,
      "Ġwhatsoever": 1965,
      "ivity": 1966,
      "ats": 1967,
      "Ġgri": 1968,
      "Ġwhither": 1969,
      "Ġdesp": 1970,
      "ĠSamar": 1971,
      "ave": 1972,
      "vour": 1973,
      "ĠJoh": 1974,
      "entiles": 1975,
      "Ġstra": 1976,
      "Ġheavens": 1977,
      "Ġhonour": 1978,
      "ĠJohn": 1979,
      "ieth": 1980,
      "utes": 1981,
      "ĠIsaac": 1982,
      "Ġservice": 1983,
      "Ġmost": 1984,
      "Ġstatutes": 1985,
      "Ġwhosoever": 1986,
      "wise": 1987,
      "Ġful": 1988,
      "Ġwives": 1989,
      "Ġrose": 1990,
      "Ġstranger": 1991,
      "Ġredeem": 1992,
      "ined": 1993,
      "ruction": 1994,
      "Ġneed": 1995,
      "Ġswe": 1996,
      "Ġperish": 1997,
      "Ġdepart": 1998,
      "Ġprom": 1999,
      "Ġcompass": 2000,
      "Ġpresent": 2001,
      "Ġmaster": 2002,
      "ened": 2003,
      "Ġpal": 2004,
      "ĠJo": 2005,
      "ĠGentiles": 2006,
      "Ġspread": 2007,
      "Ġdesire": 2008,
      "Ġincense": 2009,
      "Ġtongue": 2010,
      "Ġhope": 2011,
      "su": 2012,
      "Ġopp": 2013,
      "Ġbea": 2014,
      "Ġnumbered": 2015,
      "ĠWhich": 2016,
      "ĠHezekiah": 2017,
      "oc": 2018,
      "Ġap": 2019,
      "ĠHeb": 2020,
      "ĠAmmon": 2021,
      "Ġcaptivity": 2022,
      "ĠBaal": 2023,
      "ace": 2024,
      "sen": 2025,
      "ang": 2026,
      "lem": 2027,
      "Ġbrass": 2028,
      "Ġmaketh": 2029,
      "Ġgiveth": 2030,
      "ney": 2031,
      "Ġjudgments": 2032,
      "Ġrise": 2033,
      "Ġappointed": 2034,
      "Ġtreas": 2035,
      "oint": 2036,
      "sha": 2037,
      "ten": 2038,
      "Ġstre": 2039,
      "Ġsought": 2040,
      "Ġwickedness": 2041,
      "Ġsick": 2042,
      "Ġcourt": 2043,
      "born": 2044,
      "mer": 2045,
      "sal": 2046,
      "up": 2047,
      "Ġbond": 2048,
      "ĠSamaria": 2049,
      "Ġesc": 2050,
      "Ġmess": 2051,
      "hamed": 2052,
      "Ġfamily": 2053,
      "Ġprison": 2054,
      "Ġwalked": 2055,
      "Ġbeside": 2056,
      "Ġchosen": 2057,
      "Ġdream": 2058,
      "Ġescap": 2059,
      "ught": 2060,
      "Ġobe": 2061,
      "Ġashamed": 2062,
      "Ġstret": 2063,
      "ĠOne": 2064,
      "ĠCome": 2065,
      "Ġscrib": 2066,
      "eech": 2067,
      "Ġestabl": 2068,
      "now": 2069,
      "Ġfle": 2070,
      "Ġdidst": 2071,
      "Ġpieces": 2072,
      "ĠJonathan": 2073,
      "yard": 2074,
      "ery": 2075,
      "Ġfore": 2076,
      "isha": 2077,
      "aked": 2078,
      "orns": 2079,
      "Ġseventh": 2080,
      "ĠBlessed": 2081,
      "Ġter": 2082,
      "able": 2083,
      "Ġlips": 2084,
      "cted": 2085,
      "Ġsound": 2086,
      "Ġsinned": 2087,
      "ĠYet": 2088,
      "Ġcaptains": 2089,
      "Ġasked": 2090,
      "lly": 2091,
      "Ġdri": 2092,
      "Ġmyself": 2093,
      "ally": 2094,
      "Ġtrump": 2095,
      "Ġleave": 2096,
      "Ġgenerations": 2097,
      "ĠAssyria": 2098,
      "Ġob": 2099,
      "Ġfur": 2100,
      "Ġport": 2101,
      "sec": 2102,
      "Ġeight": 2103,
      "Ġship": 2104,
      "Ġsold": 2105,
      "ĠWhere": 2106,
      "Ġperfect": 2107,
      "Ġchur": 2108,
      "Ġreproach": 2109,
      "Ġsmite": 2110,
      "Ġrod": 2111,
      "Ġpresence": 2112,
      "Ġbelieved": 2113,
      "Ġtrouble": 2114,
      "teth": 2115,
      "uc": 2116,
      "Ġcor": 2117,
      "hath": 2118,
      "ans": 2119,
      "urbs": 2120,
      "Ġshut": 2121,
      "Ġdevil": 2122,
      "Ġsuburbs": 2123,
      "eans": 2124,
      "Ġlabour": 2125,
      "Ġsweet": 2126,
      "lech": 2127,
      "ows": 2128,
      "Ġcommitt": 2129,
      "Ġmayest": 2130,
      "asting": 2131,
      "Ġeye": 2132,
      "Ġvineyard": 2133,
      "ĠGilead": 2134,
      "Ġind": 2135,
      "Ġsorrow": 2136,
      "Ġass": 2137,
      "Ġvain": 2138,
      "Ġabund": 2139,
      "Ġhearts": 2140,
      "Ġcoast": 2141,
      "Ġfirstborn": 2142,
      "Ġtribes": 2143,
      "Ġchariots": 2144,
      "Ġoppress": 2145,
      "Ġmessen": 2146,
      "Ġobey": 2147,
      "pass": 2148,
      "Ġbound": 2149,
      "Ġfine": 2150,
      "Ġfight": 2151,
      "ors": 2152,
      "hah": 2153,
      "Ġgif": 2154,
      "uted": 2155,
      "eless": 2156,
      "ush": 2157,
      "Ġnever": 2158,
      "Ġsupp": 2159,
      "ication": 2160,
      "cious": 2161,
      "Ġwro": 2162,
      "Ġtres": 2163,
      "aves": 2164,
      "Ġfoot": 2165,
      "Ġrock": 2166,
      "Ġheads": 2167,
      "Ġhorses": 2168,
      "Ġflock": 2169,
      "Ġtestimon": 2170,
      "Ġtrespass": 2171,
      "har": 2172,
      "Ġlin": 2173,
      "ĠBal": 2174,
      "ters": 2175,
      "Ġvi": 2176,
      "Ġscatter": 2177,
      "Ġenemy": 2178,
      "Ġhorse": 2179,
      "Ġflee": 2180,
      "aim": 2181,
      "bled": 2182,
      "eed": 2183,
      "Ġbed": 2184,
      "eding": 2185,
      "host": 2186,
      "ĠNo": 2187,
      "Ġprayer": 2188,
      "Ġfollowed": 2189,
      "rown": 2190,
      "vest": 2191,
      "Ġdust": 2192,
      "Ġasse": 2193,
      "ĠAbsal": 2194,
      "Ġalone": 2195,
      "Ġcurse": 2196,
      "Ġworship": 2197,
      "ĠAbsalom": 2198,
      "oved": 2199,
      "ying": 2200,
      "Ġlion": 2201,
      "riend": 2202,
      "ourney": 2203,
      "phat": 2204,
      "Ġjourney": 2205,
      "Ġbran": 2206,
      "Ġentered": 2207,
      "Ġcovered": 2208,
      "Ġgeneration": 2209,
      "ĠShall": 2210,
      "Ġbullock": 2211,
      "ring": 2212,
      "ason": 2213,
      "pher": 2214,
      "Ġbecame": 2215,
      "oboam": 2216,
      "Ġris": 2217,
      "Ġbetter": 2218,
      "Ġfulf": 2219,
      "Ġsit": 2220,
      "Ġbon": 2221,
      "ĠAl": 2222,
      "Ġreward": 2223,
      "ĠEdom": 2224,
      "Ġvan": 2225,
      "ement": 2226,
      "Ġeaten": 2227,
      "Ġwherewith": 2228,
      "Ġburied": 2229,
      "Ġrain": 2230,
      "Ġbeginning": 2231,
      "ich": 2232,
      "Ġac": 2233,
      "Ġsore": 2234,
      "Ġsaved": 2235,
      "elah": 2236,
      "Ġgosp": 2237,
      "Ġknoweth": 2238,
      "ĠJeroboam": 2239,
      "ĠYea": 2240,
      "Ġrun": 2241,
      "Ġrepent": 2242,
      "Ġpossession": 2243,
      "Ġlinen": 2244,
      "Ġgospel": 2245,
      "pl": 2246,
      "erve": 2247,
      "Ġmatter": 2248,
      "ĠAlso": 2249,
      "Ġbelo": 2250,
      "Ġstill": 2251,
      "eba": 2252,
      "ĠNeither": 2253,
      "Ġgarments": 2254,
      "Ġremember": 2255,
      "Ġsuffer": 2256,
      "Ġbeloved": 2257,
      "fter": 2258,
      "ient": 2259,
      "Ġbra": 2260,
      "Ġmorrow": 2261,
      "Ġnaked": 2262,
      "Ġgird": 2263,
      "ĠSay": 2264,
      "Ġthanks": 2265,
      "ĠPhar": 2266,
      "ĠJehoi": 2267,
      "Ġprepared": 2268,
      "Ġoxen": 2269,
      "ira": 2270,
      "ience": 2271,
      "Ġwrought": 2272,
      "rew": 2273,
      "Ġfriend": 2274,
      "Ġsain": 2275,
      "Ġtra": 2276,
      "Ġimage": 2277,
      "Ġclothes": 2278,
      "Ġcharge": 2279,
      "Ġutterly": 2280,
      "Ġburden": 2281,
      "Ġincrease": 2282,
      "Ġidols": 2283,
      "ink": 2284,
      "Ġnigh": 2285,
      "Ġshame": 2286,
      "Ġcoming": 2287,
      "Ġloved": 2288,
      "Ġappear": 2289,
      "Ġprince": 2290,
      "Ġbapt": 2291,
      "ĠEsau": 2292,
      "Ġready": 2293,
      "Ġportion": 2294,
      "ĠPharise": 2295,
      "aam": 2296,
      "Ġir": 2297,
      "Ġought": 2298,
      "Ġget": 2299,
      "Ġtent": 2300,
      "Ġanointed": 2301,
      "Ġprosp": 2302,
      "Ġwatch": 2303,
      "Ġsmall": 2304,
      "Ġbones": 2305,
      "man": 2306,
      "pe": 2307,
      "Ġthither": 2308,
      "Ġmaid": 2309,
      "Ġupright": 2310,
      "Ġgoats": 2311,
      "Ġfalse": 2312,
      "ief": 2313,
      "Ġseeing": 2314,
      "Ġplague": 2315,
      "ĠZeb": 2316,
      "ĠEgyptians": 2317,
      "Ġlift": 2318,
      "Ġburned": 2319,
      "Ġfaithful": 2320,
      "Ġsleep": 2321,
      "mbers": 2322,
      "Ġsecret": 2323,
      "Ġexceeding": 2324,
      "Ġiron": 2325,
      "lasting": 2326,
      "Ġpure": 2327,
      "ĠEven": 2328,
      "Ġhour": 2329,
      "Ġeverlasting": 2330,
      "ounded": 2331,
      "Ġexalt": 2332,
      "Ġnames": 2333,
      "ael": 2334,
      "theless": 2335,
      "Ġwest": 2336,
      "Ġcher": 2337,
      "Ġtop": 2338,
      "Ġte": 2339,
      "Ġstead": 2340,
      "Ġweep": 2341,
      "Ġdoeth": 2342,
      "Ġriches": 2343,
      "Ġfamine": 2344,
      "Ġmultip": 2345,
      "Ġliveth": 2346,
      "Ġconsumed": 2347,
      "Ġshekels": 2348,
      "Ġsaints": 2349,
      "zer": 2350,
      "ayed": 2351,
      "ĠHer": 2352,
      "ĠOn": 2353,
      "Ġblind": 2354,
      "Ġsepar": 2355,
      "ced": 2356,
      "per": 2357,
      "te": 2358,
      "ung": 2359,
      "ĠV": 2360,
      "Ġseas": 2361,
      "Ġcreat": 2362,
      "ĠAhab": 2363,
      "eah": 2364,
      "ĠGad": 2365,
      "ĠHan": 2366,
      "Ġcaused": 2367,
      "Ġangels": 2368,
      "Ġassemb": 2369,
      "reesc": 2370,
      "Ġdestruction": 2371,
      "Ġcarry": 2372,
      "reescore": 2373,
      "nant": 2374,
      "uke": 2375,
      "vent": 2376,
      "Ġthreescore": 2377,
      "Ġsitt": 2378,
      "Ġrequ": 2379,
      "Ġgoing": 2380,
      "Ġplant": 2381,
      "ĠCha": 2382,
      "Ġremnant": 2383,
      "Ġcommitted": 2384,
      "Ġcherub": 2385,
      "he": 2386,
      "ured": 2387,
      "zzar": 2388,
      "ĠAh": 2389,
      "ali": 2390,
      "uben": 2391,
      "Ġremoved": 2392,
      "ĠReuben": 2393,
      "Ġinstru": 2394,
      "ĠNebuc": 2395,
      "ĠNebuchad": 2396,
      "gs": 2397,
      "thy": 2398,
      "Ġhate": 2399,
      "tor": 2400,
      "Ġfow": 2401,
      "edge": 2402,
      "ĠAhi": 2403,
      "vern": 2404,
      "ĠGal": 2405,
      "ĠGhost": 2406,
      "urely": 2407,
      "ĠChald": 2408,
      "hon": 2409,
      "hem": 2410,
      "uth": 2411,
      "ided": 2412,
      "arle": 2413,
      "Ġreason": 2414,
      "Ġgovern": 2415,
      "hob": 2416,
      "rupt": 2417,
      "Ġbreadth": 2418,
      "Ġdeclare": 2419,
      "Ġpillars": 2420,
      "hor": 2421,
      "ues": 2422,
      "ough": 2423,
      "aniah": 2424,
      "ider": 2425,
      "Ġnoise": 2426,
      "ĠSurely": 2427,
      "ĠHis": 2428,
      "ĠMa": 2429,
      "imelech": 2430,
      "Ġendure": 2431,
      "Ġalive": 2432,
      "Ġaffliction": 2433,
      "Ġsn": 2434,
      "ision": 2435,
      "ĠGive": 2436,
      "Ġvill": 2437,
      "Ġplain": 2438,
      "Ġwherefore": 2439,
      "ĠAmor": 2440,
      "ĠPharisees": 2441,
      "Ġcru": 2442,
      "ĠAfter": 2443,
      "Ġinter": 2444,
      "Ġtar": 2445,
      "ros": 2446,
      "Ġearly": 2447,
      "Ġgreatly": 2448,
      "iced": 2449,
      "Ġdrew": 2450,
      "Ġgarment": 2451,
      "Ġruler": 2452,
      "Ġcompany": 2453,
      "Ġaccept": 2454,
      "Ġwond": 2455,
      "Ġcrown": 2456,
      "Ġpoured": 2457,
      "Ġwidow": 2458,
      "Ġlast": 2459,
      "osed": 2460,
      "Ġenqu": 2461,
      "Ġraised": 2462,
      "ĠJehosha": 2463,
      "ĠJehoshaphat": 2464,
      "ier": 2465,
      "zz": 2466,
      "ĠAg": 2467,
      "Ġhair": 2468,
      "Ġrev": 2469,
      "ĠBy": 2470,
      "ĠElea": 2471,
      "Ġrich": 2472,
      "Ġfourth": 2473,
      "Ġfeed": 2474,
      "Ġvisit": 2475,
      "Ġvanity": 2476,
      "als": 2477,
      "bit": 2478,
      "kes": 2479,
      "Ġmur": 2480,
      "Ġcal": 2481,
      "Ġreg": 2482,
      "ĠSe": 2483,
      "urt": 2484,
      "run": 2485,
      "Ġsware": 2486,
      "Ġdelight": 2487,
      "ĠShem": 2488,
      "Ġalway": 2489,
      "ĠDaniel": 2490,
      "Ġfoolish": 2491,
      "pherd": 2492,
      "xed": 2493,
      "Ġaton": 2494,
      "Ġcircumc": 2495,
      "Ġpast": 2496,
      "leth": 2497,
      "ceived": 2498,
      "ilk": 2499,
      "Ġarmy": 2500,
      "ĠUn": 2501,
      "Ġpitched": 2502,
      "Ġhearkened": 2503,
      "Ġrefu": 2504,
      "Ġapost": 2505,
      "Ġfulfilled": 2506,
      "IAH": 2507,
      "fort": 2508,
      "Ġhither": 2509,
      "ength": 2510,
      "ĠAt": 2511,
      "Ġdrun": 2512,
      "Ġbeat": 2513,
      "Ġtaught": 2514,
      "ari": 2515,
      "Ġdeep": 2516,
      "ĠZer": 2517,
      "ĠRam": 2518,
      "Ġtenth": 2519,
      "Ġlambs": 2520,
      "Ġrebell": 2521,
      "Ġdraw": 2522,
      "Ġcontinually": 2523,
      "Ġatonement": 2524,
      "xt": 2525,
      "Ġden": 2526,
      "Ġpor": 2527,
      "Ġlength": 2528,
      "Ġheed": 2529,
      "ode": 2530,
      "road": 2531,
      "Ġshepherd": 2532,
      "Ġabroad": 2533,
      "ĠAbi": 2534,
      "Ġwrite": 2535,
      "Ġflocks": 2536,
      "Ġprophesy": 2537,
      "EN": 2538,
      "Ġran": 2539,
      "Ġsear": 2540,
      "ĠAhaz": 2541,
      "itter": 2542,
      "Ġhabit": 2543,
      "Ġlead": 2544,
      "Ġshadow": 2545,
      "Ġtalk": 2546,
      "Ġren": 2547,
      "ĠIsh": 2548,
      "Ġhealed": 2549,
      "ĠJez": 2550,
      "Ġbringeth": 2551,
      "Ġtrue": 2552,
      "Ġfallen": 2553,
      "Ġsacrifices": 2554,
      "Ġvision": 2555,
      "ĠHebron": 2556,
      "Ġmessengers": 2557,
      "Ġsy": 2558,
      "Ġfree": 2559,
      "Ġpun": 2560,
      "Ġled": 2561,
      "Ġforb": 2562,
      "owed": 2563,
      "cend": 2564,
      "Ġknowest": 2565,
      "Ġsouls": 2566,
      "Ġlikewise": 2567,
      "Ġbowed": 2568,
      "Ġdevour": 2569,
      "Ġrulers": 2570,
      "Ġcorrupt": 2571,
      "Ġviol": 2572,
      "Ġwear": 2573,
      "Ġcou": 2574,
      "ries": 2575,
      "ĠBar": 2576,
      "Ġones": 2577,
      "Ġcomfort": 2578,
      "ĠWoe": 2579,
      "Ġabide": 2580,
      "ĠRem": 2581,
      "ĠAmen": 2582,
      "Ġstrangers": 2583,
      "Ġflour": 2584,
      "Ġlamb": 2585,
      "Ġrams": 2586,
      "Ġchurch": 2587,
      "Ġbaptiz": 2588,
      "rom": 2589,
      "Ġhide": 2590,
      "Ġwings": 2591,
      "Ġmis": 2592,
      "Ġdam": 2593,
      "Ġlot": 2594,
      "arm": 2595,
      "ĠSimon": 2596,
      "ĠSyria": 2597,
      "Ġvir": 2598,
      "Ġbreast": 2599,
      "Ġarise": 2600,
      "Ġgreater": 2601,
      "Ġpassover": 2602,
      "aths": 2603,
      "Ġcond": 2604,
      "Ġtable": 2605,
      "Ġmoved": 2606,
      "Ġstrange": 2607,
      "Ġrivers": 2608,
      "Ġabomination": 2609,
      "Ġskin": 2610,
      "Ġprosper": 2611,
      "by": 2612,
      "Ġbas": 2613,
      "Ġfish": 2614,
      "Ġfig": 2615,
      "Ġced": 2616,
      "Ġcease": 2617,
      "Ġwhore": 2618,
      "Ġwhite": 2619,
      "ĠLeb": 2620,
      "ĠSyri": 2621,
      "ĠSelah": 2622,
      "vened": 2623,
      "Ġserved": 2624,
      "Ġprecious": 2625,
      "Ġprepare": 2626,
      "Ġabominations": 2627,
      "Ġforsaken": 2628,
      "Ġtestimony": 2629,
      "Ġbranches": 2630,
      "Ġvillages": 2631,
      "jour": 2632,
      "mber": 2633,
      "Ġfeared": 2634,
      "eaketh": 2635,
      "Ġele": 2636,
      "hind": 2637,
      "iful": 2638,
      "Ġspeaketh": 2639,
      "Ġtaketh": 2640,
      "ago": 2641,
      "Ġquick": 2642,
      "Ġestablished": 2643,
      "ĠEleazar": 2644,
      "Ġdist": 2645,
      "Ġbehind": 2646,
      "Ġyouth": 2647,
      "Ġfaces": 2648,
      "Ġsojour": 2649,
      "Ġcommit": 2650,
      "Ġpersec": 2651,
      "Ġprey": 2652,
      "Ġdisp": 2653,
      "Ġgrave": 2654,
      "ĠArise": 2655,
      "Ġclothed": 2656,
      "Ġbrake": 2657,
      "ĠAmorites": 2658,
      "ĠLeban": 2659,
      ">,": 2660,
      "neth": 2661,
      "Ġobs": 2662,
      "erv": 2663,
      "erily": 2664,
      "Ġbitter": 2665,
      "Ġdry": 2666,
      "Ġgre": 2667,
      "Ġaside": 2668,
      "Ġhousehold": 2669,
      "osh": 2670,
      "Ġenc": 2671,
      "ĠLevi": 2672,
      "Ġrejo": 2673,
      "ĠUzz": 2674,
      "ĠSpeak": 2675,
      "ilee": 2676,
      "Ġdefiled": 2677,
      "Ġgrass": 2678,
      "Ġstretched": 2679,
      "ĠVerily": 2680,
      "ĠGalilee": 2681,
      "Ġinterp": 2682,
      "most": 2683,
      "Ġact": 2684,
      "ately": 2685,
      "Ġcup": 2686,
      "irm": 2687,
      "ĠMer": 2688,
      "Ġwept": 2689,
      "otten": 2690,
      "Ġshouldest": 2691,
      "Ġperfor": 2692,
      "Ġwomb": 2693,
      "Ġimages": 2694,
      "Ġtempt": 2695,
      "Ġdoors": 2696,
      "ĠNever": 2697,
      "Ġprofit": 2698,
      "Ġbeaut": 2699,
      "Ġscattered": 2700,
      "ĠLebanon": 2701,
      "ped": 2702,
      "sue": 2703,
      "ual": 2704,
      "Ġcand": 2705,
      "Ġda": 2706,
      "Ġtow": 2707,
      "ĠLo": 2708,
      "chem": 2709,
      "ĠHaz": 2710,
      "Ġoffic": 2711,
      "ĠOr": 2712,
      "ulch": 2713,
      "ĠKing": 2714,
      "Ġappeared": 2715,
      "Ġbeseech": 2716,
      "Ġadvers": 2717,
      "Ġworshipped": 2718,
      "Ġsepulch": 2719,
      "ĠNevertheless": 2720,
      "ms": 2721,
      "ners": 2722,
      "nago": 2723,
      "Ġhum": 2724,
      "Ġpara": 2725,
      "Ġtal": 2726,
      "ĠJob": 2727,
      "Ġkid": 2728,
      "Ġkilled": 2729,
      "Ġfavour": 2730,
      "ĠNot": 2731,
      "ĠDo": 2732,
      "Ġabode": 2733,
      "Ġwhereof": 2734,
      "ĠAsh": 2735,
      "ĠElijah": 2736,
      "Ġdivided": 2737,
      "Ġtroubled": 2738,
      "Ġmeasure": 2739,
      "Ġstraight": 2740,
      "Ġfury": 2741,
      "Ġindeed": 2742,
      "Ġsynago": 2743,
      "ect": 2744,
      "vy": 2745,
      "Ġthink": 2746,
      "Ġmag": 2747,
      "Ġlow": 2748,
      "Ġlep": 2749,
      "Ġgro": 2750,
      "asc": 2751,
      "Ġshield": 2752,
      "ĠMid": 2753,
      "ĠWith": 2754,
      "Ġafterward": 2755,
      "Ġchamber": 2756,
      "rance": 2757,
      "Ġprev": 2758,
      "Ġfew": 2759,
      "Ġpoll": 2760,
      "Ġverily": 2761,
      "Ġadult": 2762,
      "Ġdeceit": 2763,
      "Ġscribes": 2764,
      "Ġabundance": 2765,
      "END": 2766,
      "Ġve": 2767,
      "Ġhorns": 2768,
      "Ġmak": 2769,
      "aint": 2770,
      "aliah": 2771,
      "Ġweight": 2772,
      "Ġsoon": 2773,
      "arden": 2774,
      "Ġworthy": 2775,
      "ĠBethel": 2776,
      "Ġrent": 2777,
      "ĠMidian": 2778,
      "na": 2779,
      "Ġhurt": 2780,
      "ĠAz": 2781,
      "Ġtents": 2782,
      "Ġthereon": 2783,
      "Ġfail": 2784,
      "Ġseeth": 2785,
      "ĠAbimelech": 2786,
      "Ġchambers": 2787,
      "aughter": 2788,
      "Ġgolden": 2789,
      "ully": 2790,
      "beit": 2791,
      "Ġwalls": 2792,
      "ĠArt": 2793,
      "Ġkindled": 2794,
      "ĠChaldeans": 2795,
      "Ġacts": 2796,
      "Ġhoney": 2797,
      "Ġhung": 2798,
      "Ġpour": 2799,
      "Ġnin": 2800,
      "Ġgarden": 2801,
      "ĠTy": 2802,
      "ained": 2803,
      "Ġaston": 2804,
      "adab": 2805,
      "Ġshout": 2806,
      "Ġseem": 2807,
      "ĠMic": 2808,
      "Ġjoin": 2809,
      "ards": 2810,
      "Ġprayed": 2811,
      "Ġrule": 2812,
      "Ġblessing": 2813,
      "Ġloveth": 2814,
      "Ġresto": 2815,
      "ĠShechem": 2816,
      "Ġhills": 2817,
      "Ġstreets": 2818,
      "Ġtrumpet": 2819,
      "Ġvirg": 2820,
      "der": 2821,
      "Ġband": 2822,
      "Ġbot": 2823,
      "Ġblem": 2824,
      "Ġfought": 2825,
      "Ġheight": 2826,
      "Ġanoint": 2827,
      "Ġasses": 2828,
      "Ġspear": 2829,
      "Ġherd": 2830,
      "ĠJerich": 2831,
      "ĠZed": 2832,
      "Ġexec": 2833,
      "Ġothers": 2834,
      "Ġparts": 2835,
      "ĠRehob": 2836,
      "Ġexcell": 2837,
      "ealous": 2838,
      "Ġchariot": 2839,
      "Ġwaste": 2840,
      "Ġsuppl": 2841,
      "Ġexalted": 2842,
      "Ġcherubims": 2843,
      "Ġapostles": 2844,
      "Ġcondem": 2845,
      "Ġblemish": 2846,
      "ĠJericho": 2847,
      ",)": 2848,
      "bles": 2849,
      "liness": 2850,
      "Ġhence": 2851,
      "Ġfill": 2852,
      "Ġdomin": 2853,
      "Ġsack": 2854,
      "ĠFrom": 2855,
      "ĠDam": 2856,
      "Ġloins": 2857,
      "umb": 2858,
      "ĠAbner": 2859,
      "Ġsmitten": 2860,
      "Ġjudged": 2861,
      "Ġharvest": 2862,
      "Ġforget": 2863,
      "Ġredeemed": 2864,
      "ĠBalaam": 2865,
      "Ġdaily": 2866,
      "Ġhat": 2867,
      "Ġweak": 2868,
      "Ġflood": 2869,
      "Ġdou": 2870,
      "Ġdil": 2871,
      "Ġpu": 2872,
      "Ġloud": 2873,
      "ada": 2874,
      "Ġsho": 2875,
      "Ġneck": 2876,
      "Ġdeal": 2877,
      "Ġrather": 2878,
      "Ġthousands": 2879,
      "Ġpost": 2880,
      "Ġsanctified": 2881,
      "Ġsanctify": 2882,
      "Ġpurp": 2883,
      "ĠElisha": 2884,
      "Ġpleased": 2885,
      "Ġwrote": 2886,
      "ĠZedekiah": 2887,
      "Ġdilig": 2888,
      "ives": 2889,
      "maid": 2890,
      "pes": 2891,
      "Ġoath": 2892,
      "isf": 2893,
      "Ġlear": 2894,
      "Ġsavour": 2895,
      "ashan": 2896,
      "ĠGi": 2897,
      "Ġupward": 2898,
      "ĠSara": 2899,
      "Ġmanif": 2900,
      "Ġfair": 2901,
      "ĠHave": 2902,
      "Ġsprink": 2903,
      "Ġevening": 2904,
      "leavened": 2905,
      "tained": 2906,
      "Ġhard": 2907,
      "ĠAbram": 2908,
      "Ġfifth": 2909,
      "Ġsatisf": 2910,
      "Ġpleasure": 2911,
      "Ġforsake": 2912,
      "Ġorder": 2913,
      "Ġrecom": 2914,
      "Ġpreached": 2915,
      "Ġtreasures": 2916,
      "ĠAlm": 2917,
      "held": 2918,
      "Ġpunish": 2919,
      "Ġbaptized": 2920,
      "ĠSyrians": 2921,
      "ascus": 2922,
      "Ġdominion": 2923,
      "venty": 2924,
      "Ġhated": 2925,
      "Ġfet": 2926,
      "has": 2927,
      "Ġyoke": 2928,
      "Ġunleavened": 2929,
      "vell": 2930,
      "rah": 2931,
      "ript": 2932,
      "ĠBashan": 2933,
      "ordec": 2934,
      "Ġseventy": 2935,
      "ĠMordec": 2936,
      "ĠFear": 2937,
      "resh": 2938,
      "ĠJehu": 2939,
      "ĠAsa": 2940,
      "nezzar": 2941,
      "ĠKnow": 2942,
      "Ġspeaking": 2943,
      "Ġdwelling": 2944,
      "Ġlament": 2945,
      "Ġpursu": 2946,
      "Ġdespised": 2947,
      "Ġdrive": 2948,
      "ĠNebuchadnezzar": 2949,
      "Ġalways": 2950,
      "ĠDamascus": 2951,
      "ĠMordecai": 2952,
      "air": 2953,
      "cl": 2954,
      "ial": 2955,
      "mble": 2956,
      "Ġaw": 2957,
      "Ġfin": 2958,
      "Ġtown": 2959,
      "iment": 2960,
      "asph": 2961,
      "very": 2962,
      "ĠSin": 2963,
      "Ġseat": 2964,
      "Ġwhence": 2965,
      "Ġlieth": 2966,
      "Ġswear": 2967,
      "Ġsince": 2968,
      "Ġblasph": 2969,
      "Ġraise": 2970,
      "Ġcaptive": 2971,
      "Ġconsider": 2972,
      "Ġfields": 2973,
      "Ġmonths": 2974,
      "Ġchoose": 2975,
      "Ġexcept": 2976,
      "Ġgift": 2977,
      "Ġhorsemen": 2978,
      "Ġgovernor": 2979,
      "Ġendureth": 2980,
      "Ġregard": 2981,
      "Ġsearch": 2982,
      "Ġblasphem": 2983,
      "nah": 2984,
      "nal": 2985,
      "Ġer": 2986,
      "ert": 2987,
      "rection": 2988,
      "Ġbind": 2989,
      "Ġcre": 2990,
      "ides": 2991,
      "ĠEvery": 2992,
      "ighty": 2993,
      "roud": 2994,
      "ĠTheir": 2995,
      "rust": 2996,
      "Ġlived": 2997,
      "akim": 2998,
      "Ġburning": 2999,
      "rible": 3000,
      "Ġdwelleth": 3001,
      "Ġuncircumc": 3002,
      "Ġfellow": 3003,
      "Ġordin": 3004,
      "Ġescape": 3005,
      "Ġescaped": 3006,
      "Ġseason": 3007,
      "Ġhabitation": 3008,
      "Ġofficers": 3009,
      "bed": 3010,
      "iet": 3011,
      "Ġwea": 3012,
      "Ġming": 3013,
      "atan": 3014,
      "Ġinn": 3015,
      "Ġpub": 3016,
      "seth": 3017,
      "ĠLab": 3018,
      "ĠSi": 3019,
      "ĠSee": 3020,
      "Ġonce": 3021,
      "Ġwilling": 3022,
      "ĠMaster": 3023,
      "Ġhandmaid": 3024,
      "Ġnext": 3025,
      "Ġarrow": 3026,
      "Ġdealt": 3027,
      "Ġbuy": 3028,
      "Ġraiment": 3029,
      "Ġkingdoms": 3030,
      "Ġqueen": 3031,
      "Ġforgive": 3032,
      "Ġcurtain": 3033,
      "Ġrememb": 3034,
      "Ġremembered": 3035,
      "Ġpleasant": 3036,
      "Ġprovin": 3037,
      "Ġnamed": 3038,
      "teenth": 3039,
      "Ġthoughts": 3040,
      "Ġnakedness": 3041,
      "Ġinterpret": 3042,
      "ĠAlmighty": 3043,
      "JO": 3044,
      "lest": 3045,
      "rus": 3046,
      "serv": 3047,
      "Ġedge": 3048,
      "Ġsow": 3049,
      "Ġhy": 3050,
      "Ġhang": 3051,
      "enance": 3052,
      "Ġproud": 3053,
      "Ġlying": 3054,
      "ĠSatan": 3055,
      "ilate": 3056,
      "ĠEth": 3057,
      "Ġdoct": 3058,
      "ĠPilate": 3059,
      "Ġheal": 3060,
      "Ġeateth": 3061,
      "Ġchang": 3062,
      "Ġtables": 3063,
      "Ġslaughter": 3064,
      "Ġcarc": 3065,
      "ĠEsther": 3066,
      "Ġperson": 3067,
      "Ġpersons": 3068,
      "ZE": 3069,
      "iately": 3070,
      "Ġmet": 3071,
      "Ġint": 3072,
      "Ġlod": 3073,
      "Ġlad": 3074,
      "Ġreap": 3075,
      "Ġshed": 3076,
      "ckets": 3077,
      "Ġfood": 3078,
      "Ġaltars": 3079,
      "Ġgraven": 3080,
      "Ġcountries": 3081,
      "Ġiniquities": 3082,
      "Ġspoiled": 3083,
      "mediately": 3084,
      "Ġconsume": 3085,
      "ĠCanaanites": 3086,
      "Ġdevils": 3087,
      "ĠSaying": 3088,
      "Ġfowls": 3089,
      "Ġwonders": 3090,
      "Ġviolence": 3091,
      "Ġmingled": 3092,
      "ĠLaban": 3093,
      "tle": 3094,
      "yond": 3095,
      "Ġthirst": 3096,
      "Ġbird": 3097,
      "Ġpat": 3098,
      "Ġnet": 3099,
      "Ġbeyond": 3100,
      "Ġlust": 3101,
      "Ġgrow": 3102,
      "ased": 3103,
      "odom": 3104,
      "Ġem": 3105,
      "ently": 3106,
      "ĠSt": 3107,
      "ĠMary": 3108,
      "ĠMiz": 3109,
      "oph": 3110,
      "ĠEn": 3111,
      "Ġplu": 3112,
      "ĠNa": 3113,
      "ĠNaph": 3114,
      "Ġsockets": 3115,
      "imeon": 3116,
      "Ġbrook": 3117,
      "Ġfoundation": 3118,
      "Ġstanding": 3119,
      "Ġflow": 3120,
      "Ġadd": 3121,
      "ĠBethle": 3122,
      "Ġforgi": 3123,
      "Ġafflicted": 3124,
      "Ġscribe": 3125,
      "ĠZebul": 3126,
      "ĠHerod": 3127,
      "ĠUnto": 3128,
      "Ġmisch": 3129,
      "Ġsepulchre": 3130,
      "Ġpubl": 3131,
      "eel": 3132,
      "much": 3133,
      "non": 3134,
      "och": 3135,
      "pent": 3136,
      "Ġven": 3137,
      "Ġhome": 3138,
      "Ġund": 3139,
      "Ġdig": 3140,
      "ition": 3141,
      "Ġbeheld": 3142,
      "ĠSal": 3143,
      "ĠSimeon": 3144,
      "adok": 3145,
      "Ġjealous": 3146,
      "Ġbreath": 3147,
      "ously": 3148,
      "ĠJuda": 3149,
      "ĠZadok": 3150,
      "Ġscript": 3151,
      "Ġcountenance": 3152,
      "Ġimmediately": 3153,
      "beon": 3154,
      "ĠJosiah": 3155,
      "ĠElias": 3156,
      "Ġdevoured": 3157,
      "Ġremained": 3158,
      "Ġsigns": 3159,
      "ĠHaman": 3160,
      "Ġpromise": 3161,
      "Ġgifts": 3162,
      "ĠNoah": 3163,
      "ĠAgain": 3164,
      "ĠIshm": 3165,
      "Ġwhoredom": 3166,
      "Ġobserve": 3167,
      "Ġcandlest": 3168,
      "Ġmanifest": 3169,
      "ĠBethlehem": 3170,
      ";)": 3171,
      "fully": 3172,
      "ked": 3173,
      "Ġheld": 3174,
      "asmuch": 3175,
      "ĠGib": 3176,
      "Ġspeech": 3177,
      "ĠNeth": 3178,
      "Ġheareth": 3179,
      "Ġoverth": 3180,
      "Ġhaste": 3181,
      "Ġdeed": 3182,
      "Ġdesired": 3183,
      "ĠThough": 3184,
      "ĠKo": 3185,
      "ĠKir": 3186,
      "Ġscarle": 3187,
      "ekah": 3188,
      "ĠUri": 3189,
      "Ġwheat": 3190,
      "Ġcharged": 3191,
      "eshb": 3192,
      "Ġprofan": 3193,
      "Ġterrible": 3194,
      "ĠJehoiada": 3195,
      "ĠNapht": 3196,
      "Ġscarlet": 3197,
      "cy": 3198,
      "hes": 3199,
      "lied": 3200,
      "rine": 3201,
      "Ġbright": 3202,
      "ens": 3203,
      "Ġpest": 3204,
      "Ġpot": 3205,
      "Ġtoo": 3206,
      "Ġlies": 3207,
      "idon": 3208,
      "Ġeph": 3209,
      "aries": 3210,
      "ĠJam": 3211,
      "ursed": 3212,
      "ĠHad": 3213,
      "Ġstir": 3214,
      "Ġstars": 3215,
      "Ġdoings": 3216,
      "Ġoffend": 3217,
      "Ġafar": 3218,
      "Ġourselves": 3219,
      "alek": 3220,
      "Ġswall": 3221,
      "ĠZi": 3222,
      "Ġgoodness": 3223,
      "acher": 3224,
      "ĠAmalek": 3225,
      "Ġjudges": 3226,
      "Ġends": 3227,
      "Ġbuilded": 3228,
      "Ġtransgression": 3229,
      "Ġguard": 3230,
      "Ġmourning": 3231,
      "Ġpromised": 3232,
      "Ġtrumpets": 3233,
      "Ġcoasts": 3234,
      "Ġrisen": 3235,
      "Ġinstruments": 3236,
      "Ġcedar": 3237,
      "Ġdistress": 3238,
      "Ġtalents": 3239,
      "Ġremembrance": 3240,
      "Ġdoctrine": 3241,
      "ĠIshmael": 3242,
      "Ġephod": 3243,
      "CH": 3244,
      "Ġeach": 3245,
      "Ġthick": 3246,
      "Ġbar": 3247,
      "oura": 3248,
      "Ġmark": 3249,
      "Ġfurn": 3250,
      "iseth": 3251,
      "orah": 3252,
      "oni": 3253,
      "eareth": 3254,
      "Ġnine": 3255,
      "stance": 3256,
      "ideth": 3257,
      "idings": 3258,
      "Ġformer": 3259,
      "ram": 3260,
      "Ġep": 3261,
      "Ġitself": 3262,
      "ĠBel": 3263,
      "ĠHar": 3264,
      "Ġoverl": 3265,
      "Ġchast": 3266,
      "Ġblue": 3267,
      "Ġroot": 3268,
      "Ġglorified": 3269,
      "Ġmoon": 3270,
      "ĠWhosoever": 3271,
      "overed": 3272,
      "Ġbelong": 3273,
      "Ġsubstance": 3274,
      "Ġcamels": 3275,
      "Ġsuffered": 3276,
      "Ġprophesied": 3277,
      "Ġstretch": 3278,
      "Ġteeth": 3279,
      "Ġperform": 3280,
      "ĠRehoboam": 3281,
      "Ġpurif": 3282,
      "Ġcreep": 3283,
      "Ġforgiven": 3284,
      "ĠNaphtali": 3285,
      "Ġpestil": 3286,
      "ees": 3287,
      "ible": 3288,
      "Ġthrust": 3289,
      "int": 3290,
      "Ġwant": 3291,
      "reel": 3292,
      "Ġmale": 3293,
      "ĠAzar": 3294,
      "eath": 3295,
      "Ġbelly": 3296,
      "ances": 3297,
      "Ġlang": 3298,
      "Ġyield": 3299,
      "Ġhell": 3300,
      "Ġtear": 3301,
      "Ġforward": 3302,
      "ceive": 3303,
      "ĠSodom": 3304,
      "Ġstaves": 3305,
      "Ġval": 3306,
      "abb": 3307,
      "ember": 3308,
      "oked": 3309,
      "ĠNathan": 3310,
      "ĠPra": 3311,
      "ĠCa": 3312,
      "Ġsum": 3313,
      "Ġliken": 3314,
      "Ġtread": 3315,
      "Ġslept": 3316,
      "Ġharl": 3317,
      "Ġconfounded": 3318,
      "Ġdecree": 3319,
      "Ġwitnesses": 3320,
      "Ġtouched": 3321,
      "Ġincreased": 3322,
      "ĠJoash": 3323,
      "Ġdriven": 3324,
      "Ġwroth": 3325,
      "Ġfriends": 3326,
      "Ġassembly": 3327,
      "Ġcruc": 3328,
      "Ġenquire": 3329,
      "ĠJezreel": 3330,
      "ĠRemember": 3331,
      "Ġparable": 3332,
      "Ġmischief": 3333,
      "ĠAzariah": 3334,
      "Ġlangu": 3335,
      "cloth": 3336,
      "gues": 3337,
      "ting": 3338,
      "wed": 3339,
      "Ġthorns": 3340,
      "Ġsides": 3341,
      "Ġmilk": 3342,
      "Ġfount": 3343,
      "enced": 3344,
      "ĠAch": 3345,
      "Ġinward": 3346,
      "iting": 3347,
      "Ġeter": 3348,
      "amar": 3349,
      "ĠHitt": 3350,
      "ersh": 3351,
      "Ġdost": 3352,
      "ĠPer": 3353,
      "Ġprocl": 3354,
      "Ġsworn": 3355,
      "Ġsinners": 3356,
      "Ġpride": 3357,
      "Ġcovering": 3358,
      "Ġpurple": 3359,
      "Ġkindness": 3360,
      "Ġdivide": 3361,
      "Ġmarvell": 3362,
      "Ġtransgressions": 3363,
      "Ġclouds": 3364,
      "Ġgrie": 3365,
      "Ġgriev": 3366,
      "Ġpalace": 3367,
      "Ġestablish": 3368,
      "Ġmultiply": 3369,
      "Ġtower": 3370,
      "Ġempt": 3371,
      "ĠGibeah": 3372,
      "cha": 3373,
      "uri": 3374,
      "under": 3375,
      "tom": 3376,
      "Ġkis": 3377,
      "ĠGed": 3378,
      "ĠBring": 3379,
      "Ġsong": 3380,
      "ift": 3381,
      "ĠMake": 3382,
      "antly": 3383,
      "ĠJesse": 3384,
      "Ġaccom": 3385,
      "ĠRach": 3386,
      "eased": 3387,
      "Ġglorious": 3388,
      "Ġtremb": 3389,
      "aziah": 3390,
      "Ġimp": 3391,
      "Ġharden": 3392,
      "Ġsixth": 3393,
      "ĠHowbeit": 3394,
      "Ġconfid": 3395,
      "Ġgladness": 3396,
      "Ġpillar": 3397,
      "Ġtrav": 3398,
      "Ġrefuge": 3399,
      "Ġdamsel": 3400,
      "Ġencam": 3401,
      "Ġbeauty": 3402,
      "Ġsackcloth": 3403,
      "ĠKohath": 3404,
      "Ġpestilence": 3405,
      "ĠPraise": 3406,
      "ĠCaes": 3407,
      "Ġeternal": 3408,
      "ĠRachel": 3409,
      "lation": 3410,
      "live": 3411,
      "ror": 3412,
      "Ġfro": 3413,
      "Ġclea": 3414,
      "Ġdiver": 3415,
      "Ġinf": 3416,
      "Ġlions": 3417,
      "ĠTim": 3418,
      "ĠBo": 3419,
      "urrection": 3420,
      "Ġcomfor": 3421,
      "Ġgoest": 3422,
      "Ġsell": 3423,
      "Ġcare": 3424,
      "Ġoffice": 3425,
      "Ġlands": 3426,
      "Ġconceived": 3427,
      "ĠJeb": 3428,
      "ĠJeph": 3429,
      "Ġkeepeth": 3430,
      "Ġquiet": 3431,
      "Ġforgotten": 3432,
      "Ġdesolation": 3433,
      "Ġvessel": 3434,
      "Ġentering": 3435,
      "Ġmeasured": 3436,
      "Ġmourn": 3437,
      "Ġsnare": 3438,
      "ierce": 3439,
      "Ġinterpretation": 3440,
      "ĠZebulun": 3441,
      "aff": 3442,
      "ailed": 3443,
      "ba": 3444,
      "gean": 3445,
      "lah": 3446,
      "mor": 3447,
      "Ġaven": 3448,
      "Ġban": 3449,
      "ĠAi": 3450,
      "Ġtor": 3451,
      "ealed": 3452,
      "Ġtidings": 3453,
      "ety": 3454,
      "Ġplease": 3455,
      "achar": 3456,
      "Ġarray": 3457,
      "ĠShil": 3458,
      "Ġsmoke": 3459,
      "Ġfours": 3460,
      "aired": 3461,
      "Ġarmour": 3462,
      "Ġcubit": 3463,
      "Ġcursed": 3464,
      "Ġbelieveth": 3465,
      "Ġdefile": 3466,
      "Ġbullocks": 3467,
      "Ġwashed": 3468,
      "Ġvineyards": 3469,
      "Ġmultiplied": 3470,
      "Ġcreated": 3471,
      "Ġtarry": 3472,
      "Ġrejoiced": 3473,
      "Ġsynagogue": 3474,
      "ĠGibeon": 3475,
      "Ġtowns": 3476,
      "Ġinnoc": 3477,
      "ĠJebus": 3478,
      "geance": 3479,
      "cess": 3480,
      "gal": 3481,
      "sachar": 3482,
      "Ġsud": 3483,
      "Ġolive": 3484,
      "erved": 3485,
      "Ġbought": 3486,
      "ani": 3487,
      "ĠLi": 3488,
      "ĠLot": 3489,
      "Ġforn": 3490,
      "ĠJa": 3491,
      "ĠGide": 3492,
      "Ġreed": 3493,
      "ĠIssachar": 3494,
      "ĠNab": 3495,
      "ĠAsher": 3496,
      "Ġperver": 3497,
      "Ġangry": 3498,
      "Ġrings": 3499,
      "ĠKe": 3500,
      "Ġmercies": 3501,
      "Ġrepaired": 3502,
      "Ġbesought": 3503,
      "hanan": 3504,
      "Ġrebuke": 3505,
      "Ġcompassed": 3506,
      "Ġweeping": 3507,
      "Ġeleven": 3508,
      "Ġgreen": 3509,
      "ĠMicha": 3510,
      "Ġbands": 3511,
      "Ġsudden": 3512,
      "ft": 3513,
      "iving": 3514,
      "tood": 3515,
      "Ġfaint": 3516,
      "ises": 3517,
      "eness": 3518,
      "ĠAre": 3519,
      "Ġdro": 3520,
      "Ġsalt": 3521,
      "idd": 3522,
      "iding": 3523,
      "Ġelse": 3524,
      "irth": 3525,
      "Ġashes": 3526,
      "Ġspare": 3527,
      "Ġstaff": 3528,
      "Ġdoest": 3529,
      "Ġvow": 3530,
      "Ġplead": 3531,
      "Ġfatherless": 3532,
      "Ġroll": 3533,
      "Ġcaptives": 3534,
      "Ġappoint": 3535,
      "Ġmerchan": 3536,
      "Ġarmies": 3537,
      "Ġfollowing": 3538,
      "Ġconfess": 3539,
      "Ġwonder": 3540,
      "Ġborders": 3541,
      "asseth": 3542,
      "Ġjustified": 3543,
      "Ġpiece": 3544,
      "Ġrecord": 3545,
      "Ġshekel": 3546,
      "Ġobeyed": 3547,
      "ĠBalak": 3548,
      "Ġsitting": 3549,
      "Ġjoined": 3550,
      "Ġvirgin": 3551,
      "Ġsatisfied": 3552,
      "Ġuncircumcised": 3553,
      "Ġvengeance": 3554,
      "ĠJudaea": 3555,
      "Ġcleave": 3556,
      "iour": 3557,
      "Ġwound": 3558,
      "Ġbos": 3559,
      "Ġmal": 3560,
      "ĠAha": 3561,
      "Ġpaths": 3562,
      "Ġlatter": 3563,
      "ĠHor": 3564,
      "Ġstep": 3565,
      "Ġage": 3566,
      "Ġherself": 3567,
      "ĠNaz": 3568,
      "Ġabhor": 3569,
      "ĠCarm": 3570,
      "aced": 3571,
      "aleb": 3572,
      "Ġseeketh": 3573,
      "Ġshoulder": 3574,
      "Ġgoods": 3575,
      "imei": 3576,
      "Ġblow": 3577,
      "Ġdesert": 3578,
      "ĠShimei": 3579,
      "Ġbetray": 3580,
      "Ġspirits": 3581,
      "Ġfruits": 3582,
      "ĠBenaiah": 3583,
      "Ġprovoke": 3584,
      "iram": 3585,
      "Ġtender": 3586,
      "Ġsitteth": 3587,
      "Ġtalked": 3588,
      "Ġweary": 3589,
      "Ġstraightway": 3590,
      "Ġmagn": 3591,
      "Ġposts": 3592,
      "Ġfinished": 3593,
      "Ġchanged": 3594,
      "ĠJames": 3595,
      "Ġharlot": 3596,
      "ĠLike": 3597,
      "iop": 3598,
      "Ġauth": 3599,
      "Ġocc": 3600,
      "Ġwal": 3601,
      "Ġmad": 3602,
      "Ġfing": 3603,
      "Ġfierce": 3604,
      "ceed": 3605,
      "ĠMesh": 3606,
      "ckon": 3607,
      "Ġvo": 3608,
      "Ġbride": 3609,
      "Ġcove": 3610,
      "ittim": 3611,
      "Ġboards": 3612,
      "Ġchan": 3613,
      "ignation": 3614,
      "ARIAH": 3615,
      "Ġlords": 3616,
      "Ġuncleanness": 3617,
      "Ġresurrection": 3618,
      "ĠGilgal": 3619,
      "Ġdeclared": 3620,
      "Ġcompassion": 3621,
      "Ġforest": 3622,
      "secr": 3623,
      "Ġindignation": 3624,
      "Ġplanted": 3625,
      "tors": 3626,
      "ross": 3627,
      "ĠShemaiah": 3628,
      "Ġdrunk": 3629,
      "ĠSarah": 3630,
      "Ġarrows": 3631,
      "ĠEthiop": 3632,
      "ZECH": 3633,
      "Ġaccompl": 3634,
      "Ġsuddenly": 3635,
      "Ġbosom": 3636,
      "Ġauthor": 3637,
      "Ġwalketh": 3638,
      "ZECHARIAH": 3639,
      ":)": 3640,
      "du": 3641,
      "fru": 3642,
      "more": 3643,
      "poc": 3644,
      "Ġign": 3645,
      "Ġwand": 3646,
      "Ġded": 3647,
      "Ġdried": 3648,
      "Ġpay": 3649,
      "Ġhapp": 3650,
      "Ġsaf": 3651,
      "Ġtith": 3652,
      "Ġissue": 3653,
      "ĠJab": 3654,
      "Ġreach": 3655,
      "Ġheavy": 3656,
      "Ġserpent": 3657,
      "Ġconsecr": 3658,
      "Ġholiness": 3659,
      "Ġfools": 3660,
      "Ġremove": 3661,
      "Ġroar": 3662,
      "ĠAmaziah": 3663,
      "Ġmerciful": 3664,
      "Ġcounted": 3665,
      "Ġstrengthen": 3666,
      "ĠBeths": 3667,
      "Ġtoucheth": 3668,
      "Ġexceedingly": 3669,
      "Ġdrunken": 3670,
      "Ġbeaten": 3671,
      "Ġpolluted": 3672,
      "Ġhypoc": 3673,
      "Ġcandlestick": 3674,
      "Ġgrieved": 3675,
      "Ġgrievous": 3676,
      "Ġhypocr": 3677,
      "IC": 3678,
      "old": 3679,
      "son": 3680,
      "sing": 3681,
      "uff": 3682,
      "Ġair": 3683,
      "Ġhorn": 3684,
      "rest": 3685,
      "Ġben": 3686,
      "Ġmed": 3687,
      "Ġfi": 3688,
      "Ġinner": 3689,
      "Ġleast": 3690,
      "sell": 3691,
      "Ġeigh": 3692,
      "ament": 3693,
      "ention": 3694,
      "Ġresp": 3695,
      "Ġascend": 3696,
      "lten": 3697,
      "Ġsayest": 3698,
      "Ġdoing": 3699,
      "Ġvail": 3700,
      "Ġvali": 3701,
      "ĠNay": 3702,
      "Ġheap": 3703,
      "ĠCy": 3704,
      "ĠJew": 3705,
      "ĠRed": 3706,
      "Ġroom": 3707,
      "Ġlawful": 3708,
      "Ġscorn": 3709,
      "Ġmolten": 3710,
      "ĠSamson": 3711,
      "Ġstrengthened": 3712,
      "Ġwax": 3713,
      "Ġconcub": 3714,
      "Ġbowels": 3715,
      "Ġpossessed": 3716,
      "ronic": 3717,
      "Ġcleansed": 3718,
      "Ġeastward": 3719,
      "Ġcorners": 3720,
      "Ġmeasures": 3721,
      "Ġbury": 3722,
      "Ġstrife": 3723,
      "Ġbondage": 3724,
      "Ġships": 3725,
      "Ġrising": 3726,
      "rosy": 3727,
      "Ġmurm": 3728,
      "Ġmurder": 3729,
      "ĠSeir": 3730,
      "Ġporch": 3731,
      "Ġquickly": 3732,
      "ĠMerari": 3733,
      "Ġleprosy": 3734,
      "Ġadultery": 3735,
      "Ġsupplication": 3736,
      "Ġrecompen": 3737,
      "Ġproclaim": 3738,
      "ĠGideon": 3739,
      "Ġignor": 3740,
      "Ġeighth": 3741,
      "core": 3742,
      "mah": 3743,
      "pah": 3744,
      "Ġthresh": 3745,
      "Ġbars": 3746,
      "oureth": 3747,
      "Ġfenced": 3748,
      "onc": 3749,
      "onoun": 3750,
      "ĠAra": 3751,
      "Ġpasseth": 3752,
      "ĠIth": 3753,
      "Ġhail": 3754,
      "Ġlau": 3755,
      "Ġshake": 3756,
      "Ġtr": 3757,
      "Ġmemor": 3758,
      "ĠHast": 3759,
      "ĠHigh": 3760,
      "ĠHeshb": 3761,
      "ĠMe": 3762,
      "ĠDel": 3763,
      "Ġoverc": 3764,
      "Ġcommun": 3765,
      "athar": 3766,
      "Ġdescend": 3767,
      "unto": 3768,
      "Ġwouldest": 3769,
      "Ġappro": 3770,
      "Ġcanst": 3771,
      "Ġwriting": 3772,
      "Ġpronoun": 3773,
      "Ġchronic": 3774,
      "Ġcounsell": 3775,
      "Ġdrag": 3776,
      "Ġsingers": 3777,
      "Ġneedy": 3778,
      "Ġtreasure": 3779,
      "Ġoppressed": 3780,
      "Ġgirdle": 3781,
      "Ġappearance": 3782,
      "Ġrevealed": 3783,
      "Ġcircumcised": 3784,
      "Ġshepherds": 3785,
      "Ġforbid": 3786,
      "Ġbask": 3787,
      "Ġpursued": 3788,
      "Ġdigged": 3789,
      "Ġempty": 3790,
      "Ġdivers": 3791,
      "Ġinnocent": 3792,
      "Ġsteps": 3793,
      "ĠHeshbon": 3794,
      "Ġchronicles": 3795,
      "ack": 3796,
      "ares": 3797,
      "bel": 3798,
      "head": 3799,
      "kind": 3800,
      "pit": 3801,
      "wh": 3802,
      "wor": 3803,
      "Ġsim": 3804,
      "Ġmean": 3805,
      "Ġmira": 3806,
      "Ġfil": 3807,
      "Ġcaught": 3808,
      "Ġshar": 3809,
      "Ġfort": 3810,
      "ĠGath": 3811,
      "Ġshort": 3812,
      "erstood": 3813,
      "Ġhearing": 3814,
      "ĠPers": 3815,
      "Ġworketh": 3816,
      "Ġliber": 3817,
      "Ġletter": 3818,
      "Ġdew": 3819,
      "Ġknowing": 3820,
      "Ġchains": 3821,
      "Ġbroad": 3822,
      "ĠAmm": 3823,
      "Ġtribute": 3824,
      "Ġgrapes": 3825,
      "Ġimag": 3826,
      "Ġtemp": 3827,
      "standing": 3828,
      "Ġwaxed": 3829,
      "Ġbuilding": 3830,
      "Ġlamps": 3831,
      "forth": 3832,
      "Ġreceiveth": 3833,
      "Ġcontinue": 3834,
      "Ġcorner": 3835,
      "Ġremaineth": 3836,
      "Ġafflict": 3837,
      "Ġministered": 3838,
      "ĠHamath": 3839,
      "Ġstrait": 3840,
      "Ġpalm": 3841,
      "Ġchurches": 3842,
      "ĠJehoiakim": 3843,
      "Ġassembled": 3844,
      "arley": 3845,
      "ĠAhaziah": 3846,
      "Ġprevailed": 3847,
      "ĠTyre": 3848,
      "Ġcondemn": 3849,
      "Ġpurpose": 3850,
      "Ġdiligently": 3851,
      "ĠSinai": 3852,
      "ĠSihon": 3853,
      "Ġunderstood": 3854,
      "ĠKirj": 3855,
      "Ġvalour": 3856,
      "Ġcrucified": 3857,
      "Ġconfidence": 3858,
      "Ġcomforted": 3859,
      "Ġauthority": 3860,
      "Ġmirac": 3861,
      "oketh": 3862,
      "ti": 3863,
      "uz": 3864,
      "Ġhind": 3865,
      "Ġwounded": 3866,
      "Ġbarley": 3867,
      "Ġfly": 3868,
      "atch": 3869,
      "Ġnought": 3870,
      "ĠTurn": 3871,
      "entieth": 3872,
      "ury": 3873,
      "Ġtherewith": 3874,
      "ĠMatt": 3875,
      "empt": 3876,
      "ĠOh": 3877,
      "ĠCaleb": 3878,
      "Ġsolem": 3879,
      "Ġtwentieth": 3880,
      "Ġbreach": 3881,
      "avest": 3882,
      "ĠKad": 3883,
      "Ġsealed": 3884,
      "Ġwrong": 3885,
      "ullam": 3886,
      "Ġincl": 3887,
      "ĠPhilip": 3888,
      "Ġpreserve": 3889,
      "Ġkindred": 3890,
      "Ġpitch": 3891,
      "withstanding": 3892,
      "Ġtongues": 3893,
      "Ġinstead": 3894,
      "Ġdespise": 3895,
      "Ġstreet": 3896,
      "Ġtestimonies": 3897,
      "ĠRamah": 3898,
      "Ġrebellious": 3899,
      "Ġadversaries": 3900,
      "Ġrestore": 3901,
      "Ġtears": 3902,
      "Ġfourscore": 3903,
      "Ġfornication": 3904,
      "Ġsolemn": 3905,
      "EL": 3906,
      "fl": 3907,
      "ler": 3908,
      "tten": 3909,
      "eries": 3910,
      "Ġmeans": 3911,
      "ency": 3912,
      "oram": 3913,
      "Ġduke": 3914,
      "Ġnat": 3915,
      "Ġhallow": 3916,
      "ometh": 3917,
      "Ġeither": 3918,
      "Ġequ": 3919,
      "ĠJed": 3920,
      "Ġgoat": 3921,
      "iff": 3922,
      "Ġstay": 3923,
      "eman": 3924,
      "ĠWhom": 3925,
      "Ġproceed": 3926,
      "Ġwhereby": 3927,
      "Ġfolly": 3928,
      "Ġperceived": 3929,
      "Ġprecept": 3930,
      "Ġdism": 3931,
      "Ġsilence": 3932,
      "Ġfruitful": 3933,
      "Ġche": 3934,
      "Ġcourse": 3935,
      "Ġstatute": 3936,
      "Ġrebu": 3937,
      "Ġsabbaths": 3938,
      "Ġordained": 3939,
      "Ġwaited": 3940,
      "Ġpersu": 3941,
      "Ġoblation": 3942,
      "Ġdisplea": 3943,
      "Ġoverlaid": 3944,
      "Ġtravail": 3945,
      "Ġrespect": 3946,
      "AN": 3947,
      "For": 3948,
      "dra": 3949,
      "Ġea": 3950,
      "Ġhired": 3951,
      "Ġbus": 3952,
      "Ġbad": 3953,
      "Ġcun": 3954,
      "Ġuse": 3955,
      "idue": 3956,
      "ĠLeah": 3957,
      "ilah": 3958,
      "ĠHilk": 3959,
      "Ġletters": 3960,
      "ĠBeersh": 3961,
      "Ġbold": 3962,
      "ĠAsaph": 3963,
      "Ġfirstfru": 3964,
      "Ġexp": 3965,
      "Ġgracious": 3966,
      "Ġsacrificed": 3967,
      "Ġbesie": 3968,
      "Ġresidue": 3969,
      "Ġprovoked": 3970,
      "Ġtransgressed": 3971,
      "Ġrefused": 3972,
      "Ġdeceived": 3973,
      "Ġmessenger": 3974,
      "venture": 3975,
      "Ġenquired": 3976,
      "Ġcircumcision": 3977,
      "Ġrebelled": 3978,
      "Ġninth": 3979,
      "Ġastonished": 3980,
      "Ġcarcase": 3981,
      "Ġpatience": 3982,
      "Ġjealousy": 3983,
      "ourable": 3984,
      "Ġephah": 3985,
      "Ġlikeness": 3986,
      "Ġeag": 3987,
      "Ġcunning": 3988,
      "ĠHilkiah": 3989,
      "ĠBeersheba": 3990,
      "HE": 3991,
      "MIC": 3992,
      "aren": 3993,
      "ges": 3994,
      "god": 3995,
      "gran": 3996,
      "kam": 3997,
      "long": 3998,
      "phan": 3999,
      "Ġsel": 4000,
      "Ġhot": 4001,
      "Ġhire": 4002,
      "inn": 4003,
      "era": 4004,
      "ereas": 4005,
      "Ġbri": 4006,
      "Ġceased": 4007,
      "ĠAcc": 4008,
      "Ġdeter": 4009,
      "Ġpome": 4010,
      "Ġgavest": 4011,
      "Ġformed": 4012,
      "race": 4013,
      "odden": 4014,
      "Ġev": 4015,
      "Ġreckon": 4016,
      "ĠSham": 4017,
      "Ġanc": 4018,
      "ĠHere": 4019,
      "hib": 4020,
      "ĠMed": 4021,
      "ĠMach": 4022,
      "Ġstum": 4023,
      "alm": 4024,
      "ĠOur": 4025,
      "ĠObed": 4026,
      "ĠDid": 4027,
      "Ġlost": 4028,
      "Ġloving": 4029,
      "Ġlooketh": 4030,
      "Ġprice": 4031,
      "ĠJudas": 4032,
      "Ġgoodly": 4033,
      "ĠReb": 4034,
      "areth": 4035,
      "Ġenl": 4036,
      "Ġthank": 4037,
      "Ġturneth": 4038,
      "Ġharp": 4039,
      "Ġquest": 4040,
      "Ġclay": 4041,
      "ĠPhilistine": 4042,
      "Ġflame": 4043,
      "Ġinhabitant": 4044,
      "Ġwheels": 4045,
      "Ġbodies": 4046,
      "Ġinstruction": 4047,
      "Ġcontinual": 4048,
      "ĠAdam": 4049,
      "Ġpalaces": 4050,
      "Ġeighteen": 4051,
      "Ġjourneyed": 4052,
      "ĠOnly": 4053,
      "Ġseparated": 4054,
      "Ġporters": 4055,
      "Ġherds": 4056,
      "Ġexcellent": 4057,
      "Ġdeeds": 4058,
      "Ġprofane": 4059,
      "Ġfountain": 4060,
      "Ġhardened": 4061,
      "Ġencamped": 4062,
      "ĠShiloh": 4063,
      "ĠCarmel": 4064,
      "Ġvaliant": 4065,
      "Ġlaugh": 4066,
      "MICAH": 4067,
      "Ġdeterm": 4068,
      "Ġpomegran": 4069,
      "eus": 4070,
      "ging": 4071,
      "iers": 4072,
      "so": 4073,
      "test": 4074,
      "Ġsown": 4075,
      "Ġcord": 4076,
      "Ġcus": 4077,
      "Ġbeha": 4078,
      "Ġheat": 4079,
      "asha": 4080,
      "Ġwithal": 4081,
      "Ġmembers": 4082,
      "adventure": 4083,
      "Ġshine": 4084,
      "ĠIsaiah": 4085,
      "Ġspot": 4086,
      "Ġcave": 4087,
      "oks": 4088,
      "Ġloaves": 4089,
      "Ġloosed": 4090,
      "Ġgreatness": 4091,
      "Ġstore": 4092,
      "ĠAbisha": 4093,
      "icing": 4094,
      "Ġenough": 4095,
      "Ġtruly": 4096,
      "ĠSheba": 4097,
      "ĠKen": 4098,
      "Ġfoundations": 4099,
      "Ġtreacher": 4100,
      "Ġcauseth": 4101,
      "Ġpartak": 4102,
      "Ġwave": 4103,
      "Ġinhabited": 4104,
      "Ġsubj": 4105,
      "ship": 4106,
      "Ġcleanse": 4107,
      "Ġtrusted": 4108,
      "Ġfeasts": 4109,
      "ĠAdoni": 4110,
      "Ġdeceive": 4111,
      "Ġgrant": 4112,
      "Ġabundantly": 4113,
      "Ġbranch": 4114,
      "Ġrepented": 4115,
      "Ġgirded": 4116,
      "Ġrequire": 4117,
      "Ġfowl": 4118,
      "Ġtarried": 4119,
      "Ġsojourn": 4120,
      "Ġscripture": 4121,
      "Ġwhoredoms": 4122,
      "ĠGedaliah": 4123,
      "Ġmales": 4124,
      "Ġmemorial": 4125,
      "Ġfirstfruits": 4126,
      "aj": 4127,
      "cience": 4128,
      "dd": 4129,
      "ected": 4130,
      "gil": 4131,
      "hort": 4132,
      "oz": 4133,
      "pet": 4134,
      "xes": 4135,
      "thah": 4136,
      "Ġast": 4137,
      "Ġoint": 4138,
      "erus": 4139,
      "rezzar": 4140,
      "tous": 4141,
      "Ġfed": 4142,
      "Ġdue": 4143,
      "Ġbew": 4144,
      "Ġline": 4145,
      "Ġsakes": 4146,
      "Ġunright": 4147,
      "Ġungod": 4148,
      "Ġtast": 4149,
      "ĠLest": 4150,
      "arge": 4151,
      "ĠGet": 4152,
      "rieth": 4153,
      "Ġupper": 4154,
      "esty": 4155,
      "ĠMes": 4156,
      "Ġspices": 4157,
      "Ġspeed": 4158,
      "Ġspring": 4159,
      "Ġstayed": 4160,
      "Ġsayings": 4161,
      "Ġherit": 4162,
      "abas": 4163,
      "ĠNer": 4164,
      "ĠPut": 4165,
      "Ġsuck": 4166,
      "Ġprove": 4167,
      "ishon": 4168,
      "ĠZidon": 4169,
      "Ġperpet": 4170,
      "Ġalread": 4171,
      "Ġtremble": 4172,
      "Ġyounger": 4173,
      "Ġminist": 4174,
      "Ġborne": 4175,
      "Ġtestify": 4176,
      "Ġanswering": 4177,
      "suerus": 4178,
      "ĠNebuchadrezzar": 4179,
      "ĠAbiathar": 4180,
      "Ġbreastpl": 4181,
      "Ġhenceforth": 4182,
      "Ġhateth": 4183,
      "Ġdoub": 4184,
      "Ġfetch": 4185,
      "Ġawake": 4186,
      "Ġcurtains": 4187,
      "servant": 4188,
      "Ġintreat": 4189,
      "Ġpluck": 4190,
      "ĠAhasuerus": 4191,
      "Ġdismayed": 4192,
      "gilead": 4193,
      "Ġunrighteous": 4194,
      "Ġalready": 4195,
      "ias": 4196,
      "iar": 4197,
      "kin": 4198,
      "oah": 4199,
      "rings": 4200,
      "Ġsor": 4201,
      "Ġhan": 4202,
      "inadab": 4203,
      "erry": 4204,
      "Ġbid": 4205,
      "Ġmention": 4206,
      "ising": 4207,
      "ĠAho": 4208,
      "Ġdieth": 4209,
      "Ġpain": 4210,
      "Ġpity": 4211,
      "hand": 4212,
      "Ġless": 4213,
      "Ġwhir": 4214,
      "Ġgain": 4215,
      "Ġsand": 4216,
      "Ġtak": 4217,
      "ĠLam": 4218,
      "ĠLib": 4219,
      "Ġnobles": 4220,
      "asen": 4221,
      "ĠGom": 4222,
      "ĠGers": 4223,
      "Ġrender": 4224,
      "Ġmeek": 4225,
      "iling": 4226,
      "ĠHag": 4227,
      "ĠMaac": 4228,
      "ops": 4229,
      "ĠWilt": 4230,
      "Ġvows": 4231,
      "Ġabideth": 4232,
      "Ġknees": 4233,
      "Ġoverfl": 4234,
      "asters": 4235,
      "Ġputteth": 4236,
      "Ġaccount": 4237,
      "Ġcalleth": 4238,
      "Ġrob": 4239,
      "Ġexhort": 4240,
      "ĠKed": 4241,
      "Ġappare": 4242,
      "Ġalong": 4243,
      "ressed": 4244,
      "ĠWhose": 4245,
      "ĠWhoso": 4246,
      "Ġconsp": 4247,
      "Ġconscience": 4248,
      "Ġwalking": 4249,
      "Ġstandeth": 4250,
      "Ġtabernacles": 4251,
      "Ġcontra": 4252,
      "Ġarmed": 4253,
      "ĠUp": 4254,
      "ĠElam": 4255,
      "ileth": 4256,
      "ĠShaphan": 4257,
      "Ġcrying": 4258,
      "Ġwindows": 4259,
      "Ġhonourable": 4260,
      "Ġmarried": 4261,
      "ĠHearken": 4262,
      "Ġsoldiers": 4263,
      "Ġthanksg": 4264,
      "Ġburdens": 4265,
      "Ġseparate": 4266,
      "Ġcalf": 4267,
      "osheth": 4268,
      "Ġprevail": 4269,
      "Ġlearn": 4270,
      "Ġsprinkle": 4271,
      "Ġordinance": 4272,
      "Ġprovinces": 4273,
      "Ġfurnace": 4274,
      "ĠCaesar": 4275,
      "Ġdedic": 4276,
      "Ġthreshing": 4277,
      "kindness": 4278,
      "ĠAccording": 4279,
      "Ġlovingkindness": 4280,
      "ĠRebekah": 4281,
      "Ġdetermined": 4282,
      "Ġheritage": 4283,
      "Ġhanged": 4284,
      "ĠLamb": 4285,
      "ĠGershon": 4286,
      "EZ": 4287,
      "RA": 4288,
      "ax": 4289,
      "hud": 4290,
      "lw": 4291,
      "nest": 4292,
      "nabas": 4293,
      "rates": 4294,
      "yal": 4295,
      "together": 4296,
      "Ġmerry": 4297,
      "Ġcra": 4298,
      "Ġcross": 4299,
      "edient": 4300,
      "onia": 4301,
      "Ġdumb": 4302,
      "Ġheir": 4303,
      "ĠTir": 4304,
      "ĠTell": 4305,
      "ĠTars": 4306,
      "rage": 4307,
      "ĠJoram": 4308,
      "Ġkins": 4309,
      "ĠGe": 4310,
      "ĠSer": 4311,
      "ĠSav": 4312,
      "ĠHav": 4313,
      "ĠMen": 4314,
      "ĠWill": 4315,
      "ĠNun": 4316,
      "ĠPro": 4317,
      "Ġheave": 4318,
      "ĠCursed": 4319,
      "Ġatt": 4320,
      "Ġprover": 4321,
      "Ġwholly": 4322,
      "Ġbrasen": 4323,
      "ĠJeshua": 4324,
      "ĠZac": 4325,
      "Ġchapit": 4326,
      "Ġpraises": 4327,
      "Ġroyal": 4328,
      "Ġaltogether": 4329,
      "Ġreport": 4330,
      "Ġdepth": 4331,
      "Ġarms": 4332,
      "Ġrejected": 4333,
      "Ġdisciple": 4334,
      "Ġchose": 4335,
      "Ġcertainly": 4336,
      "ĠEsh": 4337,
      "ealth": 4338,
      "Ġsinging": 4339,
      "Ġcontinued": 4340,
      "Ġidol": 4341,
      "Ġterror": 4342,
      "Ġcreature": 4343,
      "ĠHananiah": 4344,
      "Ġaccepted": 4345,
      "ĠBarnabas": 4346,
      "Ġhumble": 4347,
      "Ġhumbled": 4348,
      "Ġvex": 4349,
      "Ġhungry": 4350,
      "Ġexecute": 4351,
      "Ġweap": 4352,
      "Ġcreeping": 4353,
      "ĠJephthah": 4354,
      "Ġmerchants": 4355,
      "ĠLikewise": 4356,
      "ĠPersia": 4357,
      "ĠKirjath": 4358,
      "Ġbusiness": 4359,
      "Ġwhirlw": 4360,
      "EZRA": 4361,
      "ĠSaviour": 4362,
      "Ġwhirlwind": 4363,
      "cip": 4364,
      "cust": 4365,
      "dle": 4366,
      "hish": 4367,
      "tles": 4368,
      "Ġthief": 4369,
      "Ġsort": 4370,
      "ination": 4371,
      "Ġwoe": 4372,
      "Ġbirth": 4373,
      "Ġcol": 4374,
      "Ġdung": 4375,
      "oman": 4376,
      "Ġgrew": 4377,
      "earer": 4378,
      "ĠGree": 4379,
      "ĠBara": 4380,
      "usion": 4381,
      "Ġseest": 4382,
      "Ġweek": 4383,
      "ours": 4384,
      "Ġplay": 4385,
      "ĠNaam": 4386,
      "Ġjew": 4387,
      "Ġlives": 4388,
      "Ġloose": 4389,
      "Ġlocust": 4390,
      "Ġovert": 4391,
      "ulation": 4392,
      "ĠShim": 4393,
      "Ġhundreds": 4394,
      "ĠAmnon": 4395,
      "Ġglorify": 4396,
      "ĠKorah": 4397,
      "Ġspiritual": 4398,
      "Ġprincip": 4399,
      "Ġfalleth": 4400,
      "Ġprud": 4401,
      "ĠLevite": 4402,
      "Ġuncover": 4403,
      "Ġbacks": 4404,
      "Ġcontent": 4405,
      "Ġpursue": 4406,
      "Ġuttermost": 4407,
      "ĠBaasha": 4408,
      "ĠWhile": 4409,
      "Ġdrawn": 4410,
      "Ġvalleys": 4411,
      "Ġobtained": 4412,
      "Ġfurther": 4413,
      "Ġmaking": 4414,
      "Ġanointing": 4415,
      "Ġerr": 4416,
      "ĠUriah": 4417,
      "ĠNazareth": 4418,
      "Ġcovetous": 4419,
      "Ġbeneath": 4420,
      "Ġperpetual": 4421,
      "Ġbreastplate": 4422,
      "Ġapparel": 4423,
      "Ġthanksgiving": 4424,
      "aw": 4425,
      "go": 4426,
      "ius": 4427,
      "pha": 4428,
      "salt": 4429,
      "Ġali": 4430,
      "ering": 4431,
      "Ġbest": 4432,
      "tone": 4433,
      "Ġmaj": 4434,
      "Ġpsalt": 4435,
      "anah": 4436,
      "Ġlame": 4437,
      "Ġeun": 4438,
      "Ġisles": 4439,
      "ĠGaz": 4440,
      "ĠBer": 4441,
      "Ġcomest": 4442,
      "Ġshittim": 4443,
      "Ġfault": 4444,
      "ĠMaced": 4445,
      "Ġspace": 4446,
      "ĠEx": 4447,
      "Ġweigh": 4448,
      "abel": 4449,
      "ĠOph": 4450,
      "ĠNah": 4451,
      "ĠCain": 4452,
      "Ġconv": 4453,
      "Ġeating": 4454,
      "ĠRep": 4455,
      "ications": 4456,
      "ĠEgyptian": 4457,
      "Ġworkers": 4458,
      "Ġperceive": 4459,
      "Ġlooking": 4460,
      "Ġquen": 4461,
      "ĠRej": 4462,
      "Ġcovereth": 4463,
      "ĠBenhad": 4464,
      "Ġcamest": 4465,
      "Ġjoyful": 4466,
      "Ġfindeth": 4467,
      "Ġjustice": 4468,
      "Ġtouching": 4469,
      "Ġgrief": 4470,
      "Ġwhithersoever": 4471,
      "ĠJohanan": 4472,
      "ĠHebrew": 4473,
      "ĠShallum": 4474,
      "ĠZeru": 4475,
      "ĠRamoth": 4476,
      "Ġforbear": 4477,
      "Ġbreasts": 4478,
      "Ġfishes": 4479,
      "ĠUzziah": 4480,
      "Ġrestored": 4481,
      "Ġbottom": 4482,
      "Ġdouble": 4483,
      "Ġpunishment": 4484,
      "Ġordinances": 4485,
      "Ġprovince": 4486,
      "Ġsummer": 4487,
      "Ġlanguage": 4488,
      "Ġtrodden": 4489,
      "Ġliberty": 4490,
      "Ġmiracles": 4491,
      "Ġungodly": 4492,
      "Ġmajesty": 4493,
      "Ġeunuch": 4494,
      "ĠBenhadad": 4495,
      "BA": 4496,
      "ook": 4497,
      "rite": 4498,
      "ura": 4499,
      "Ġz": 4500,
      "Ġthunder": 4501,
      "Ġwaves": 4502,
      "iss": 4503,
      "Ġclo": 4504,
      "Ġpi": 4505,
      "Ġle": 4506,
      "Ġunbel": 4507,
      "Ġform": 4508,
      "ĠSing": 4509,
      "ilty": 4510,
      "Ġmyst": 4511,
      "ushan": 4512,
      "Ġgoings": 4513,
      "ĠHus": 4514,
      "ĠHath": 4515,
      "ĠMine": 4516,
      "ĠMal": 4517,
      "Ġevermore": 4518,
      "ĠPeace": 4519,
      "Ġworse": 4520,
      "Ġcoals": 4521,
      "Ġboast": 4522,
      "Ġwhereon": 4523,
      "Ġpraised": 4524,
      "Ġblack": 4525,
      "Ġmoreover": 4526,
      "Ġperished": 4527,
      "Ġrobe": 4528,
      "Ġsmell": 4529,
      "Ġgiving": 4530,
      "Ġfourteen": 4531,
      "Ġhighway": 4532,
      "Ġadv": 4533,
      "ĠElis": 4534,
      "Ġconfusion": 4535,
      "Ġcharity": 4536,
      "Ġestim": 4537,
      "Ġtestified": 4538,
      "Ġtimber": 4539,
      "aseiah": 4540,
      "Ġforsook": 4541,
      "Ġpreaching": 4542,
      "Ġguilty": 4543,
      "Ġbonds": 4544,
      "Ġnevertheless": 4545,
      "Ġrunning": 4546,
      "Ġrepentance": 4547,
      "Ġwestward": 4548,
      "Ġseparation": 4549,
      "Ġwidows": 4550,
      "Ġrefuse": 4551,
      "Ġcourage": 4552,
      "ĠBaruch": 4553,
      "Ġrejoicing": 4554,
      "ĠNotwithstanding": 4555,
      "ĠAshd": 4556,
      "Ġmakest": 4557,
      "Ġexcellency": 4558,
      "Ġswallowed": 4559,
      "ĠHittite": 4560,
      "Ġkissed": 4561,
      "Ġtrembling": 4562,
      "Ġfinger": 4563,
      "Ġchange": 4564,
      "Ġaccomplished": 4565,
      "what": 4566,
      "Ġsharp": 4567,
      "Ġcords": 4568,
      "ĠAdonijah": 4569,
      "Ġointment": 4570,
      "Ġprincipal": 4571,
      "ĠMacedonia": 4572,
      "ĠZeruiah": 4573,
      "ES": 4574,
      "cil": 4575,
      "iam": 4576,
      "ni": 4577,
      "ood": 4578,
      "ug": 4579,
      "uph": 4580,
      "Ġsnow": 4581,
      "Ġble": 4582,
      "Ġbath": 4583,
      "Ġbough": 4584,
      "Ġmelt": 4585,
      "Ġfash": 4586,
      "Ġdim": 4587,
      "ĠLa": 4588,
      "rac": 4589,
      "ariah": 4590,
      "Ġwithered": 4591,
      "owers": 4592,
      "Ġrelea": 4593,
      "aded": 4594,
      "Ġgotten": 4595,
      "ĠHiv": 4596,
      "Ġste": 4597,
      "Ġstro": 4598,
      "Ġstub": 4599,
      "inehas": 4600,
      "ĠEk": 4601,
      "Ġcakes": 4602,
      "abad": 4603,
      "ĠOut": 4604,
      "Ġplains": 4605,
      "ĠDeb": 4606,
      "ĠDoth": 4607,
      "ĠDari": 4608,
      "Ġabound": 4609,
      "Ġprolong": 4610,
      "ishment": 4611,
      "Ġlack": 4612,
      "Ġcoat": 4613,
      "ĠRabb": 4614,
      "Ġrobb": 4615,
      "Ġfourteenth": 4616,
      "Ġmock": 4617,
      "otham": 4618,
      "ĠPhinehas": 4619,
      "Ġconsid": 4620,
      "Ġfellows": 4621,
      "Ġcontend": 4622,
      "Ġleaven": 4623,
      "Ġsomewhat": 4624,
      "ĠArnon": 4625,
      "Ġcouncil": 4626,
      "Ġcourts": 4627,
      "Ġministers": 4628,
      "ĠNebat": 4629,
      "Ġfulness": 4630,
      "ocation": 4631,
      "Ġrequest": 4632,
      "ĠMaaseiah": 4633,
      "Ġcalam": 4634,
      "Ġtempted": 4635,
      "Ġhunger": 4636,
      "Ġseemeth": 4637,
      "Ġshoot": 4638,
      "Ġsprinkled": 4639,
      "Ġlamentation": 4640,
      "Ġwillingly": 4641,
      "Ġlodge": 4642,
      "Ġbirds": 4643,
      "Ġoffended": 4644,
      "Ġswallow": 4645,
      "ĠJebusites": 4646,
      "Ġoccas": 4647,
      "ĠMeshullam": 4648,
      "Ġrecompense": 4649,
      "Ġrebuked": 4650,
      "Ġdispleased": 4651,
      "Ġeagle": 4652,
      "ĠAbishai": 4653,
      "Ġoverflow": 4654,
      "Ġjewels": 4655,
      "ĠRejoice": 4656,
      "ĠDarius": 4657,
      "NAH": 4658,
      "app": 4659,
      "ahaz": 4660,
      "de": 4661,
      "ele": 4662,
      "fold": 4663,
      "gro": 4664,
      "Ġed": 4665,
      "Ġthigh": 4666,
      "Ġack": 4667,
      "Ġward": 4668,
      "Ġwealth": 4669,
      "Ġfre": 4670,
      "Ġfame": 4671,
      "Ġfem": 4672,
      "Ġfirm": 4673,
      "enn": 4674,
      "Ġcent": 4675,
      "Ġins": 4676,
      "Ġpath": 4677,
      "Ġbef": 4678,
      "ĠIm": 4679,
      "Ġlots": 4680,
      "Ġtri": 4681,
      "ĠLach": 4682,
      "ĠTamar": 4683,
      "Ġemb": 4684,
      "oward": 4685,
      "ĠJotham": 4686,
      "Ġkine": 4687,
      "ĠGrace": 4688,
      "Ġrend": 4689,
      "Ġreven": 4690,
      "ĠSend": 4691,
      "Ġfroward": 4692,
      "ĠMah": 4693,
      "Ġsteal": 4694,
      "Ġdogs": 4695,
      "Ġamb": 4696,
      "iezer": 4697,
      "ĠCom": 4698,
      "Ġusury": 4699,
      "Ġearnest": 4700,
      "Ġlose": 4701,
      "Ġcommon": 4702,
      "Ġswift": 4703,
      "Ġplagues": 4704,
      "Ġbringing": 4705,
      "ubb": 4706,
      "Ġbegotten": 4707,
      "Ġprayers": 4708,
      "Ġseal": 4709,
      "Ġswords": 4710,
      "Ġbald": 4711,
      "Ġbowls": 4712,
      "izz": 4713,
      "Ġvisions": 4714,
      "Ġmarry": 4715,
      "Ġhelped": 4716,
      "Ġskins": 4717,
      "Ġnorthward": 4718,
      "Ġbeareth": 4719,
      "Ġapart": 4720,
      "Ġstream": 4721,
      "Ġsickness": 4722,
      "Ġforehead": 4723,
      "Ġoppression": 4724,
      "peh": 4725,
      "hemesh": 4726,
      "Ġcruel": 4727,
      "ĠZerah": 4728,
      "Ġdeny": 4729,
      "Ġfigs": 4730,
      "Ġcedars": 4731,
      "Ġpersecute": 4732,
      "Ġsynagogues": 4733,
      "Ġgroves": 4734,
      "Ġdeceitful": 4735,
      "ĠMidianites": 4736,
      "Ġninety": 4737,
      "servants": 4738,
      "Ġlusts": 4739,
      "Ġoverthrow": 4740,
      "ĠAmalekites": 4741,
      "Ġbarren": 4742,
      "ĠTimoth": 4743,
      "ĠBoaz": 4744,
      "Ġvoid": 4745,
      "Ġbridegro": 4746,
      "Ġtithes": 4747,
      "ĠJabesh": 4748,
      "ĠDeliver": 4749,
      "Ġapproach": 4750,
      "Ġprecepts": 4751,
      "Ġself": 4752,
      "ĠGomor": 4753,
      "Ġcontrary": 4754,
      "Ġdedicated": 4755,
      "ĠTarshish": 4756,
      "Ġprudent": 4757,
      "ĠMalch": 4758,
      "Ġfashion": 4759,
      "ĠEkron": 4760,
      "Ġacknow": 4761,
      "Ġfemale": 4762,
      "Ġcenturi": 4763,
      "ĠLachish": 4764,
      "Ġbridegroom": 4765,
      "fth": 4766,
      "fast": 4767,
      "ffect": 4768,
      "len": 4769,
      "lings": 4770,
      "use": 4771,
      "zah": 4772,
      "Ġhun": 4773,
      "Ġwin": 4774,
      "erah": 4775,
      "ism": 4776,
      "eneth": 4777,
      "edfast": 4778,
      "onite": 4779,
      "Ġdar": 4780,
      "Ġdear": 4781,
      "Ġpull": 4782,
      "eac": 4783,
      "ealo": 4784,
      "Ġwhereas": 4785,
      "stra": 4786,
      "Ġtum": 4787,
      "ases": 4788,
      "Ġeffect": 4789,
      "ĠSu": 4790,
      "ĠSis": 4791,
      "ĠSil": 4792,
      "Ġmyr": 4793,
      "adan": 4794,
      "ĠHiram": 4795,
      "ĠMar": 4796,
      "ĠMak": 4797,
      "Ġstedfast": 4798,
      "rous": 4799,
      "Ġamaz": 4800,
      "ĠForasmuch": 4801,
      "ĠPar": 4802,
      "Ġconvers": 4803,
      "Ġlovers": 4804,
      "Ġhasted": 4805,
      "Ġdeb": 4806,
      "Ġstor": 4807,
      "ĠJehor": 4808,
      "Ġcalling": 4809,
      "ĠAbel": 4810,
      "Ġheavenly": 4811,
      "ubile": 4812,
      "Ġprophec": 4813,
      "fection": 4814,
      "Ġrocks": 4815,
      "ĠSheb": 4816,
      "ebel": 4817,
      "ĠYour": 4818,
      "Ġwickedly": 4819,
      "Ġfeeb": 4820,
      "Ġbesto": 4821,
      "Ġquar": 4822,
      "Ġclear": 4823,
      "Ġfifteen": 4824,
      "Ġmultitudes": 4825,
      "Ġsubdu": 4826,
      "Ġgenealo": 4827,
      "ĠJehoahaz": 4828,
      "Ġtwelfth": 4829,
      "Ġsalute": 4830,
      "Ġwinds": 4831,
      "Ġabominable": 4832,
      "Ġteaching": 4833,
      "Ġsouthward": 4834,
      "ĠAssyri": 4835,
      "Ġreconc": 4836,
      "Ġwhoso": 4837,
      "Ġkilleth": 4838,
      "Ġgrown": 4839,
      "Ġguide": 4840,
      "ĠAmmonites": 4841,
      "Ġmatters": 4842,
      "Ġacceptable": 4843,
      "Ġvisited": 4844,
      "ĠJezebel": 4845,
      "ĠLook": 4846,
      "ĠHazael": 4847,
      "Ġshields": 4848,
      "Ġadulter": 4849,
      "JOEL": 4850,
      "ĠMizpah": 4851,
      "ĠMizpeh": 4852,
      "Ġplucked": 4853,
      "Ġpublic": 4854,
      "Ġstirred": 4855,
      "ĠPerizz": 4856,
      "Ġmarvelled": 4857,
      "Ġmarvellous": 4858,
      "ĠCyrus": 4859,
      "Ġpronounce": 4860,
      "Ġbasket": 4861,
      "Ġequal": 4862,
      "Ġbesieged": 4863,
      "Ġancient": 4864,
      "ĠMachir": 4865,
      "Ġstumble": 4866,
      "Ġpomegranates": 4867,
      "Ġtreacherously": 4868,
      "Ġestimation": 4869,
      "Ġblew": 4870,
      "ĠJehoram": 4871,
      "AM": 4872,
      "DIAH": 4873,
      "ON": 4874,
      "OBA": 4875,
      "gr": 4876,
      "time": 4877,
      "ys": 4878,
      "tha": 4879,
      "Ġhin": 4880,
      "eroth": 4881,
      "Ġoft": 4882,
      "Ġbru": 4883,
      "Ġmor": 4884,
      "Ġmom": 4885,
      "Ġfir": 4886,
      "Ġcr": 4887,
      "edom": 4888,
      "ont": 4889,
      "Ġpar": 4890,
      "hai": 4891,
      "omi": 4892,
      "Ġshaken": 4893,
      "Ġwhor": 4894,
      "Ġglean": 4895,
      "immon": 4896,
      "veth": 4897,
      "ution": 4898,
      "ĠThine": 4899,
      "riage": 4900,
      "ĠBil": 4901,
      "Ġsaidst": 4902,
      "Ġsever": 4903,
      "ĠHas": 4904,
      "ĠMel": 4905,
      "hood": 4906,
      "alon": 4907,
      "Ġhadst": 4908,
      "ĠOg": 4909,
      "Ġpledge": 4910,
      "ĠCall": 4911,
      "Ġnecess": 4912,
      "Ġused": 4913,
      "Ġjubile": 4914,
      "Ġworm": 4915,
      "Ġgall": 4916,
      "Ġsinneth": 4917,
      "Ġstoned": 4918,
      "icians": 4919,
      "Ġsetteth": 4920,
      "Ġroof": 4921,
      "ĠAmas": 4922,
      "ĠKish": 4923,
      "Ġmerchand": 4924,
      "Ġpool": 4925,
      "Ġdiscern": 4926,
      "Ġdiscovered": 4927,
      "Ġconsent": 4928,
      "Ġbearing": 4929,
      "ĠElk": 4930,
      "ĠEphes": 4931,
      "Ġdefence": 4932,
      "Ġrecover": 4933,
      "Ġneighbours": 4934,
      "Ġcompanions": 4935,
      "Ġmourned": 4936,
      "upon": 4937,
      "Ġsorrows": 4938,
      "Ġvict": 4939,
      "Ġbaptism": 4940,
      "Ġrequired": 4941,
      "Ġgovernors": 4942,
      "ĠZerubb": 4943,
      "Ġcoup": 4944,
      "Ġbitterness": 4945,
      "Ġadversary": 4946,
      "Ġvexed": 4947,
      "ĠTyrus": 4948,
      "Ġvirgins": 4949,
      "Ġlearned": 4950,
      "Ġcarcases": 4951,
      "ĠStand": 4952,
      "Ġbrightness": 4953,
      "ĠHittites": 4954,
      "Ġinfirm": 4955,
      "baal": 4956,
      "ĠNabal": 4957,
      "ĠNaboth": 4958,
      "Ġperverse": 4959,
      "ĠKeep": 4960,
      "Ġconcubine": 4961,
      "Ġovercome": 4962,
      "Ġtempest": 4963,
      "Ġreckoned": 4964,
      "Ġpartakers": 4965,
      "Ġastray": 4966,
      "Ġtaste": 4967,
      "Ġministry": 4968,
      "ĠAshdod": 4969,
      "Ġoccasion": 4970,
      "Ġtumult": 4971,
      "OBADIAH": 4972,
      "Ġmoment": 4973,
      "Ġmerchandise": 4974,
      "ĠZerubbabel": 4975,
      "IN": 4976,
      "bread": 4977,
      "com": 4978,
      "flo": 4979,
      "fts": 4980,
      "gar": 4981,
      "kk": 4982,
      "uah": 4983,
      "Ġow": 4984,
      "Ġoak": 4985,
      "Ġorac": 4986,
      "rews": 4987,
      "Ġmus": 4988,
      "Ġmasters": 4989,
      "Ġfain": 4990,
      "Ġdan": 4991,
      "Ġdun": 4992,
      "Ġparen": 4993,
      "Ġpeac": 4994,
      "Ġtoken": 4995,
      "eable": 4996,
      "Ġlew": 4997,
      "Ġlarge": 4998,
      "omuch": 4999,
      "ĠTob": 5000,
      "Ġthereby": 5001,
      "Ġasunder": 5002,
      "Ġtheirs": 5003,
      "Ġseer": 5004,
      "ĠHu": 5005,
      "ifer": 5006,
      "aketh": 5007,
      "ĠEuph": 5008,
      "ĠOm": 5009,
      "Ġplent": 5010,
      "Ġtwined": 5011,
      "Ġorn": 5012,
      "isheth": 5013,
      "Ġgreatest": 5014,
      "ĠBefore": 5015,
      "Ġaccus": 5016,
      "Ġsinner": 5017,
      "ĠZo": 5018,
      "ĠRab": 5019,
      "rank": 5020,
      "ĠAsia": 5021,
      "Ġpertain": 5022,
      "Ġperadventure": 5023,
      "ĠShushan": 5024,
      "neh": 5025,
      "Ġsawest": 5026,
      "Ġended": 5027,
      "Ġhigher": 5028,
      "Ġkeeper": 5029,
      "Ġkeepers": 5030,
      "Ġtribulation": 5031,
      "Ġgraves": 5032,
      "Ġmocked": 5033,
      "Ġdrinking": 5034,
      "aias": 5035,
      "Ġrested": 5036,
      "Ġopeneth": 5037,
      "Ġsixteen": 5038,
      "Ġstronger": 5039,
      "ĠEliab": 5040,
      "Ġchoice": 5041,
      "Ġholds": 5042,
      "ĠEsaias": 5043,
      "ĠMany": 5044,
      "Ġhusbandmen": 5045,
      "ĠHebrews": 5046,
      "Ġdreams": 5047,
      "Ġfulfil": 5048,
      "ichri": 5049,
      "Ġfalsely": 5050,
      "Ġcorruption": 5051,
      "Ġperformed": 5052,
      "Ġgroan": 5053,
      "Ġastonishment": 5054,
      "Ġexecuted": 5055,
      "Ġsupplications": 5056,
      "Ġcondemned": 5057,
      "Ġshoes": 5058,
      "JONAH": 5059,
      "Ġlodged": 5060,
      "ophel": 5061,
      "ĠNaomi": 5062,
      "Ġscriptures": 5063,
      "ĠAchish": 5064,
      "Ġtrembled": 5065,
      "Ġmagnified": 5066,
      "Ġsafely": 5067,
      "ĠBethshemesh": 5068,
      "ĠArab": 5069,
      "ĠIthamar": 5070,
      "Ġcounsellors": 5071,
      "Ġunrighteousness": 5072,
      "Ġweapons": 5073,
      "Ġmystery": 5074,
      "Ġrelease": 5075,
      "Ġcenturion": 5076,
      "Ġdarken": 5077,
      "ĠSisera": 5078,
      "Ġamazed": 5079,
      "Ġprophecy": 5080,
      "ĠElkanah": 5081,
      "Ġparents": 5082,
      "Ġlewd": 5083,
      "ĠEuphrates": 5084,
      "bearer": 5085,
      "cer": 5086,
      "dan": 5087,
      "ez": 5088,
      "icks": 5089,
      "ixt": 5090,
      "just": 5091,
      "oll": 5092,
      "pence": 5093,
      "rison": 5094,
      "ued": 5095,
      "thophel": 5096,
      "top": 5097,
      "Ġfeareth": 5098,
      "Ġcens": 5099,
      "ory": 5100,
      "ĠAp": 5101,
      "ĠAth": 5102,
      "Ġpots": 5103,
      "ited": 5104,
      "Ġlend": 5105,
      "Ġgat": 5106,
      "Ġhew": 5107,
      "Ġheifer": 5108,
      "Ġunp": 5109,
      "Ġtro": 5110,
      "Ġtried": 5111,
      "veh": 5112,
      "Ġforasmuch": 5113,
      "eturn": 5114,
      "ĠSet": 5115,
      "ĠBu": 5116,
      "Ġthereto": 5117,
      "ahel": 5118,
      "Ġshin": 5119,
      "Ġsongs": 5120,
      "Ġfav": 5121,
      "ĠHel": 5122,
      "ifieth": 5123,
      "ĠEden": 5124,
      "Ġvile": 5125,
      "Ġplow": 5126,
      "Ġplayed": 5127,
      "ĠNine": 5128,
      "ĠNadab": 5129,
      "Ġheaps": 5130,
      "oted": 5131,
      "ardon": 5132,
      "Ġcommend": 5133,
      "Ġaccursed": 5134,
      "Ġswine": 5135,
      "Ġshoulders": 5136,
      "ĠJehi": 5137,
      "ĠZim": 5138,
      "Ġwhereunto": 5139,
      "ĠReturn": 5140,
      "Ġworking": 5141,
      "Ġblot": 5142,
      "ĠAsk": 5143,
      "Ġfold": 5144,
      "Ġenvy": 5145,
      "Ġroots": 5146,
      "Ġdisob": 5147,
      "achin": 5148,
      "Ġlaws": 5149,
      "Ġexam": 5150,
      "Ġride": 5151,
      "Ġscour": 5152,
      "Ġaloud": 5153,
      "habiah": 5154,
      "Ġhowl": 5155,
      "Ġsheweth": 5156,
      "Ġentereth": 5157,
      "Ġharps": 5158,
      "Ġflower": 5159,
      "Ġbeard": 5160,
      "Ġconfirm": 5161,
      "Ġelder": 5162,
      "Ġworshipp": 5163,
      "Ġesteem": 5164,
      "Ġredempt": 5165,
      "ails": 5166,
      "Ġnamely": 5167,
      "Ġtransgressors": 5168,
      "ĠHezron": 5169,
      "Ġstrive": 5170,
      "Ġprisoners": 5171,
      "Ġdreamed": 5172,
      "Ġsecretly": 5173,
      "ĠAhim": 5174,
      "ĠAhijah": 5175,
      "ĠAhikam": 5176,
      "ĠAhithophel": 5177,
      "Ġpasture": 5178,
      "ĠAbijah": 5179,
      "Ġsearched": 5180,
      "Ġhabitations": 5181,
      "Ġfreew": 5182,
      "Ġbeautiful": 5183,
      "Ġrecompence": 5184,
      "ĠNethaniah": 5185,
      "Ġbelongeth": 5186,
      "Ġinwards": 5187,
      "Ġeleventh": 5188,
      "Ġwonderful": 5189,
      "ĠEthiopia": 5190,
      "Ġhypocrites": 5191,
      "Ġfiery": 5192,
      "Ġmurmur": 5193,
      "Ġmurderer": 5194,
      "Ġsimple": 5195,
      "Ġfilth": 5196,
      "Ġhallowed": 5197,
      "Ġpersuaded": 5198,
      "ĠObededom": 5199,
      "Ġcustom": 5200,
      "Ġdoubt": 5201,
      "Ġtaking": 5202,
      "ĠSeraiah": 5203,
      "ĠHaving": 5204,
      "Ġproverb": 5205,
      "Ġeunuchs": 5206,
      "Ġsteward": 5207,
      "Ġconversation": 5208,
      "Ġfeeble": 5209,
      "Ġsubdued": 5210,
      "Ġredemption": 5211,
      "crib": 5212,
      "chab": 5213,
      "day": 5214,
      "dition": 5215,
      "ijah": 5216,
      "mite": 5217,
      "oa": 5218,
      "press": 5219,
      "ua": 5220,
      "Ġes": 5221,
      "Ġease": 5222,
      "Ġsie": 5223,
      "Ġsigh": 5224,
      "Ġbal": 5225,
      "Ġbone": 5226,
      "Ġfra": 5227,
      "ene": 5228,
      "Ġdire": 5229,
      "Ġdrank": 5230,
      "Ġpardon": 5231,
      "Ġnest": 5232,
      "Ġnour": 5233,
      "itess": 5234,
      "Ġlower": 5235,
      "Ġghost": 5236,
      "Ġunjust": 5237,
      "imes": 5238,
      "ĠLift": 5239,
      "Ġforce": 5240,
      "arrow": 5241,
      "aroth": 5242,
      "irt": 5243,
      "Ġwithhold": 5244,
      "ĠThose": 5245,
      "earim": 5246,
      "ĠGather": 5247,
      "riel": 5248,
      "ĠSan": 5249,
      "ĠShob": 5250,
      "ĠSidon": 5251,
      "roth": 5252,
      "Ġfaileth": 5253,
      "ĠMep": 5254,
      "Ġspent": 5255,
      "Ġstumb": 5256,
      "Ġdove": 5257,
      "Ġherb": 5258,
      "Ġvowed": 5259,
      "Ġoffence": 5260,
      "ĠPre": 5261,
      "ĠCast": 5262,
      "ccoth": 5263,
      "Ġearthqu": 5264,
      "Ġdeals": 5265,
      "ĠZib": 5266,
      "Ġmightest": 5267,
      "Ġenj": 5268,
      "Ġraven": 5269,
      "ĠShel": 5270,
      "ĠAmon": 5271,
      "Ġring": 5272,
      "Ġcasting": 5273,
      "Ġdwellest": 5274,
      "Ġmouths": 5275,
      "Ġstandard": 5276,
      "Ġharm": 5277,
      "Ġlean": 5278,
      "Ġleaves": 5279,
      "Ġleague": 5280,
      "Ġkindle": 5281,
      "Ġclothing": 5282,
      "Ġthrown": 5283,
      "ĠMoabites": 5284,
      "ĠWhither": 5285,
      "ĠAnath": 5286,
      "ĠAnti": 5287,
      "Ġslayer": 5288,
      "Ġlaboured": 5289,
      "Ġsisters": 5290,
      "Ġdespiseth": 5291,
      "Ġcommitteth": 5292,
      "Ġuprightness": 5293,
      "Ġfaithfulness": 5294,
      "Ġinstructed": 5295,
      "Ġfoolishness": 5296,
      "Ġdenied": 5297,
      "Ġelect": 5298,
      "Ġpersecuted": 5299,
      "ĠHazor": 5300,
      "Ġbottles": 5301,
      "Ġfloods": 5302,
      "Ġpurposed": 5303,
      "Ġpotter": 5304,
      "ĠHaran": 5305,
      "Ġkiss": 5306,
      "Ġtorment": 5307,
      "Ġbetrayed": 5308,
      "Ġmagnify": 5309,
      "Ġsafety": 5310,
      "Ġmedit": 5311,
      "Ġascended": 5312,
      "Ġmurmured": 5313,
      "Ġdescended": 5314,
      "Ġdragon": 5315,
      "Ġquestion": 5316,
      "ĠMesha": 5317,
      "Ġspeedily": 5318,
      "ĠAholi": 5319,
      "Ġconspired": 5320,
      "Ġthreshingflo": 5321,
      "Ġcovetousness": 5322,
      "ĠGaza": 5323,
      "ĠRamothgilead": 5324,
      "Ġlegs": 5325,
      "Ġcalamity": 5326,
      "Ġbefall": 5327,
      "ĠGomorrah": 5328,
      "ĠSuccoth": 5329,
      "Ġwhoring": 5330,
      "Ġdarkened": 5331,
      "ĠAntioch": 5332,
      "HA": 5333,
      "jearim": 5334,
      "land": 5335,
      "nings": 5336,
      "pa": 5337,
      "though": 5338,
      "inims": 5339,
      "Ġwages": 5340,
      "Ġbade": 5341,
      "Ġbush": 5342,
      "Ġmel": 5343,
      "Ġcy": 5344,
      "Ġcro": 5345,
      "Ġcatch": 5346,
      "orted": 5347,
      "edience": 5348,
      "Ġder": 5349,
      "Ġdishon": 5350,
      "hal": 5351,
      "eab": 5352,
      "iteth": 5353,
      "aneel": 5354,
      "omer": 5355,
      "Ġtry": 5356,
      "leep": 5357,
      "ĠTw": 5358,
      "ĠTab": 5359,
      "ĠTeman": 5360,
      "ĠTHE": 5361,
      "aring": 5362,
      "rice": 5363,
      "Ġrever": 5364,
      "ĠSir": 5365,
      "ĠSad": 5366,
      "ĠBre": 5367,
      "keh": 5368,
      "Ġfran": 5369,
      "ushi": 5370,
      "Ġmanna": 5371,
      "Ġshea": 5372,
      "ĠHore": 5373,
      "ĠMag": 5374,
      "ĠIsraelites": 5375,
      "ĠEz": 5376,
      "cken": 5377,
      "Ġherbs": 5378,
      "geon": 5379,
      "Ġnecks": 5380,
      "Ġhoof": 5381,
      "Ġhooks": 5382,
      "atha": 5383,
      "Ġcold": 5384,
      "Ġcolt": 5385,
      "Ġcock": 5386,
      "vily": 5387,
      "area": 5388,
      "Ġwhomsoever": 5389,
      "ĠAsahel": 5390,
      "Ġenv": 5391,
      "Ġburneth": 5392,
      "Ġrage": 5393,
      "Ġexerc": 5394,
      "Ġturning": 5395,
      "Ġrow": 5396,
      "agon": 5397,
      "Ġpraying": 5398,
      "hama": 5399,
      "Ġshewbread": 5400,
      "Ġmiddle": 5401,
      "Ġconsol": 5402,
      "Ġyoungest": 5403,
      "Ġbase": 5404,
      "Ġnights": 5405,
      "Ġfifteenth": 5406,
      "Ġlayeth": 5407,
      "Ġwinepress": 5408,
      "ĠElip": 5409,
      "Ġfloor": 5410,
      "ĠManoah": 5411,
      "Ġcourses": 5412,
      "Ġfamiliar": 5413,
      "Ġmarriage": 5414,
      "Ġbackward": 5415,
      "hazzar": 5416,
      "Ġreprove": 5417,
      "Ġbreaking": 5418,
      "ĠAnak": 5419,
      "Ġfastened": 5420,
      "Ġstricken": 5421,
      "Ġpresented": 5422,
      "ĠBaalim": 5423,
      "neys": 5424,
      "Ġsounded": 5425,
      "Ġobtain": 5426,
      "Ġsorrowful": 5427,
      "Ġmaidens": 5428,
      "Ġcalves": 5429,
      "ĠUntil": 5430,
      "Ġapostle": 5431,
      "Ġbasons": 5432,
      "ĠUzziel": 5433,
      "Ġkidneys": 5434,
      "ĠMicaiah": 5435,
      "Ġfetched": 5436,
      "airs": 5437,
      "ĠSeeing": 5438,
      "Ġhanging": 5439,
      "Ġhangings": 5440,
      "ĠNethinims": 5441,
      "Ġarmourbearer": 5442,
      "ĠKeilah": 5443,
      "ĠMichal": 5444,
      "Ġwander": 5445,
      "Ġignorance": 5446,
      "Ġcommuned": 5447,
      "work": 5448,
      "ANS": 5449,
      "Ġintreated": 5450,
      "ĠLibnah": 5451,
      "ĠMaachah": 5452,
      "ĠUpon": 5453,
      "ĠTirzah": 5454,
      "ĠKirjathjearim": 5455,
      "Ġbathe": 5456,
      "Ġboughs": 5457,
      "Ġstubble": 5458,
      "Ġstorm": 5459,
      "ĠPerizzites": 5460,
      "ĠOmri": 5461,
      "ĠNineveh": 5462,
      "ĠJehiel": 5463,
      "OS": 5464,
      "PH": 5465,
      "cah": 5466,
      "cense": 5467,
      "don": 5468,
      "ever": 5469,
      "ection": 5470,
      "rh": 5471,
      "ss": 5472,
      "uish": 5473,
      "uals": 5474,
      "ze": 5475,
      "Ġthres": 5476,
      "Ġbud": 5477,
      "Ġfit": 5478,
      "isions": 5479,
      "ences": 5480,
      "Ġcrieth": 5481,
      "ĠAro": 5482,
      "Ġdi": 5483,
      "Ġdrin": 5484,
      "Ġdiff": 5485,
      "hari": 5486,
      "Ġhewn": 5487,
      "stri": 5488,
      "ĠGre": 5489,
      "Ġrel": 5490,
      "Ġshore": 5491,
      "Ġshot": 5492,
      "aum": 5493,
      "Ġstabl": 5494,
      "ĠFo": 5495,
      "Ġdog": 5496,
      "ĠDep": 5497,
      "Ġtwain": 5498,
      "Ġtwice": 5499,
      "Ġbreaketh": 5500,
      "Ġdeg": 5501,
      "Ġputting": 5502,
      "igail": 5503,
      "Ġboil": 5504,
      "Ġboard": 5505,
      "ĠAbigail": 5506,
      "Ġbuck": 5507,
      "Ġworkman": 5508,
      "Ġblam": 5509,
      "Ġpertained": 5510,
      "Ġdesir": 5511,
      "ĠShould": 5512,
      "obah": 5513,
      "Ġprevent": 5514,
      "Ġexc": 5515,
      "Ġexpe": 5516,
      "Ġanguish": 5517,
      "ĠAmram": 5518,
      "Ġjudgeth": 5519,
      "Ġrush": 5520,
      "Ġcasteth": 5521,
      "Ġdwellings": 5522,
      "Ġgathereth": 5523,
      "oths": 5524,
      "Ġconsult": 5525,
      "Ġuncle": 5526,
      "Ġuncovered": 5527,
      "Ġcompl": 5528,
      "ffering": 5529,
      "lothful": 5530,
      "ĠRechab": 5531,
      "Ġbowl": 5532,
      "Ġlonger": 5533,
      "Ġlongsu": 5534,
      "Ġpurcha": 5535,
      "ĠElah": 5536,
      "ĠJehoash": 5537,
      "arah": 5538,
      "Ġdread": 5539,
      "Ġcharger": 5540,
      "Ġdivisions": 5541,
      "Ġuttered": 5542,
      "Ġestate": 5543,
      "Ġrejoiceth": 5544,
      "Ġstature": 5545,
      "Ġtrusteth": 5546,
      "Ġhidden": 5547,
      "Ġreproof": 5548,
      "Ġhusbands": 5549,
      "Ġfatness": 5550,
      "Ġfasting": 5551,
      "Ġstripes": 5552,
      "Ġcompanies": 5553,
      "Ġdesireth": 5554,
      "Ġbondmen": 5555,
      "hathite": 5556,
      "Ġwatchman": 5557,
      "Ġmaidservant": 5558,
      "Ġpunished": 5559,
      "Ġprosperity": 5560,
      "Ġtowers": 5561,
      "Ġleper": 5562,
      "Ġgrove": 5563,
      "Ġhatred": 5564,
      "ĠSarai": 5565,
      "Ġfellowship": 5566,
      "Ġhealth": 5567,
      "Ġthirsty": 5568,
      "Ġflowers": 5569,
      "ĠEliashib": 5570,
      "ĠBelial": 5571,
      "urious": 5572,
      "ĠCaesarea": 5573,
      "Ġtorn": 5574,
      "Ġvoices": 5575,
      "Ġhappy": 5576,
      "Ġconcubines": 5577,
      "Ġignorant": 5578,
      "Ġfilthy": 5579,
      "Ġfortress": 5580,
      "Ġhinder": 5581,
      "ĠKadesh": 5582,
      "Ġsubject": 5583,
      "kincense": 5584,
      "Ġkinsman": 5585,
      "Ġattend": 5586,
      "Ġdepths": 5587,
      "ĠNaaman": 5588,
      "Ġovertake": 5589,
      "Ġbacksl": 5590,
      "Ġweighed": 5591,
      "ĠNahor": 5592,
      "ĠElishama": 5593,
      "Ġfreely": 5594,
      "Ġfirmament": 5595,
      "Ġinsomuch": 5596,
      "ĠTimotheus": 5597,
      "Ġacknowledge": 5598,
      "Ġmyrrh": 5599,
      "Ġpublicans": 5600,
      "ĠEphesus": 5601,
      "Ġvictuals": 5602,
      "Ġoracle": 5603,
      "Ġlewdness": 5604,
      "ĠAthaliah": 5605,
      "Ġfreewill": 5606,
      "Ġsiege": 5607,
      "Ġstumbling": 5608,
      "Ġthreshingfloor": 5609,
      "Ġcymb": 5610,
      "Ġfrankincense": 5611,
      "ĠHoreb": 5612,
      "Ġthreshold": 5613,
      "ĠAroer": 5614,
      "Ġdrinketh": 5615,
      "ĠDepart": 5616,
      "Ġlongsuffering": 5617,
      "IANS": 5618,
      "geth": 5619,
      "hear": 5620,
      "mit": 5621,
      "ris": 5622,
      "tion": 5623,
      "Ġill": 5624,
      "Ġrans": 5625,
      "thood": 5626,
      "Ġthie": 5627,
      "Ġsurn": 5628,
      "Ġslothful": 5629,
      "Ġwra": 5630,
      "Ġoften": 5631,
      "tool": 5632,
      "Ġmill": 5633,
      "Ġcop": 5634,
      "esthood": 5635,
      "Ġinv": 5636,
      "Ġinte": 5637,
      "haiah": 5638,
      "Ġnay": 5639,
      "itus": 5640,
      "itub": 5641,
      "Ġhaught": 5642,
      "ĠLy": 5643,
      "vel": 5644,
      "Ġforces": 5645,
      "uty": 5646,
      "arn": 5647,
      "Ġisland": 5648,
      "irmed": 5649,
      "Ġwithdra": 5650,
      "ĠGa": 5651,
      "ĠGesh": 5652,
      "Ġrene": 5653,
      "ĠSave": 5654,
      "ĠBes": 5655,
      "ility": 5656,
      "Ġasleep": 5657,
      "Ġcomely": 5658,
      "Ġsevent": 5659,
      "ĠHur": 5660,
      "ĠHeth": 5661,
      "ĠHeman": 5662,
      "Ġsprings": 5663,
      "Ġstuff": 5664,
      "Ġoutward": 5665,
      "ĠEb": 5666,
      "ĠEg": 5667,
      "Ġagre": 5668,
      "Ġheav": 5669,
      "ĠCap": 5670,
      "ĠCons": 5671,
      "Ġnether": 5672,
      "Ġsoever": 5673,
      "Ġdefe": 5674,
      "aleel": 5675,
      "Ġpriesthood": 5676,
      "umm": 5677,
      "quet": 5678,
      "Ġaccord": 5679,
      "ĠRise": 5680,
      "ĠRimmon": 5681,
      "Ġfoots": 5682,
      "Ġens": 5683,
      "ernaum": 5684,
      "Ġdeliverance": 5685,
      "ĠAmariah": 5686,
      "Ġrows": 5687,
      "Ġspeakest": 5688,
      "unneh": 5689,
      "Ġslow": 5690,
      "Ġbloody": 5691,
      "Ġhowbeit": 5692,
      "attereth": 5693,
      "Ġrepair": 5694,
      "ĠWhatsoever": 5695,
      "azar": 5696,
      "Ġpreserved": 5697,
      "Ġsixty": 5698,
      "Ġbetwixt": 5699,
      "Ġclothe": 5700,
      "Ġdevices": 5701,
      "ifying": 5702,
      "Ġwindow": 5703,
      "Ġreserved": 5704,
      "Ġsuffic": 5705,
      "Ġhideth": 5706,
      "Ġteacheth": 5707,
      "Ġwasted": 5708,
      "Ġrefresh": 5709,
      "Ġminds": 5710,
      "Ġstraw": 5711,
      "Ġneeds": 5712,
      "shakeh": 5713,
      "Ġobedient": 5714,
      "Ġportions": 5715,
      "ĠAlas": 5716,
      "Ġacqu": 5717,
      "place": 5718,
      "ĠAhimelech": 5719,
      "ĠReubenites": 5720,
      "ĠIshb": 5721,
      "Ġbases": 5722,
      "Ġtemptation": 5723,
      "Ġcandle": 5724,
      "Ġsepulchres": 5725,
      "Ġparables": 5726,
      "Ġseemed": 5727,
      "Ġspears": 5728,
      "Ġblasphemed": 5729,
      "Ġpublish": 5730,
      "ĠSalute": 5731,
      "Ġoverthrown": 5732,
      "Ġepist": 5733,
      "ĠJephunneh": 5734,
      "Ġavenged": 5735,
      "Ġbanquet": 5736,
      "Ġabhorred": 5737,
      "Ġroaring": 5738,
      "Ġproclaimed": 5739,
      "Ġdragons": 5740,
      "ĠMattaniah": 5741,
      "Ġcheer": 5742,
      "Ġevid": 5743,
      "Ġenlar": 5744,
      "Ġchapiters": 5745,
      "Ġlocusts": 5746,
      "ĠExcept": 5747,
      "Ġconvocation": 5748,
      "Ġquenched": 5749,
      "Ġzeal": 5750,
      "Ġunbelief": 5751,
      "ĠHivites": 5752,
      "Ġconsidered": 5753,
      "Ġearnestly": 5754,
      "Ġwinter": 5755,
      "grity": 5756,
      "ĠMelch": 5757,
      "ĠAmasa": 5758,
      "Ġmusick": 5759,
      "ĠRabshakeh": 5760,
      "Ġfilthiness": 5761,
      "Ġearthquake": 5762,
      "ĠZiba": 5763,
      "ĠAnathoth": 5764,
      "Ġexpect": 5765,
      "Ġcymbals": 5766,
      "Ġransom": 5767,
      "Ġthieves": 5768,
      "Ġintegrity": 5769,
      "Ġseventeen": 5770,
      "ĠCapernaum": 5771,
      "Ġfootstool": 5772,
      "GA": 5773,
      "aaz": 5774,
      "ahath": 5775,
      "di": 5776,
      "dal": 5777,
      "ech": 5778,
      "fer": 5779,
      "kl": 5780,
      "king": 5781,
      "leness": 5782,
      "nan": 5783,
      "olt": 5784,
      "pan": 5785,
      "rors": 5786,
      "same": 5787,
      "uous": 5788,
      "ukes": 5789,
      "zur": 5790,
      "zabad": 5791,
      "Ġthin": 5792,
      "Ġafore": 5793,
      "Ġsed": 5794,
      "Ġscept": 5795,
      "Ġwre": 5796,
      "Ġwing": 5797,
      "erxes": 5798,
      "rees": 5799,
      "Ġber": 5800,
      "Ġbab": 5801,
      "Ġmire": 5802,
      "Ġmirth": 5803,
      "Ġcart": 5804,
      "edne": 5805,
      "Ġdukes": 5806,
      "Ġpet": 5807,
      "Ġpound": 5808,
      "Ġpip": 5809,
      "Ġpatter": 5810,
      "Ġpressed": 5811,
      "itre": 5812,
      "ĠIz": 5813,
      "Ġwide": 5814,
      "Ġgn": 5815,
      "Ġsailed": 5816,
      "Ġturt": 5817,
      "ĠLazar": 5818,
      "Ġnoon": 5819,
      "Ġnostri": 5820,
      "rain": 5821,
      "rained": 5822,
      "ods": 5823,
      "iriam": 5824,
      "ĠJok": 5825,
      "ĠJaph": 5826,
      "ĠGer": 5827,
      "ĠGreat": 5828,
      "ĠGosh": 5829,
      "Ġuphold": 5830,
      "Ġreins": 5831,
      "ĠBani": 5832,
      "ĠHos": 5833,
      "ĠMil": 5834,
      "ĠMiriam": 5835,
      "Ġstar": 5836,
      "Ġstam": 5837,
      "ptist": 5838,
      "Ġoffereth": 5839,
      "ĠPe": 5840,
      "ĠConc": 5841,
      "Ġsober": 5842,
      "Ġsoft": 5843,
      "Ġlocks": 5844,
      "Ġproved": 5845,
      "lock": 5846,
      "Ġoverse": 5847,
      "Ġbecometh": 5848,
      "Ġarches": 5849,
      "Ġbrims": 5850,
      "ĠBez": 5851,
      "ĠHeber": 5852,
      "Ġprivily": 5853,
      "Ġlaver": 5854,
      "Ġaccuse": 5855,
      "Ġdeaf": 5856,
      "Ġstopped": 5857,
      "ĠAbedne": 5858,
      "areah": 5859,
      "Ġbeholding": 5860,
      "Ġeng": 5861,
      "Ġbeget": 5862,
      "Ġdisease": 5863,
      "lives": 5864,
      "Ġscor": 5865,
      "meel": 5866,
      "melech": 5867,
      "Ġshewing": 5868,
      "Ġthirteen": 5869,
      "aioth": 5870,
      "Ġentry": 5871,
      "Ġfalling": 5872,
      "Ġdiscover": 5873,
      "Ġgodly": 5874,
      "Ġgodliness": 5875,
      "Ġcontempt": 5876,
      "Ġwars": 5877,
      "Ġwailing": 5878,
      "Ġopenly": 5879,
      "Ġflatter": 5880,
      "Ġpossible": 5881,
      "Ġbuilders": 5882,
      "ĠBethan": 5883,
      "Ġwheel": 5884,
      "ĠEliakim": 5885,
      "ĠEliezer": 5886,
      "Ġfolloweth": 5887,
      "Ġsendeth": 5888,
      "aradan": 5889,
      "Ġdevise": 5890,
      "ĠShadra": 5891,
      "aanah": 5892,
      "Ġresist": 5893,
      "ĠBaptist": 5894,
      "ĠHold": 5895,
      "ĠNebuz": 5896,
      "Ġfasted": 5897,
      "Ġminded": 5898,
      "Ġbeam": 5899,
      "Ġfores": 5900,
      "ĠWherein": 5901,
      "Ġreproached": 5902,
      "Ġrode": 5903,
      "Ġrods": 5904,
      "Ġtrespassed": 5905,
      "Ġincreaseth": 5906,
      "ĠAhitub": 5907,
      "Ġsnares": 5908,
      "Ġwondered": 5909,
      "Ġwondrous": 5910,
      "Ġhairs": 5911,
      "Ġvisitation": 5912,
      "Ġregion": 5913,
      "ĠSeven": 5914,
      "Ġflourish": 5915,
      "Ġsojourneth": 5916,
      "Ġenchan": 5917,
      "Ġinterpre": 5918,
      "Ġmagicians": 5919,
      "Ġchamberl": 5920,
      "ĠArtax": 5921,
      "Ġshouting": 5922,
      "Ġbottle": 5923,
      "Ġdiligent": 5924,
      "Ġregardeth": 5925,
      "Ġuncircumcision": 5926,
      "Ġsoweth": 5927,
      "Ġpatient": 5928,
      "Ġbrooks": 5929,
      "Ġprofaned": 5930,
      "ĠHadad": 5931,
      "ĠZikl": 5932,
      "Ġoverlay": 5933,
      "Ġfountains": 5934,
      "ĠKohathites": 5935,
      "Ġavenge": 5936,
      "ĠJahaz": 5937,
      "ĠMichael": 5938,
      "Ġwounds": 5939,
      "Ġoccup": 5940,
      "Ġfingers": 5941,
      "Ġbaskets": 5942,
      "Ġshortly": 5943,
      "Ġbreaches": 5944,
      "Ġnatura": 5945,
      "hibosheth": 5946,
      "Ġgranted": 5947,
      "ĠHagar": 5948,
      "ĠProph": 5949,
      "ĠZachari": 5950,
      "Ġweeks": 5951,
      "Ġselfsame": 5952,
      "Ġgenealogy": 5953,
      "ĠHashabiah": 5954,
      "ĠTobiah": 5955,
      "ĠZimri": 5956,
      "ĠAhimaaz": 5957,
      "Ġesp": 5958,
      "Ġdirect": 5959,
      "ĠMephibosheth": 5960,
      "Ġenjoy": 5961,
      "ĠMeshach": 5962,
      "Ġderision": 5963,
      "Ġconsolation": 5964,
      "ĠEliphaz": 5965,
      "Ġblameless": 5966,
      "Ġpattern": 5967,
      "ĠLazarus": 5968,
      "Ġnostrils": 5969,
      "ĠGoshen": 5970,
      "ĠConcerning": 5971,
      "Ġbrimstone": 5972,
      "ĠAbednego": 5973,
      "ĠShadrach": 5974,
      "ĠNebuzaradan": 5975,
      "ĠArtaxerxes": 5976,
      "ĠZiklag": 5977,
      "ER": 5978,
      "ded": 5979,
      "ether": 5980,
      "gah": 5981,
      "hur": 5982,
      "night": 5983,
      "ock": 5984,
      "pare": 5985,
      "wake": 5986,
      "ware": 5987,
      "Ġeas": 5988,
      "Ġthund": 5989,
      "Ġwag": 5990,
      "rel": 5991,
      "Ġbag": 5992,
      "Ġborrow": 5993,
      "Ġmain": 5994,
      "ater": 5995,
      "edan": 5996,
      "ĠAwake": 5997,
      "Ġdash": 5998,
      "Ġph": 5999,
      "Ġpsal": 6000,
      "Ġpals": 6001,
      "Ġpowers": 6002,
      "eafter": 6003,
      "ĠIdd": 6004,
      "Ġshave": 6005,
      "Ġsafe": 6006,
      "uting": 6007,
      "uteth": 6008,
      "ĠTru": 6009,
      "ĠTek": 6010,
      "Ġemer": 6011,
      "arry": 6012,
      "aments": 6013,
      "verty": 6014,
      "cees": 6015,
      "ĠGersh": 6016,
      "ĠSit": 6017,
      "ĠShi": 6018,
      "ĠBet": 6019,
      "uring": 6020,
      "ila": 6021,
      "ander": 6022,
      "rovers": 6023,
      "adiah": 6024,
      "ĠHash": 6025,
      "ĠMat": 6026,
      "Ġspies": 6027,
      "Ġstate": 6028,
      "Ġstick": 6029,
      "Ġstiff": 6030,
      "osing": 6031,
      "Ġplaced": 6032,
      "ĠDec": 6033,
      "ĠDib": 6034,
      "ĠPed": 6035,
      "ĠPash": 6036,
      "ĠPekah": 6037,
      "Ġhealing": 6038,
      "Ġconver": 6039,
      "Ġconceive": 6040,
      "Ġwentest": 6041,
      "Ġliver": 6042,
      "ĠWhether": 6043,
      "Ġarch": 6044,
      "ĠBeware": 6045,
      "ĠJerub": 6046,
      "umph": 6047,
      "umber": 6048,
      "Ġcoats": 6049,
      "Ġaccused": 6050,
      "Ġstoop": 6051,
      "Ġstolen": 6052,
      "ĠZel": 6053,
      "Ġchaff": 6054,
      "Ġdelic": 6055,
      "ĠShun": 6056,
      "Ġfirstling": 6057,
      "Ġscall": 6058,
      "Ġalms": 6059,
      "Ġdestroying": 6060,
      "Ġruin": 6061,
      "Ġruleth": 6062,
      "Ġmidnight": 6063,
      "Ġpoverty": 6064,
      "Ġlightnings": 6065,
      "Ġcontrovers": 6066,
      "ildo": 6067,
      "Ġclave": 6068,
      "Ġbows": 6069,
      "spring": 6070,
      "Ġleavened": 6071,
      "ĠBethhor": 6072,
      "Ġpurged": 6073,
      "Ġseeking": 6074,
      "Ġsurety": 6075,
      "Ġwisely": 6076,
      "Ġsending": 6077,
      "Ġwool": 6078,
      "Ġeldest": 6079,
      "Ġtestament": 6080,
      "Ġremaining": 6081,
      "Ġrebel": 6082,
      "hazi": 6083,
      "Ġteachers": 6084,
      "ĠCanaanite": 6085,
      "Ġspreadeth": 6086,
      "lemiah": 6087,
      "Ġoppressor": 6088,
      "Ġsupper": 6089,
      "Ġassemble": 6090,
      "Ġriseth": 6091,
      "Ġrewarded": 6092,
      "Ġfalsehood": 6093,
      "ĠHermon": 6094,
      "ĠGadites": 6095,
      "ĠChaldees": 6096,
      "uthun": 6097,
      "ĠAmorite": 6098,
      "Ġrevolt": 6099,
      "Ġdelighteth": 6100,
      "Ġhitherto": 6101,
      "Ġleadeth": 6102,
      "Ġcorrupted": 6103,
      "Ġwearied": 6104,
      "Ġdistrib": 6105,
      "Ġtalent": 6106,
      "Ġshouted": 6107,
      "hash": 6108,
      "ĠKnowing": 6109,
      "Ġblasphemy": 6110,
      "ĠSix": 6111,
      "Ġgroweth": 6112,
      "Ġadded": 6113,
      "ĠNethaneel": 6114,
      "ĠZiph": 6115,
      "ĠBela": 6116,
      "Ġpurify": 6117,
      "Ġcreepeth": 6118,
      "Ġencamp": 6119,
      "Ġfrogs": 6120,
      "Ġbank": 6121,
      "ĠJebusite": 6122,
      "Ġdrop": 6123,
      "Ġmerchant": 6124,
      "Ġaccomplish": 6125,
      "ducees": 6126,
      "Ġtithe": 6127,
      "Ġreacheth": 6128,
      "Ġconsecrated": 6129,
      "Ġpronounced": 6130,
      "Ġimagination": 6131,
      "ĠJeduthun": 6132,
      "Ġcheek": 6133,
      "Ġbadgers": 6134,
      "Ġevildo": 6135,
      "ĠMedes": 6136,
      "Ġquestions": 6137,
      "Ġsubjection": 6138,
      "Ġbeware": 6139,
      "Ġsorry": 6140,
      "Ġbidden": 6141,
      "ĠEsht": 6142,
      "Ġvexation": 6143,
      "Ġcolour": 6144,
      "ĠGreeks": 6145,
      "ĠBarak": 6146,
      "Ġpsalteries": 6147,
      "Ġclose": 6148,
      "ĠHushai": 6149,
      "Ġdimin": 6150,
      "ĠDebir": 6151,
      "Ġtriumph": 6152,
      "Ġbestowed": 6153,
      "Ġplenteous": 6154,
      "Ġornaments": 6155,
      "Ġfavoured": 6156,
      "ĠAholib": 6157,
      "Ġcrooked": 6158,
      "ĠTwo": 6159,
      "ĠSadducees": 6160,
      "Ġdiffer": 6161,
      "Ġwrapped": 6162,
      "ĠConsider": 6163,
      "Ġdefend": 6164,
      "Ġepistle": 6165,
      "Ġexpectation": 6166,
      "Ġsceptre": 6167,
      "Ġgnash": 6168,
      "ĠIddo": 6169,
      "ĠGershom": 6170,
      "ĠPashur": 6171,
      "ĠJerubbaal": 6172,
      "ĠBethhoron": 6173,
      "GGA": 6174,
      "US": 6175,
      "ahab": 6176,
      "cham": 6177,
      "gu": 6178,
      "hum": 6179,
      "nath": 6180,
      "pents": 6181,
      "side": 6182,
      "tieth": 6183,
      "viour": 6184,
      "Ġrough": 6185,
      "Ġiv": 6186,
      "Ġthrice": 6187,
      "Ġax": 6188,
      "Ġoven": 6189,
      "Ġwist": 6190,
      "Ġwol": 6191,
      "Ġmitre": 6192,
      "enai": 6193,
      "Ġcake": 6194,
      "onour": 6195,
      "Ġpress": 6196,
      "eam": 6197,
      "Ġnur": 6198,
      "Ġnets": 6199,
      "Ġnarrow": 6200,
      "ĠAndrew": 6201,
      "Ġwhel": 6202,
      "Ġsad": 6203,
      "Ġhewed": 6204,
      "ĠTitus": 6205,
      "raw": 6206,
      "aration": 6207,
      "ĠThrough": 6208,
      "aming": 6209,
      "ĠJeth": 6210,
      "ĠJah": 6211,
      "ĠJop": 6212,
      "ĠJair": 6213,
      "ĠGol": 6214,
      "ĠGitt": 6215,
      "ripp": 6216,
      "ĠSome": 6217,
      "ĠSenn": 6218,
      "estus": 6219,
      "Ġmantle": 6220,
      "Ġmanservant": 6221,
      "ĠHod": 6222,
      "ĠHinn": 6223,
      "ĠHonour": 6224,
      "ification": 6225,
      "ĠMi": 6226,
      "ĠMich": 6227,
      "ĠEber": 6228,
      "Ġago": 6229,
      "ĠFestus": 6230,
      "eopard": 6231,
      "Ġcaus": 6232,
      "ĠOlives": 6233,
      "Ġplenty": 6234,
      "ĠDagon": 6235,
      "ĠDraw": 6236,
      "Ġabs": 6237,
      "Ġkneel": 6238,
      "Ġserpents": 6239,
      "Ġliar": 6240,
      "Ġloops": 6241,
      "Ġhole": 6242,
      "ĠWhence": 6243,
      "pphi": 6244,
      "quare": 6245,
      "Ġswell": 6246,
      "Ġcommandeth": 6247,
      "Ġbroughtest": 6248,
      "ĠRib": 6249,
      "ĠRuth": 6250,
      "ĠAbinadab": 6251,
      "Ġmightier": 6252,
      "Ġchain": 6253,
      "Ġchased": 6254,
      "Ġblast": 6255,
      "Ġanswereth": 6256,
      "Ġsmiteth": 6257,
      "Ġowner": 6258,
      "Ġdelivereth": 6259,
      "Ġdiss": 6260,
      "Ġdiseas": 6261,
      "Ġexac": 6262,
      "ĠAmong": 6263,
      "ĠAmoz": 6264,
      "Ġgiants": 6265,
      "Ġotherwise": 6266,
      "ĠKareah": 6267,
      "Ġalm": 6268,
      "Ġhighest": 6269,
      "Ġruled": 6270,
      "Ġbetroth": 6271,
      "Ġmove": 6272,
      "aileth": 6273,
      "Ġfearful": 6274,
      "ortal": 6275,
      "Ġreigneth": 6276,
      "Ġcarved": 6277,
      "Ġcarpent": 6278,
      "Ġlighted": 6279,
      "Ġlightning": 6280,
      "azer": 6281,
      "hanaim": 6282,
      "ĠUr": 6283,
      "itude": 6284,
      "Ġfully": 6285,
      "ĠRez": 6286,
      "Ġlamp": 6287,
      "Ġpossessions": 6288,
      "Ġleap": 6289,
      "Ġpurge": 6290,
      "ĠEphron": 6291,
      "ĠNetop": 6292,
      "Ġconfirmed": 6293,
      "Ġgarrison": 6294,
      "ĠCanst": 6295,
      "Ġvinegar": 6296,
      "Ġdrave": 6297,
      "ĠNebo": 6298,
      "hadd": 6299,
      "ĠHamor": 6300,
      "Ġguilt": 6301,
      "Ġcompanion": 6302,
      "Ġpromises": 6303,
      "Ġprisoner": 6304,
      "Ġlabours": 6305,
      "Ġabundant": 6306,
      "ushed": 6307,
      "ĠEdomites": 6308,
      "Ġvanities": 6309,
      "ĠPharisee": 6310,
      "Ġprospered": 6311,
      "ĠHannah": 6312,
      "ĠMahanaim": 6313,
      "Ġafflictions": 6314,
      "ĠAgag": 6315,
      "ĠSeek": 6316,
      "ĠRemaliah": 6317,
      "Ġgreet": 6318,
      "Ġprofitable": 6319,
      "Ġerror": 6320,
      "Ġcandlesticks": 6321,
      "acherib": 6322,
      "Ġcleaveth": 6323,
      "ĠEthiopians": 6324,
      "Ġconsecrate": 6325,
      "Ġfierc": 6326,
      "Ġcounsellor": 6327,
      "ĠAmminadab": 6328,
      "Ġinclined": 6329,
      "ĠJedaiah": 6330,
      "Ġboldly": 6331,
      "ĠShamm": 6332,
      "Ġlaughed": 6333,
      "Ġbehalf": 6334,
      "Ġmeekness": 6335,
      "ĠGezer": 6336,
      "Ġchapiter": 6337,
      "Ġalien": 6338,
      "Ġpsaltery": 6339,
      "ĠOphir": 6340,
      "ission": 6341,
      "Ġstrove": 6342,
      "ĠRabbah": 6343,
      "Ġrobbed": 6344,
      "Ġambass": 6345,
      "ĠSilas": 6346,
      "ĠMartha": 6347,
      "ĠAssyrian": 6348,
      "Ġdungeon": 6349,
      "Ġtroop": 6350,
      "Ġdisobedient": 6351,
      "Ġmeditate": 6352,
      "HAGGA": 6353,
      "Ġmelted": 6354,
      "eably": 6355,
      "Ġreverence": 6356,
      "ĠMagdal": 6357,
      "Ġconsulted": 6358,
      "Ġstumblingb": 6359,
      "ĠGeshur": 6360,
      "ĠEglon": 6361,
      "Ġheaviness": 6362,
      "Ġsufficient": 6363,
      "Ġberea": 6364,
      "Ġpetition": 6365,
      "Ġenchant": 6366,
      "Ġnatural": 6367,
      "Ġpalsy": 6368,
      "Ġcontroversy": 6369,
      "Ġivory": 6370,
      "ĠJoppa": 6371,
      "ĠSennacherib": 6372,
      "ĠHinnom": 6373,
      "ĠMichm": 6374,
      "Ġdiseases": 6375,
      "HAGGAI": 6376,
      "eck": 6377,
      "fare": 6378,
      "fty": 6379,
      "gad": 6380,
      "gidd": 6381,
      "hites": 6382,
      "iation": 6383,
      "mo": 6384,
      "tai": 6385,
      "yx": 6386,
      "zill": 6387,
      "the": 6388,
      "Ġav": 6389,
      "Ġaud": 6390,
      "iners": 6391,
      "eres": 6392,
      "rez": 6393,
      "Ġbount": 6394,
      "tory": 6395,
      "Ġmist": 6396,
      "Ġmeal": 6397,
      "Ġfou": 6398,
      "Ġfea": 6399,
      "Ġcaul": 6400,
      "esy": 6401,
      "edee": 6402,
      "oniah": 6403,
      "ĠAc": 6404,
      "ĠAcha": 6405,
      "Ġdem": 6406,
      "Ġparted": 6407,
      "Ġtooth": 6408,
      "omas": 6409,
      "Ġsaving": 6410,
      "Ġsadd": 6411,
      "Ġsapphi": 6412,
      "Ġunaw": 6413,
      "imoth": 6414,
      "ĠLame": 6415,
      "Ġnose": 6416,
      "utation": 6417,
      "Ġhiss": 6418,
      "ĠThomas": 6419,
      "elon": 6420,
      "Ġkin": 6421,
      "thers": 6422,
      "ĠGeba": 6423,
      "Ġfailed": 6424,
      "ĠMo": 6425,
      "Ġspy": 6426,
      "Ġspared": 6427,
      "ĠEr": 6428,
      "ĠEbed": 6429,
      "Ġdoves": 6430,
      "Ġvest": 6431,
      "Ġvic": 6432,
      "Ġvines": 6433,
      "Ġoffspring": 6434,
      "Ġyours": 6435,
      "ĠNim": 6436,
      "ĠNone": 6437,
      "ĠDest": 6438,
      "ĠDedan": 6439,
      "geons": 6440,
      "ĠPen": 6441,
      "ĠPel": 6442,
      "ĠPray": 6443,
      "rung": 6444,
      "ĠCor": 6445,
      "Ġsole": 6446,
      "Ġearrings": 6447,
      "Ġservile": 6448,
      "Ġours": 6449,
      "ishua": 6450,
      "Ġpassing": 6451,
      "akest": 6452,
      "ĠJerah": 6453,
      "ppeth": 6454,
      "athite": 6455,
      "ĠZab": 6456,
      "ĠZalm": 6457,
      "ĠZichri": 6458,
      "Ġwatered": 6459,
      "Ġwatched": 6460,
      "Ġmules": 6461,
      "ica": 6462,
      "arezer": 6463,
      "Ġworkmen": 6464,
      "Ġheardest": 6465,
      "Ġbegun": 6466,
      "Ġgivest": 6467,
      "Ġrid": 6468,
      "unna": 6469,
      "rows": 6470,
      "Ġrum": 6471,
      "Ġgrape": 6472,
      "Ġreported": 6473,
      "ĠPharez": 6474,
      "Ġentreat": 6475,
      "Ġclust": 6476,
      "Ġadmon": 6477,
      "Ġcamel": 6478,
      "Ġcursing": 6479,
      "Ġspoon": 6480,
      "Ġspoons": 6481,
      "Ġholden": 6482,
      "ĠNeph": 6483,
      "Ġchew": 6484,
      "Ġdevised": 6485,
      "Ġcounsels": 6486,
      "Ġdivination": 6487,
      "Ġtroubles": 6488,
      "Ġskirt": 6489,
      "ĠAnah": 6490,
      "ĠAnani": 6491,
      "ĠJonas": 6492,
      "ĠJonadab": 6493,
      "ĠShephat": 6494,
      "Ġstrike": 6495,
      "Ġstripped": 6496,
      "Ġneedle": 6497,
      "Ġdeparting": 6498,
      "Ġbeams": 6499,
      "Ġsickle": 6500,
      "Ġforef": 6501,
      "Ġterrors": 6502,
      "Ġobedience": 6503,
      "Ġfootmen": 6504,
      "Ġtrespasses": 6505,
      "Ġwatchmen": 6506,
      "Ġuprightly": 6507,
      "ĠZebah": 6508,
      "ĠZebedee": 6509,
      "Ġseasons": 6510,
      "Ġcreatures": 6511,
      "ĠHanan": 6512,
      "Ġreasoned": 6513,
      "Ġsnuff": 6514,
      "ĠAgripp": 6515,
      "Ġdelighted": 6516,
      "Ġfoolishly": 6517,
      "Ġdraweth": 6518,
      "ĠAbihu": 6519,
      "Ġcouple": 6520,
      "ĠBarzill": 6521,
      "Ġdamn": 6522,
      "ĠSyrian": 6523,
      "Ġquicken": 6524,
      "Ġsojourned": 6525,
      "Ġofficer": 6526,
      "ĠOrnan": 6527,
      "Ġmaker": 6528,
      "Ġgardens": 6529,
      "Ġshook": 6530,
      "Ġfinish": 6531,
      "Ġerred": 6532,
      "Ġweaned": 6533,
      "Ġhyss": 6534,
      "ZEPH": 6535,
      "ĠEnoch": 6536,
      "Ġflowing": 6537,
      "Ġfloweth": 6538,
      "Ġoverthrew": 6539,
      "ĠHadarezer": 6540,
      "Ġchasten": 6541,
      "Ġbelonged": 6542,
      "Ġpurified": 6543,
      "Ġpurifying": 6544,
      "Ġcrucify": 6545,
      "Ġdrove": 6546,
      "Ġrolled": 6547,
      "ĠNazar": 6548,
      "Ġhappened": 6549,
      "Ġwaxen": 6550,
      "ĠMegidd": 6551,
      "Ġsimil": 6552,
      "Ġimagine": 6553,
      "Ġcondemnation": 6554,
      "Ġincline": 6555,
      "Ġpitcher": 6556,
      "Ġnature": 6557,
      "ANIAH": 6558,
      "Ġbriers": 6559,
      "Ġcusto": 6560,
      "Ġaccounted": 6561,
      "Ġrobber": 6562,
      "ĠKedar": 6563,
      "ĠKedesh": 6564,
      "ĠGehazi": 6565,
      "Ġcolours": 6566,
      "ĠGreek": 6567,
      "Ġstreams": 6568,
      "ĠJabeshgilead": 6569,
      "Ġhunt": 6570,
      "Ġseveral": 6571,
      "Ġcoupled": 6572,
      "Ġinfirmities": 6573,
      "ING": 6574,
      "Ġfainted": 6575,
      "ĠHuram": 6576,
      "Ġcenser": 6577,
      "Ġscourge": 6578,
      "ĠPrepare": 6579,
      "ĠBrethren": 6580,
      "Ġbacksliding": 6581,
      "Ġmills": 6582,
      "Ġacquaint": 6583,
      "ĠIshbosheth": 6584,
      "Ġwreath": 6585,
      "Ġengra": 6586,
      "ĠBetter": 6587,
      "Ġarchers": 6588,
      "Ġevildoers": 6589,
      "Ġdifference": 6590,
      "Ġfierceness": 6591,
      "Ġambassad": 6592,
      "ĠMagdalene": 6593,
      "Ġaudience": 6594,
      "eresoever": 6595,
      "Ġunawares": 6596,
      "ĠLamech": 6597,
      "Ġvictory": 6598,
      "ĠZalmunna": 6599,
      "ĠShephatiah": 6600,
      "ĠAgrippa": 6601,
      "ĠBarzillai": 6602,
      "Ġhyssop": 6603,
      "ZEPHANIAH": 6604,
      "TH": 6605,
      "TI": 6606,
      "but": 6607,
      "cing": 6608,
      "cur": 6609,
      "cari": 6610,
      "dy": 6611,
      "fo": 6612,
      "hite": 6613,
      "heba": 6614,
      "ipp": 6615,
      "ially": 6616,
      "ker": 6617,
      "lers": 6618,
      "ration": 6619,
      "rising": 6620,
      "sight": 6621,
      "taroth": 6622,
      "zeb": 6623,
      "Ġere": 6624,
      "Ġsowed": 6625,
      "Ġhomer": 6626,
      "Ġod": 6627,
      "inoam": 6628,
      "reh": 6629,
      "Ġbak": 6630,
      "took": 6631,
      "isdom": 6632,
      "Ġcud": 6633,
      "ĠAph": 6634,
      "ĠAram": 6635,
      "Ġdress": 6636,
      "Ġpins": 6637,
      "Ġpenn": 6638,
      "Ġtops": 6639,
      "ealeth": 6640,
      "itions": 6641,
      "Ġbend": 6642,
      "ĠIb": 6643,
      "Ġwiz": 6644,
      "ann": 6645,
      "anna": 6646,
      "Ġhalt": 6647,
      "Ġlev": 6648,
      "Ġyest": 6649,
      "Ġuns": 6650,
      "idron": 6651,
      "ĠLay": 6652,
      "utish": 6653,
      "chiah": 6654,
      "ĠTerah": 6655,
      "Ġwither": 6656,
      "amed": 6657,
      "cele": 6658,
      "ĠJazer": 6659,
      "erechiah": 6660,
      "ĠSep": 6661,
      "ĠSuff": 6662,
      "ĠBaths": 6663,
      "Ġasketh": 6664,
      "Ġseats": 6665,
      "ĠHim": 6666,
      "ĠHosh": 6667,
      "ĠHapp": 6668,
      "hich": 6669,
      "ĠIscari": 6670,
      "ĠMark": 6671,
      "Ġspit": 6672,
      "Ġspend": 6673,
      "Ġspeck": 6674,
      "ophe": 6675,
      "ĠEp": 6676,
      "ĠWell": 6677,
      "ĠWatch": 6678,
      "ĠWrite": 6679,
      "ĠWisdom": 6680,
      "udah": 6681,
      "Ġhandle": 6682,
      "emuel": 6683,
      "oking": 6684,
      "ĠOpen": 6685,
      "ĠDin": 6686,
      "ĠPur": 6687,
      "ĠPadan": 6688,
      "ieve": 6689,
      "Ġworth": 6690,
      "Ġlovest": 6691,
      "Ġholes": 6692,
      "Ġoversight": 6693,
      "Ġariseth": 6694,
      "Ġbrid": 6695,
      "Ġbrutish": 6696,
      "ĠBeing": 6697,
      "ĠBeeroth": 6698,
      "Ġlacked": 6699,
      "Ġcost": 6700,
      "itted": 6701,
      "ĠJudge": 6702,
      "Ġsweareth": 6703,
      "ĠJeiel": 6704,
      "ĠZin": 6705,
      "ĠZobah": 6706,
      "ĠAbiram": 6707,
      "allat": 6708,
      "Ġmightily": 6709,
      "ubal": 6710,
      "Ġsentence": 6711,
      "Ġperil": 6712,
      "Ġperfection": 6713,
      "ĠShu": 6714,
      "ĠShew": 6715,
      "ĠShelah": 6716,
      "igned": 6717,
      "Ġthroughly": 6718,
      "ebar": 6719,
      "Ġexper": 6720,
      "Ġridd": 6721,
      "ĠKidron": 6722,
      "Ġscal": 6723,
      "unished": 6724,
      "Ġslumber": 6725,
      "Ġgathering": 6726,
      "Ġkeeping": 6727,
      "Ġmoons": 6728,
      "Ġthirteenth": 6729,
      "Ġentrance": 6730,
      "Ġblessings": 6731,
      "Ġcarnal": 6732,
      "ffed": 6733,
      "Ġwarm": 6734,
      "Ġwarn": 6735,
      "arks": 6736,
      "Ġclosed": 6737,
      "Ġsang": 6738,
      "Ġflax": 6739,
      "Ġwells": 6740,
      "Ġleaf": 6741,
      "Ġlaying": 6742,
      "Ġunderstandeth": 6743,
      "ĠGog": 6744,
      "ĠElihu": 6745,
      "aram": 6746,
      "bbas": 6747,
      "ecially": 6748,
      "Ġutmost": 6749,
      "Ġdesolations": 6750,
      "Ġdivor": 6751,
      "Ġdivine": 6752,
      "Ġjustify": 6753,
      "Ġprovision": 6754,
      "Ġhelm": 6755,
      "Ġmeasuring": 6756,
      "Ġrecovered": 6757,
      "Ġburying": 6758,
      "Ġwaiteth": 6759,
      "Ġsignet": 6760,
      "ĠAdullam": 6761,
      "Ġidle": 6762,
      "Ġhoped": 6763,
      "Ġguile": 6764,
      "Ġmourneth": 6765,
      "Ġprofess": 6766,
      "Ġgrind": 6767,
      "avel": 6768,
      "aveth": 6769,
      "ĠJoah": 6770,
      "Ġbondw": 6771,
      "Ġcorrection": 6772,
      "Ġrunneth": 6773,
      "Ġbracele": 6774,
      "ĠJehoiachin": 6775,
      "Ġtradition": 6776,
      "ĠVash": 6777,
      "ĠHanun": 6778,
      "ĠHanani": 6779,
      "Ġplainly": 6780,
      "ĠAfterward": 6781,
      "Ġintercess": 6782,
      "Ġpastures": 6783,
      "Ġrenown": 6784,
      "Ġvirt": 6785,
      "Ġdispers": 6786,
      "Ġobserved": 6787,
      "ĠUzzi": 6788,
      "ĠAshtaroth": 6789,
      "Ġlowest": 6790,
      "Ġafterwards": 6791,
      "Ġpollute": 6792,
      "Ġdeceitfully": 6793,
      "Ġfetters": 6794,
      "ĠKnowest": 6795,
      "Ġlamented": 6796,
      "ĠSince": 6797,
      "Ġintent": 6798,
      "Ġpublished": 6799,
      "ĠUrijah": 6800,
      "Ġdistressed": 6801,
      "ouraged": 6802,
      "Ġmarket": 6803,
      "ĠHarim": 6804,
      "ĠPeradventure": 6805,
      "ĠBoz": 6806,
      "Ġcareful": 6807,
      "Ġarrayed": 6808,
      "Ġreeds": 6809,
      "Ġhypocrite": 6810,
      "ĠRedeem": 6811,
      "Ġscorner": 6812,
      "Ġovercometh": 6813,
      "ĠAmmi": 6814,
      "Ġstraitly": 6815,
      "Ġflying": 6816,
      "Ġproceedeth": 6817,
      "Ġbesiege": 6818,
      "Ġeighteenth": 6819,
      "ĠKenaz": 6820,
      "Ġrobes": 6821,
      "Ġconspira": 6822,
      "Ġcraft": 6823,
      "Ġheirs": 6824,
      "Ġidolat": 6825,
      "ĠBarabbas": 6826,
      "Ġalike": 6827,
      "ĠBeriah": 6828,
      "Ġquench": 6829,
      "Ġpierc": 6830,
      "Ġstroke": 6831,
      "Ġrobbers": 6832,
      "Ġoverflowing": 6833,
      "ĠMahli": 6834,
      "Ġambush": 6835,
      "ĠParan": 6836,
      "Ġmorter": 6837,
      "ĠBilhah": 6838,
      "ĠApoll": 6839,
      "Ġunpunished": 6840,
      "Ġshining": 6841,
      "Ġesteemed": 6842,
      "ĠShelom": 6843,
      "Ġdishonour": 6844,
      "Ġexercise": 6845,
      "Ġstablish": 6846,
      "ĠFollow": 6847,
      "Ġbuckler": 6848,
      "Ġdesiring": 6849,
      "Ġenlarged": 6850,
      "ĠIzhar": 6851,
      "ĠJapheth": 6852,
      "ĠMilcah": 6853,
      "Ġscorp": 6854,
      "ĠBethany": 6855,
      "Ġinterpreted": 6856,
      "ĠProphesy": 6857,
      "ĠZacharias": 6858,
      "Ġmaintain": 6859,
      "Ġphys": 6860,
      "ĠMatth": 6861,
      "ĠDecl": 6862,
      "ĠZelophe": 6863,
      "chamber": 6864,
      "Ġaxe": 6865,
      "Ġabsent": 6866,
      "ĠRiblah": 6867,
      "Ġdissol": 6868,
      "ĠRezin": 6869,
      "Ġstumblingblock": 6870,
      "ĠAchaia": 6871,
      "Ġdemand": 6872,
      "ĠAnanias": 6873,
      "Ġdamnation": 6874,
      "ĠMegiddo": 6875,
      "Ġsimilitude": 6876,
      "Ġacquaintance": 6877,
      "zebub": 6878,
      "Ġpenny": 6879,
      "ĠHoshea": 6880,
      "ĠHappy": 6881,
      "ĠIscariot": 6882,
      "Ġspeckled": 6883,
      "ĠZelophehad": 6884,
      "Now": 6885,
      "aws": 6886,
      "ballat": 6887,
      "cast": 6888,
      "hel": 6889,
      "iath": 6890,
      "ients": 6891,
      "jalon": 6892,
      "judah": 6893,
      "lay": 6894,
      "lam": 6895,
      "ma": 6896,
      "oham": 6897,
      "rat": 6898,
      "sah": 6899,
      "tereth": 6900,
      "uries": 6901,
      "vah": 6902,
      "vings": 6903,
      "xad": 6904,
      "yed": 6905,
      "inth": 6906,
      "Ġwot": 6907,
      "Ġwrest": 6908,
      "erable": 6909,
      "Ġbake": 6910,
      "ouse": 6911,
      "Ġfer": 6912,
      "Ġfret": 6913,
      "ishadd": 6914,
      "ena": 6915,
      "Ġcurious": 6916,
      "orrupt": 6917,
      "eshazzar": 6918,
      "ĠAle": 6919,
      "Ġdet": 6920,
      "Ġdip": 6921,
      "Ġpen": 6922,
      "Ġpom": 6923,
      "Ġpear": 6924,
      "Ġpil": 6925,
      "Ġpush": 6926,
      "Ġpoureth": 6927,
      "ealt": 6928,
      "Ġnails": 6929,
      "Ġham": 6930,
      "Ġlil": 6931,
      "Ġlake": 6932,
      "Ġloss": 6933,
      "omf": 6934,
      "Ġgained": 6935,
      "Ġsacks": 6936,
      "Ġsaviour": 6937,
      "Ġunt": 6938,
      "Ġunw": 6939,
      "stain": 6940,
      "Ġtach": 6941,
      "Ġtail": 6942,
      "velation": 6943,
      "Ġnoble": 6944,
      "cho": 6945,
      "ĠTi": 6946,
      "ĠTro": 6947,
      "ĠTah": 6948,
      "ĠToph": 6949,
      "ĠTubal": 6950,
      "Ġew": 6951,
      "Ġwithstand": 6952,
      "Ġnotwithstanding": 6953,
      "eli": 6954,
      "elius": 6955,
      "amre": 6956,
      "amah": 6957,
      "thermore": 6958,
      "Ġreared": 6959,
      "ĠSho": 6960,
      "ĠBelt": 6961,
      "ĠBaanah": 6962,
      "ĠBerechiah": 6963,
      "urthermore": 6964,
      "Ġonyx": 6965,
      "venient": 6966,
      "adeth": 6967,
      "adah": 6968,
      "Ġshear": 6969,
      "Ġshoe": 6970,
      "Ġshove": 6971,
      "ĠHea": 6972,
      "ife": 6973,
      "ĠMill": 6974,
      "ĠMamre": 6975,
      "Ġspakest": 6976,
      "Ġstairs": 6977,
      "hopp": 6978,
      "ĠEd": 6979,
      "ĠEhud": 6980,
      "ĠFurthermore": 6981,
      "Ġhereafter": 6982,
      "Ġvom": 6983,
      "Ġvint": 6984,
      "ĠNic": 6985,
      "Ġbeforetime": 6986,
      "ĠDe": 6987,
      "ĠDathan": 6988,
      "ĠPi": 6989,
      "ĠPass": 6990,
      "Ġmenservants": 6991,
      "ĠCorn": 6992,
      "ĠCushi": 6993,
      "Ġaffection": 6994,
      "Ġknop": 6995,
      "Ġattained": 6996,
      "Ġconstra": 6997,
      "Ġconvenient": 6998,
      "Ġliers": 6999,
      "ĠWhereas": 7000,
      "Ġovertook": 7001,
      "resseth": 7002,
      "elled": 7003,
      "Ġbrim": 7004,
      "ĠBeor": 7005,
      "ĠHele": 7006,
      "ĠHepher": 7007,
      "ĠJeroham": 7008,
      "Ġearthen": 7009,
      "Ġsincer": 7010,
      "Ġdealeth": 7011,
      "Ġforthwith": 7012,
      "ĠZur": 7013,
      "ĠRahab": 7014,
      "Ġlifteth": 7015,
      "Ġglass": 7016,
      "ĠChereth": 7017,
      "Ġremission": 7018,
      "Ġroast": 7019,
      "Ġrotten": 7020,
      "ĠShes": 7021,
      "ĠShec": 7022,
      "Ġriding": 7023,
      "Ġscattereth": 7024,
      "unt": 7025,
      "unah": 7026,
      "Ġfounded": 7027,
      "Ġappeareth": 7028,
      "Ġretain": 7029,
      "Ġalarm": 7030,
      "Ġalmost": 7031,
      "Ġfamous": 7032,
      "Ġmidw": 7033,
      "Ġmoth": 7034,
      "Ġdiscomf": 7035,
      "Ġlights": 7036,
      "retch": 7037,
      "Ġpresum": 7038,
      "Ġpresents": 7039,
      "Ġwarned": 7040,
      "Ġflies": 7041,
      "ĠUz": 7042,
      "ĠReuel": 7043,
      "ĠBethuel": 7044,
      "Ġsubmit": 7045,
      "ĠEliel": 7046,
      "ront": 7047,
      "ĠArch": 7048,
      "ĠArpha": 7049,
      "Ġkinds": 7050,
      "Ġkindly": 7051,
      "Ġcleansing": 7052,
      "formed": 7053,
      "Ġdevice": 7054,
      "Ġdevoureth": 7055,
      "Ġaffright": 7056,
      "Ġdivideth": 7057,
      "Ġfinding": 7058,
      "Ġhonest": 7059,
      "Ġtimb": 7060,
      "Ġknewest": 7061,
      "Ġsunrising": 7062,
      "Ġreproved": 7063,
      "Ġbulls": 7064,
      "Ġburst": 7065,
      "ĠAdar": 7066,
      "ĠShelemiah": 7067,
      "Ġwashing": 7068,
      "Ġmindful": 7069,
      "ĠSamarit": 7070,
      "Ġredeemer": 7071,
      "Ġtreasuries": 7072,
      "Ġtroubleth": 7073,
      "Ġcorre": 7074,
      "Ġbeds": 7075,
      "Ġcurseth": 7076,
      "Ġsufferings": 7077,
      "peor": 7078,
      "Ġmaidservants": 7079,
      "Ġsecrets": 7080,
      "Ġinstruct": 7081,
      "Ġvillage": 7082,
      "Ġviolent": 7083,
      "Ġviolently": 7084,
      "Ġcouch": 7085,
      "ĠRemove": 7086,
      "Ġceaseth": 7087,
      "Ġpersecut": 7088,
      "Ġpersecution": 7089,
      "Ġgreed": 7090,
      "ĠUzza": 7091,
      "Ġgrasshopp": 7092,
      "Ġadversity": 7093,
      "Ġmagist": 7094,
      "Ġastonied": 7095,
      "Ġdiligence": 7096,
      "Ġsatisfy": 7097,
      "Ġblaspheme": 7098,
      "ĠStretch": 7099,
      "ĠAgainst": 7100,
      "Ġmanifested": 7101,
      "ĠBethlehemjudah": 7102,
      "eshbarn": 7103,
      "ĠZipp": 7104,
      "ĠBeloved": 7105,
      "Ġchastise": 7106,
      "Ġtreadeth": 7107,
      "Ġquietness": 7108,
      "Ġpervert": 7109,
      "Ġmadest": 7110,
      "Ġchance": 7111,
      "Ġwandered": 7112,
      "Ġdedication": 7113,
      "Ġmurderers": 7114,
      "Ġrecompensed": 7115,
      "headed": 7116,
      "Ġmiracle": 7117,
      "ĠKadeshbarn": 7118,
      "Ġequity": 7119,
      "Ġboldness": 7120,
      "Ġbrick": 7121,
      "Ġancients": 7122,
      "Ġpomegranate": 7123,
      "ĠNeriah": 7124,
      "ĠZidonians": 7125,
      "Ġexhortation": 7126,
      "Ġbirthright": 7127,
      "Ġzealous": 7128,
      "Ġpigeons": 7129,
      "Ġunbelie": 7130,
      "Ġhighways": 7131,
      "ĠDeborah": 7132,
      "Ġfellowserv": 7133,
      "ĠImmer": 7134,
      "ĠComm": 7135,
      "Ġstedfastly": 7136,
      "ĠAssyrians": 7137,
      "AMOS": 7138,
      "Ġmorsel": 7139,
      "Ġnecessity": 7140,
      "Ġcoupling": 7141,
      "Ġinfirmity": 7142,
      "Ġowl": 7143,
      "Ġpeaceably": 7144,
      "Ġaccusation": 7145,
      "ĠZoar": 7146,
      "Ġbalances": 7147,
      "Ġnourished": 7148,
      "Ġwithholden": 7149,
      "ĠSanballat": 7150,
      "ĠTabor": 7151,
      "Ġdipped": 7152,
      "ĠGreet": 7153,
      "Ġhaughty": 7154,
      "Ġwithdraw": 7155,
      "Ġrenew": 7156,
      "Ġrefreshed": 7157,
      "Ġturtled": 7158,
      "ĠGerar": 7159,
      "ĠTruly": 7160,
      "Ġnurse": 7161,
      "Ġwhelps": 7162,
      "ĠJethro": 7163,
      "Ġalmond": 7164,
      "Ġguiltless": 7165,
      "Ġenchantments": 7166,
      "Ġsaddled": 7167,
      "ĠJerahmeel": 7168,
      "Ġrumour": 7169,
      "Ġforefront": 7170,
      "Ġwreathen": 7171,
      "rehend": 7172,
      "ĠBathsheba": 7173,
      "ĠPadanaram": 7174,
      "Ġscales": 7175,
      "Ġbracelets": 7176,
      "ĠVashti": 7177,
      "Ġdispersed": 7178,
      "ĠAmmihud": 7179,
      "Ġconspiracy": 7180,
      "ĠApollos": 7181,
      "ĠDeclare": 7182,
      "ishaddai": 7183,
      "ĠAlex": 7184,
      "Ġlilies": 7185,
      "Ġtaches": 7186,
      "ĠBelteshazzar": 7187,
      "ĠMillo": 7188,
      "Ġvintage": 7189,
      "ĠCornelius": 7190,
      "ĠArphaxad": 7191,
      "ĠKadeshbarnea": 7192,
      "AL": 7193,
      "bai": 7194,
      "col": 7195,
      "ding": 7196,
      "dest": 7197,
      "dish": 7198,
      "ixed": 7199,
      "kn": 7200,
      "kelon": 7201,
      "la": 7202,
      "mity": 7203,
      "mbs": 7204,
      "maveth": 7205,
      "ns": 7206,
      "nai": 7207,
      "niel": 7208,
      "onder": 7209,
      "pill": 7210,
      "shon": 7211,
      "tan": 7212,
      "tage": 7213,
      "ui": 7214,
      "uck": 7215,
      "uously": 7216,
      "utors": 7217,
      "wood": 7218,
      "Ġthrow": 7219,
      "Ġthron": 7220,
      "Ġhed": 7221,
      "Ġhedge": 7222,
      "Ġwont": 7223,
      "eri": 7224,
      "erity": 7225,
      "erday": 7226,
      "Ġbill": 7227,
      "Ġbaken": 7228,
      "Ġbaths": 7229,
      "tones": 7230,
      "Ġmat": 7231,
      "Ġmixed": 7232,
      "Ġfan": 7233,
      "isance": 7234,
      "Ġcater": 7235,
      "Ġur": 7236,
      "ĠAv": 7237,
      "Ġdur": 7238,
      "Ġdau": 7239,
      "Ġdrought": 7240,
      "Ġpas": 7241,
      "Ġpow": 7242,
      "Ġpav": 7243,
      "Ġpang": 7244,
      "Ġpoint": 7245,
      "Ġnaught": 7246,
      "Ġnail": 7247,
      "iter": 7248,
      "itish": 7249,
      "iture": 7250,
      "itute": 7251,
      "Ġbell": 7252,
      "anks": 7253,
      "Ġsham": 7254,
      "Ġgent": 7255,
      "Ġsail": 7256,
      "Ġhem": 7257,
      "Ġunl": 7258,
      "Ġunic": 7259,
      "ids": 7260,
      "Ġtas": 7261,
      "Ġtip": 7262,
      "ĠLod": 7263,
      "ldron": 7264,
      "asons": 7265,
      "let": 7266,
      "ĠTeach": 7267,
      "raud": 7268,
      "Ġeg": 7269,
      "arch": 7270,
      "Ġissu": 7271,
      "Ġwiths": 7272,
      "ĠThess": 7273,
      "elids": 7274,
      "amation": 7275,
      "ĠJachin": 7276,
      "ĠGam": 7277,
      "ĠGird": 7278,
      "ĠGera": 7279,
      "riest": 7280,
      "Ġrevil": 7281,
      "Ġrevelation": 7282,
      "ĠSion": 7283,
      "ĠSeth": 7284,
      "ĠSab": 7285,
      "ĠSib": 7286,
      "ĠSmite": 7287,
      "ĠBig": 7288,
      "ĠBoth": 7289,
      "ilion": 7290,
      "ilight": 7291,
      "ilful": 7292,
      "iliation": 7293,
      "Ġthereunto": 7294,
      "rof": 7295,
      "rolo": 7296,
      "Ġassu": 7297,
      "Ġshined": 7298,
      "Ġshowers": 7299,
      "ĠHat": 7300,
      "hia": 7301,
      "ifully": 7302,
      "ĠMeth": 7303,
      "ĠMad": 7304,
      "ĠMisha": 7305,
      "Ġspan": 7306,
      "Ġstink": 7307,
      "hooks": 7308,
      "ĠEng": 7309,
      "ĠElon": 7310,
      "ĠEzer": 7311,
      "Ġbutter": 7312,
      "ĠWoman": 7313,
      "Ġaged": 7314,
      "almon": 7315,
      "ĠFeli": 7316,
      "Ġvale": 7317,
      "Ġcase": 7318,
      "Ġcaldron": 7319,
      "abeth": 7320,
      "ably": 7321,
      "Ġhandful": 7322,
      "ithiah": 7323,
      "emath": 7324,
      "phele": 7325,
      "ĠOF": 7326,
      "ĠNor": 7327,
      "ĠDor": 7328,
      "ĠDod": 7329,
      "ĠPrin": 7330,
      "ĠPele": 7331,
      "Ġabiding": 7332,
      "ĠCai": 7333,
      "Ġknops": 7334,
      "Ġsol": 7335,
      "adezer": 7336,
      "Ġcontain": 7337,
      "Ġtwilight": 7338,
      "Ġsup": 7339,
      "Ġhollow": 7340,
      "avan": 7341,
      "Ġhasty": 7342,
      "Ġhasteth": 7343,
      "ouses": 7344,
      "ppim": 7345,
      "Ġpriv": 7346,
      "ola": 7347,
      "Ġyearly": 7348,
      "Ġstocks": 7349,
      "Ġboasting": 7350,
      "Ġbooths": 7351,
      "Ġplaister": 7352,
      "ĠZil": 7353,
      "Ġwhereupon": 7354,
      "ĠRome": 7355,
      "Ġmule": 7356,
      "icia": 7357,
      "Ġpraising": 7358,
      "Ġbloss": 7359,
      "Ġsett": 7360,
      "Ġsettle": 7361,
      "swer": 7362,
      "ĠChen": 7363,
      "ĠChem": 7364,
      "Ġrav": 7365,
      "Ġrained": 7366,
      "ĠShere": 7367,
      "ĠShealt": 7368,
      "Ġeyelids": 7369,
      "Ġsmo": 7370,
      "Ġevils": 7371,
      "necked": 7372,
      "Ġdeliverer": 7373,
      "Ġdisgu": 7374,
      "Ġext": 7375,
      "easing": 7376,
      "lieth": 7377,
      "Ġcastle": 7378,
      "Ġscab": 7379,
      "Ġtabret": 7380,
      "Ġfeel": 7381,
      "Ġfever": 7382,
      "Ġfeeding": 7383,
      "Ġsling": 7384,
      "Ġalthough": 7385,
      "Ġrepay": 7386,
      "Ġpoison": 7387,
      "Ġthirtieth": 7388,
      "Ġsilent": 7389,
      "isedec": 7390,
      "retion": 7391,
      "Ġcontention": 7392,
      "llows": 7393,
      "Ġwarp": 7394,
      "Ġwarred": 7395,
      "Ġhart": 7396,
      "ossible": 7397,
      "Ġflaming": 7398,
      "Ġbuildeth": 7399,
      "Ġcovert": 7400,
      "Ġlonged": 7401,
      "Ġsubtil": 7402,
      "Ġseekest": 7403,
      "aphas": 7404,
      "Ġforgave": 7405,
      "ĠEphrath": 7406,
      "ĠHowl": 7407,
      "Ġexceed": 7408,
      "Ġholdeth": 7409,
      "Ġchest": 7410,
      "Ġwitch": 7411,
      "Ġdevout": 7412,
      "Ġwoof": 7413,
      "Ġuttereth": 7414,
      "Ġserveth": 7415,
      "ibah": 7416,
      "Ġsaluted": 7417,
      "Ġhonoured": 7418,
      "Ġhonoureth": 7419,
      "Ġpreparation": 7420,
      "Ġprovided": 7421,
      "Ġmarvel": 7422,
      "Ġdefenced": 7423,
      "Ġministering": 7424,
      "Ġhelper": 7425,
      "ĠAsshur": 7426,
      "ĠAdaiah": 7427,
      "ĠAnswer": 7428,
      "Ġspoiler": 7429,
      "Ġguest": 7430,
      "avement": 7431,
      "Ġperisheth": 7432,
      "ĠJozabad": 7433,
      "ĠAmmonite": 7434,
      "Ġtreasury": 7435,
      "Ġobeisance": 7436,
      "Ġfleeth": 7437,
      "Ġterrif": 7438,
      "Ġlabourers": 7439,
      "ĠGileadite": 7440,
      "hars": 7441,
      "Ġfleece": 7442,
      "Ġjourneys": 7443,
      "ĠAlpha": 7444,
      "Ġtravell": 7445,
      "Ġgetteth": 7446,
      "Ġmaids": 7447,
      "ĠZebadiah": 7448,
      "Ġlifting": 7449,
      "Ġexalteth": 7450,
      "Ġrequite": 7451,
      "ĠMahal": 7452,
      "Ġsnared": 7453,
      "Ġcruse": 7454,
      "Ġcrowns": 7455,
      "Ġrefuseth": 7456,
      "Ġdeeper": 7457,
      "Ġrebellion": 7458,
      "Ġdens": 7459,
      "Ġtalking": 7460,
      "Ġbaptize": 7461,
      "Ġcondu": 7462,
      "Ġbitterly": 7463,
      "ĠJobab": 7464,
      "ĠAshkelon": 7465,
      "Ġseethe": 7466,
      "Ġhoneycom": 7467,
      "Ġhungred": 7468,
      "Ġposterity": 7469,
      "Ġlearning": 7470,
      "Ġregarded": 7471,
      "Ġbindeth": 7472,
      "Ġproudly": 7473,
      "Ġintend": 7474,
      "Ġreapers": 7475,
      "ĠNahash": 7476,
      "kedah": 7477,
      "ĠHadadezer": 7478,
      "Ġproclamation": 7479,
      "Ġimpossible": 7480,
      "ĠTimnath": 7481,
      "Ġavenger": 7482,
      "Ġfoursquare": 7483,
      "Ġdefileth": 7484,
      "Ġrecorder": 7485,
      "Ġvirginity": 7486,
      "ĠHormah": 7487,
      "Ġmadness": 7488,
      "Ġconsecration": 7489,
      "Ġbenef": 7490,
      "ĠAraunah": 7491,
      "worm": 7492,
      "Ġsharpen": 7493,
      "Ġshortened": 7494,
      "Ġtemples": 7495,
      "Ġproceeded": 7496,
      "Ġpersuade": 7497,
      "Ġexpired": 7498,
      "Ġeagles": 7499,
      "Ġhireling": 7500,
      "Ġenlarge": 7501,
      "Ġbehaved": 7502,
      "Ġtreacherous": 7503,
      "Ġpartaker": 7504,
      "Ġastrolo": 7505,
      "Ġsorcer": 7506,
      "Ġtakest": 7507,
      "ĠHagg": 7508,
      "ĠGershonites": 7509,
      "Ġcrafts": 7510,
      "Ġproverbs": 7511,
      "ĠNahshon": 7512,
      "ĠRepha": 7513,
      "Ġadvice": 7514,
      "ĠElisabeth": 7515,
      "ĠHivite": 7516,
      "Ġprolonged": 7517,
      "Ġconsidereth": 7518,
      "ĠMalchiah": 7519,
      "ĠMakkedah": 7520,
      "ĠShebna": 7521,
      "Ġbestow": 7522,
      "Ġquarters": 7523,
      "Ġadulterers": 7524,
      "Ġbruised": 7525,
      "Ġparched": 7526,
      "Ġnecessary": 7527,
      "Ġgroaning": 7528,
      "Ġhewers": 7529,
      "Ġshineth": 7530,
      "Ġmurmurings": 7531,
      "cribe": 7532,
      "ĠSanct": 7533,
      "ĠShobal": 7534,
      "Ġsheaf": 7535,
      "Ġsheaves": 7536,
      "ĠAnakims": 7537,
      "Ġdegrees": 7538,
      "Ġprevented": 7539,
      "Ġpurchased": 7540,
      "Ġdreadful": 7541,
      "Ġcopy": 7542,
      "ĠGaal": 7543,
      "ĠBeside": 7544,
      "Ġensign": 7545,
      "ĠMelchisedec": 7546,
      "Ġbabes": 7547,
      "Ġstamped": 7548,
      "ĠPeleth": 7549,
      "ĠBezaleel": 7550,
      "Ġforeskin": 7551,
      "Ġchamberlains": 7552,
      "Ġwagons": 7553,
      "Ġstiffnecked": 7554,
      "ĠDibon": 7555,
      "Ġconverted": 7556,
      "Ġdiminish": 7557,
      "Ġbetrothed": 7558,
      "Ġcarpenters": 7559,
      "ĠMichmash": 7560,
      "Ġmistress": 7561,
      "Ġsapphire": 7562,
      "Ġentreated": 7563,
      "Ġneedlework": 7564,
      "ĠNazarite": 7565,
      "Ġmillstone": 7566,
      "Ġwizards": 7567,
      "ĠSuffer": 7568,
      "Ġbridle": 7569,
      "Ġriddle": 7570,
      "Ġintercession": 7571,
      "ĠBozrah": 7572,
      "ĠShelomith": 7573,
      "Ġscorpions": 7574,
      "Ġfervent": 7575,
      "ĠTophet": 7576,
      "Ġshovels": 7577,
      "ĠCherethites": 7578,
      "Ġdiscomfited": 7579,
      "Ġaffrighted": 7580,
      "ĠCommand": 7581,
      "Ġthrones": 7582,
      "Ġcaterpill": 7583,
      "Ġdurst": 7584,
      "Ġpangs": 7585,
      "ĠThessalon": 7586,
      "Ġassured": 7587,
      "ĠFelix": 7588,
      "ĠCaiaphas": 7589,
      "Ġblossom": 7590,
      "ĠShealtiel": 7591,
      "Ġhoneycomb": 7592,
      "HN": 7593,
      "bu": 7594,
      "ban": 7595,
      "bar": 7596,
      "beth": 7597,
      "biah": 7598,
      "boa": 7599,
      "cra": 7600,
      "due": 7601,
      "eg": 7602,
      "ezer": 7603,
      "ga": 7604,
      "gies": 7605,
      "gments": 7606,
      "hement": 7607,
      "kins": 7608,
      "lst": 7609,
      "lai": 7610,
      "mith": 7611,
      "miel": 7612,
      "oenai": 7613,
      "prus": 7614,
      "ties": 7615,
      "une": 7616,
      "ually": 7617,
      "word": 7618,
      "Ġsine": 7619,
      "Ġsli": 7620,
      "Ġsower": 7621,
      "Ġouch": 7622,
      "ineth": 7623,
      "inate": 7624,
      "Ġwed": 7625,
      "rei": 7626,
      "Ġbent": 7627,
      "Ġbles": 7628,
      "Ġbul": 7629,
      "Ġbery": 7630,
      "tofore": 7631,
      "isgah": 7632,
      "Ġcle": 7633,
      "ĠAri": 7634,
      "ĠAkk": 7635,
      "Ġdance": 7636,
      "Ġdough": 7637,
      "Ġdross": 7638,
      "Ġduty": 7639,
      "Ġpine": 7640,
      "Ġpavement": 7641,
      "Ġbee": 7642,
      "Ġbeckon": 7643,
      "ĠIra": 7644,
      "Ġwipe": 7645,
      "Ġhall": 7646,
      "Ġshaking": 7647,
      "Ġwheresoever": 7648,
      "semble": 7649,
      "Ġunkn": 7650,
      "idered": 7651,
      "Ġtren": 7652,
      "Ġtied": 7653,
      "Ġtares": 7654,
      "ĠLuz": 7655,
      "Ġhissing": 7656,
      "ghill": 7657,
      "ĠTill": 7658,
      "ĠTarry": 7659,
      "rai": 7660,
      "rar": 7661,
      "rand": 7662,
      "Ġevent": 7663,
      "Ġwithereth": 7664,
      "ĠThree": 7665,
      "ĠThink": 7666,
      "ammite": 7667,
      "ĠJE": 7668,
      "ĠJust": 7669,
      "rial": 7670,
      "Ġupro": 7671,
      "ĠSy": 7672,
      "ĠBl": 7673,
      "ĠBels": 7674,
      "ĠBichri": 7675,
      "Ġwhilst": 7676,
      "ilicia": 7677,
      "rog": 7678,
      "ahem": 7679,
      "Ġsheath": 7680,
      "ĠHara": 7681,
      "ĠIshi": 7682,
      "ĠMig": 7683,
      "ĠMall": 7684,
      "ĠMushi": 7685,
      "Ġsport": 7686,
      "Ġsprung": 7687,
      "Ġstru": 7688,
      "Ġstall": 7689,
      "Ġoutgo": 7690,
      "Ġoutside": 7691,
      "Ġbutler": 7692,
      "ĠWould": 7693,
      "Ġdoer": 7694,
      "Ġvie": 7695,
      "Ġvip": 7696,
      "Ġvap": 7697,
      "phen": 7698,
      "ĠOth": 7699,
      "Ġplants": 7700,
      "ĠDis": 7701,
      "ĠDrink": 7702,
      "ĠDuke": 7703,
      "Ġhearest": 7704,
      "iece": 7705,
      "ĠCon": 7706,
      "ĠChi": 7707,
      "ĠCry": 7708,
      "ĠCilicia": 7709,
      "Ġsooths": 7710,
      "Ġconce": 7711,
      "Ġworms": 7712,
      "Ġliars": 7713,
      "Ġlofty": 7714,
      "Ġoverwh": 7715,
      "reshah": 7716,
      "Ġhastily": 7717,
      "Ġdecked": 7718,
      "ĠJesh": 7719,
      "ĠJerimoth": 7720,
      "olished": 7721,
      "ump": 7722,
      "athah": 7723,
      "Ġhearted": 7724,
      "quiet": 7725,
      "Ġgallows": 7726,
      "Ġcoll": 7727,
      "Ġswim": 7728,
      "Ġswarm": 7729,
      "Ġsinful": 7730,
      "Ġstock": 7731,
      "ĠJec": 7732,
      "ĠJether": 7733,
      "ĠJeush": 7734,
      "Ġbox": 7735,
      "ĠZe": 7736,
      "ĠZorah": 7737,
      "ĠZabad": 7738,
      "ĠRom": 7739,
      "ĠRock": 7740,
      "ĠAbdon": 7741,
      "allu": 7742,
      "ician": 7743,
      "Ġenmity": 7744,
      "Ġbroidered": 7745,
      "Ġperple": 7746,
      "Ġperdition": 7747,
      "ĠChebar": 7748,
      "Ġraiseth": 7749,
      "ĠShin": 7750,
      "ĠShisha": 7751,
      "Ġprefer": 7752,
      "Ġbegu": 7753,
      "Ġdiseased": 7754,
      "Ġdisquiet": 7755,
      "Ġlawy": 7756,
      "Ġextor": 7757,
      "Ġjudgest": 7758,
      "Ġgiant": 7759,
      "Ġdestitute": 7760,
      "Ġrud": 7761,
      "Ġrighteously": 7762,
      "Ġendured": 7763,
      "Ġprophetess": 7764,
      "Ġslack": 7765,
      "Ġapple": 7766,
      "Ġdestroyeth": 7767,
      "Ġgrain": 7768,
      "Ġmoveth": 7769,
      "Ġdiscretion": 7770,
      "Ġfearing": 7771,
      "Ġfaithfully": 7772,
      "Ġincorrupt": 7773,
      "Ġmothers": 7774,
      "Ġrestrained": 7775,
      "Ġimm": 7776,
      "Ġtemper": 7777,
[...]
